<unk>	0
<s>	0
</s>	0
<pad>	0
en	-0
er	-1
in	-2
▁t	-3
ch	-4
▁a	-5
▁d	-6
▁w	-7
▁s	-8
▁th	-9
nd	-10
ie	-11
es	-12
▁i	-13
at	-14
on	-15
▁m	-16
as	-17
an	-18
re	-19
▁the	-20
▁b	-21
▁h	-22
st	-23
it	-24
▁o	-25
▁e	-26
ll	-27
▁u	-28
▁g	-29
ou	-30
or	-31
ich	-32
ar	-33
▁f	-34
▁in	-35
▁I	-36
ing	-37
▁n	-38
▁S	-39
is	-40
le	-41
▁c	-42
▁p	-43
▁die	-44
te	-45
▁A	-46
▁to	-47
▁v	-48
ir	-49
▁ein	-50
al	-51
▁of	-52
▁and	-53
om	-54
ig	-55
▁l	-56
▁W	-57
ed	-58
▁k	-59
▁und	-60
▁be	-61
▁z	-62
un	-63
ut	-64
ur	-65
us	-66
▁das	-67
el	-68
ion	-69
▁y	-70
▁T	-71
et	-72
▁that	-73
ent	-74
▁D	-75
▁M	-76
ro	-77
em	-78
▁ha	-79
▁we	-80
ere	-81
ic	-82
▁you	-83
ra	-84
▁B	-85
▁E	-86
▁der	-87
▁wh	-88
eh	-89
ve	-90
ten	-91
▁is	-92
▁wir	-93
▁zu	-94
ow	-95
▁ist	-96
il	-97
ter	-98
▁it	-99
▁G	-100
ein	-101
ot	-102
▁an	-103
icht	-104
am	-105
gen	-106
ber	-107
ach	-108
ier	-109
de	-110
lich	-111
ben	-112
ind	-113
se	-114
▁so	-115
sch	-116
uf	-117
▁U	-118
ge	-119
▁re	-120
all	-121
▁F	-122
▁K	-123
ke	-124
▁ich	-125
▁ver	-126
ol	-127
▁un	-128
▁on	-129
▁P	-130
▁es	-131
im	-132
▁was	-133
▁L	-134
hr	-135
ct	-136
ay	-137
▁And	-138
▁Th	-139
ung	-140
▁H	-141
▁st	-142
den	-143
▁al	-144
ver	-145
▁er	-146
▁N	-147
▁this	-148
▁sie	-149
▁den	-150
▁Sie	-151
um	-152
▁-	-153
and	-154
▁j	-155
ür	-156
ck	-157
id	-158
uch	-159
nen	-160
▁all	-161
ld	-162
sen	-163
▁nicht	-164
op	-165
be	-166
ation	-167
▁dass	-168
▁von	-169
ce	-170
▁"	-171
▁--	-172
▁for	-173
▁R	-174
▁eine	-175
ann	-176
▁ab	-177
▁Und	-178
▁als	-179
▁r	-180
▁auf	-181
▁im	-182
▁do	-183
▁V	-184
th	-185
ell	-186
der	-187
est	-188
ill	-189
ag	-190
▁mit	-191
ith	-192
▁li	-193
ff	-194
ess	-195
ly	-196
ht	-197
▁are	-198
ally	-199
▁man	-200
▁sch	-201
▁J	-202
▁wie	-203
▁se	-204
isch	-205
enn	-206
ist	-207
▁war	-208
▁ne	-209
ul	-210
aus	-211
▁uns	-212
▁go	-213
▁have	-214
▁with	-215
▁So	-216
▁le	-217
▁C	-218
ers	-219
▁they	-220
au	-221
kt	-222
men	-223
▁sich	-224
▁he	-225
ust	-226
▁mo	-227
▁can	-228
eit	-229
▁as	-230
▁Z	-231
▁Ich	-232
▁O	-233
out	-234
os	-235
▁wor	-236
ern	-237
ab	-238
▁pro	-239
ant	-240
ad	-241
ib	-242
▁what	-243
▁sind	-244
über	-245
▁me	-246
ön	-247
▁1	-248
▁dies	-249
und	-250
▁com	-251
ies	-252
oo	-253
ehr	-254
▁at	-255
ft	-256
▁haben	-257
ould	-258
▁sp	-259
pp	-260
▁für	-261
▁In	-262
▁ge	-263
▁St	-264
ort	-265
ehen	-266
▁about	-267
▁hat	-268
▁sh	-269
▁ex	-270
▁fr	-271
▁not	-272
we	-273
▁aus	-274
ah	-275
ien	-276
ik	-277
▁The	-278
iel	-279
▁um	-280
iv	-281
▁We	-282
▁ch	-283
art	-284
ahr	-285
og	-286
▁som	-287
oll	-288
▁or	-289
▁über	-290
▁kön	-291
▁des	-292
ight	-293
▁Das	-294
▁wer	-295
end	-296
▁Es	-297
▁there	-298
▁dem	-299
her	-300
▁my	-301
ese	-302
ze	-303
mer	-304
▁Sch	-305
qu	-306
▁pe	-307
▁de	-308
▁Wir	-309
ink	-310
ive	-311
▁Le	-312
."	-313
ine	-314
▁mein	-315
ople	-316
▁It	-317
▁ma	-318
ate	-319
▁con	-320
▁sa	-321
igen	-322
▁diese	-323
▁one	-324
och	-325
od	-326
▁people	-327
▁Er	-328
▁da	-329
ity	-330
▁like	-331
▁kn	-332
ute	-333
tw	-334
▁from	-335
esch	-336
ure	-337
▁tr	-338
ang	-339
▁ar	-340
ause	-341
ap	-342
▁sein	-343
▁also	-344
ass	-345
▁wenn	-346
00	-347
elt	-348
▁bec	-349
▁einen	-350
▁but	-351
▁us	-352
ook	-353
ast	-354
▁out	-355
▁our	-356
▁get	-357
▁know	-358
▁Be	-359
zen	-360
▁Die	-361
▁ih	-362
ne	-363
▁just	-364
ensch	-365
ieren	-366
▁thing	-367
▁Pro	-368
▁können	-369
ted	-370
ear	-371
▁Ar	-372
▁2	-373
▁werden	-374
▁Y	-375
▁pl	-376
▁them	-377
▁oder	-378
▁An	-379
ild	-380
iert	-381
oug	-382
▁these	-383
ungen	-384
ick	-385
▁But	-386
▁very	-387
▁vor	-388
▁if	-389
▁her	-390
▁up	-391
▁think	-392
▁ent	-393
hl	-394
per	-395
▁who	-396
orm	-397
▁mach	-398
ank	-399
one	-400
ug	-401
ound	-402
▁kann	-403
ige	-404
▁going	-405
our	-406
if	-407
▁aber	-408
▁Ver	-409
▁Al	-410
iz	-411
ain	-412
▁by	-413
ud	-414
▁auch	-415
▁einer	-416
ack	-417
▁Mensch	-418
▁act	-419
▁see	-420
▁gen	-421
scha	-422
▁einem	-423
▁Aber	-424
ät	-425
zt	-426
ibt	-427
▁when	-428
sten	-429
eren	-430
▁dar	-431
ect	-432
▁di	-433
▁nach	-434
▁your	-435
▁Un	-436
▁because	-437
ide	-438
ame	-439
▁had	-440
ert	-441
▁some	-442
olog	-443
age	-444
▁nur	-445
pl	-446
ial	-447
nt	-448
▁year	-449
▁en	-450
ans	-451
▁more	-452
▁hier	-453
änd	-454
pt	-455
ard	-456
ak	-457
▁sehr	-458
▁te	-459
ste	-460
▁wird	-461
▁etw	-462
▁will	-463
ob	-464
▁tim	-465
tern	-466
▁Re	-467
▁Ge	-468
ischen	-469
ble	-470
ru	-471
to	-472
▁which	-473
reat	-474
▁would	-475
▁♫	-476
▁ever	-477
▁Menschen	-478
itt	-479
ück	-480
urch	-481
äch	-482
ör	-483
▁look	-484
ple	-485
ise	-486
▁really	-487
ose	-488
ond	-489
▁were	-490
▁their	-491
▁am	-492
▁mich	-493
ous	-494
ually	-495
▁how	-496
▁–	-497
▁Wh	-498
are	-499
▁work	-500
keit	-501
ens	-502
▁gibt	-503
hing	-504
issen	-505
▁Te	-506
▁dann	-507
▁kein	-508
fe	-509
▁wur	-510
▁Jahr	-511
▁way	-512
ong	-513
chen	-514
▁here	-515
▁gro	-516
▁vie	-517
▁per	-518
▁gl	-519
he	-520
▁Ih	-521
du	-522
chn	-523
ue	-524
lle	-525
▁You	-526
beit	-527
▁has	-528
▁qu	-529
lie	-530
hal	-531
heit	-532
▁noch	-533
▁world	-534
▁ste	-535
wo	-536
ven	-537
▁then	-538
▁etwas	-539
ater	-540
▁time	-541
ther	-542
▁Sp	-543
ment	-544
ommen	-545
▁ihr	-546
ign	-547
ions	-548
▁This	-549
schaft	-550
▁inter	-551
▁fa	-552
ough	-553
ken	-554
ia	-555
ub	-556
ore	-557
▁mir	-558
blem	-559
▁habe	-560
▁sehen	-561
▁don	-562
▁into	-563
▁actually	-564
▁every	-565
▁Als	-566
än	-567
▁Ein	-568
▁say	-569
▁pr	-570
ip	-571
ite	-572
▁dieser	-573
▁Welt	-574
yst	-575
rie	-576
alk	-577
▁mus	-578
▁could	-579
auf	-580
▁mehr	-581
sel	-582
▁want	-583
pr	-584
▁bet	-585
▁zur	-586
▁durch	-587
▁things	-588
▁now	-589
▁gr	-590
▁fe	-591
▁sag	-592
▁where	-593
ische	-594
▁bei	-595
▁years	-596
ult	-597
▁jed	-598
▁ag	-599
▁Now	-600
ystem	-601
ner	-602
▁bra	-603
▁did	-604
▁other	-605
lichen	-606
ren	-607
etzt	-608
▁viel	-609
ring	-610
▁somet	-611
▁Wenn	-612
ace	-613
cht	-614
▁Leben	-615
▁They	-616
▁been	-617
form	-618
▁Fra	-619
liche	-620
ac	-621
ical	-622
ph	-623
▁any	-624
▁ro	-625
▁sc	-626
▁alle	-627
▁ges	-628
▁beg	-629
üs	-630
▁diff	-631
▁no	-632
▁make	-633
▁happ	-634
▁cl	-635
▁Zeit	-636
▁ob	-637
ome	-638
▁let	-639
klich	-640
fach	-641
ry	-642
ile	-643
▁geh	-644
▁gan	-645
me	-646
rei	-647
▁Ch	-648
▁said	-649
▁mö	-650
▁tra	-651
ost	-652
fl	-653
▁zum	-654
▁find	-655
▁comp	-656
▁wurde	-657
ungs	-658
▁need	-659
fen	-660
▁Ihnen	-661
irst	-662
▁right	-663
▁wür	-664
▁part	-665
ake	-666
wer	-667
mt	-668
zu	-669
ree	-670
ory	-671
▁over	-672
▁unser	-673
ßen	-674
ähr	-675
▁something	-676
ice	-677
chte	-678
▁bl	-679
▁He	-680
▁sel	-681
▁machen	-682
iver	-683
inge	-684
che	-685
ellen	-686
▁back	-687
assen	-688
gt	-689
▁wo	-690
fr	-691
illion	-692
chnolog	-693
▁wirklich	-694
erst	-695
▁unter	-696
▁kind	-697
ient	-698
▁got	-699
ount	-700
▁ihre	-701
able	-702
▁Gesch	-703
000	-704
als	-705
fü	-706
▁two	-707
▁tun	-708
▁much	-709
▁einfach	-710
▁immer	-711
ys	-712
▁Kind	-713
ange	-714
ger	-715
▁than	-716
▁meine	-717
▁3	-718
▁call	-719
ittle	-720
acht	-721
▁bu	-722
▁weit	-723
▁first	-724
sp	-725
own	-726
red	-727
bst	-728
▁those	-729
▁little	-730
▁weil	-731
ark	-732
▁bes	-733
aten	-734
ations	-735
▁Also	-736
ffen	-737
▁kon	-738
erson	-739
rit	-740
cent	-741
▁ph	-742
▁new	-743
▁lot	-744
nte	-745
▁Gr	-746
▁woll	-747
?"	-748
▁fü	-749
ats	-750
▁Or	-751
▁lo	-752
▁imp	-753
▁soll	-754
way	-755
ves	-756
iger	-757
▁hatte	-758
▁dieses	-759
▁bis	-760
eln	-761
▁That	-762
▁Ne	-763
ord	-764
▁ra	-765
▁kom	-766
ale	-767
▁res	-768
▁talk	-769
gan	-770
▁müs	-771
▁kle	-772
vel	-773
▁ac	-774
▁spe	-775
▁unsere	-776
▁Man	-777
ri	-778
▁Was	-779
ath	-780
▁dis	-781
ase	-782
ehmen	-783
ges	-784
▁po	-785
ody	-786
▁most	-787
hen	-788
▁dam	-789
leich	-790
hn	-791
ood	-792
uchen	-793
▁she	-794
▁only	-795
ving	-796
▁keine	-797
▁Leute	-798
aut	-799
ied	-800
är	-801
ated	-802
▁life	-803
wei	-804
glich	-805
▁wissen	-806
gend	-807
ition	-808
▁hin	-809
uen	-810
ance	-811
▁real	-812
▁Art	-813
▁his	-814
ktion	-815
▁ad	-816
erent	-817
▁vers	-818
mal	-819
ents	-820
▁diesem	-821
ely	-822
ram	-823
▁even	-824
▁müssen	-825
▁day	-826
▁gut	-827
▁19	-828
inn	-829
▁cont	-830
▁star	-831
▁Dinge	-832
▁hum	-833
▁thr	-834
xt	-835
ish	-836
bar	-837
▁sagen	-838
▁sagte	-839
▁viele	-840
▁waren	-841
▁take	-842
▁zw	-843
▁Ges	-844
▁different	-845
▁diesen	-846
▁ze	-847
ok	-848
▁ide	-849
iß	-850
igkeit	-851
▁lie	-852
ons	-853
gl	-854
▁Vor	-855
▁off	-856
ichte	-857
▁bin	-858
▁many	-859
▁dr	-860
▁good	-861
▁groß	-862
unden	-863
▁bef	-864
▁Jahren	-865
▁fl	-866
▁su	-867
▁Se	-868
▁pass	-869
▁down	-870
wn	-871
ict	-872
other	-873
▁There	-874
▁ind	-875
▁20	-876
▁does	-877
ont	-878
▁nat	-879
int	-880
▁around	-881
▁through	-882
▁put	-883
get	-884
▁eines	-885
ahl	-886
ammen	-887
▁jetzt	-888
▁hel	-889
▁andere	-890
▁zwei	-891
▁5	-892
ors	-893
act	-894
urn	-895
▁What	-896
▁gew	-897
▁bek	-898
▁wieder	-899
ution	-900
▁Aus	-901
off	-902
▁anderen	-903
iss	-904
ichtig	-905
▁pre	-906
▁show	-907
llen	-908
usammen	-909
▁10	-910
ool	-911
ty	-912
tel	-913
ahre	-914
ität	-915
cess	-916
lleicht	-917
▁verb	-918
▁em	-919
▁glau	-920
ience	-921
ible	-922
▁Auf	-923
▁sol	-924
▁use	-925
oc	-926
▁being	-927
ought	-928
▁alles	-929
▁tell	-930
▁würde	-931
ary	-932
▁Wie	-933
auen	-934
igh	-935
vol	-936
▁Dies	-937
ss	-938
▁du	-939
▁problem	-940
vor	-941
▁damit	-942
▁selbst	-943
▁En	-944
ious	-945
▁happen	-946
ual	-947
▁same	-948
gr	-949
oss	-950
▁bring	-951
old	-952
ekt	-953
isten	-954
▁comm	-955
ha	-956
igt	-957
▁try	-958
ähl	-959
▁Ind	-960
▁inc	-961
▁fact	-962
▁4	-963
ede	-964
▁gem	-965
ces	-966
▁best	-967
▁wen	-968
arn	-969
ars	-970
▁come	-971
▁Problem	-972
▁sm	-973
▁Der	-974
▁ins	-975
geb	-976
▁geht	-977
▁fun	-978
ian	-979
ful	-980
tra	-981
yp	-982
▁doing	-983
ject	-984
ower	-985
day	-986
▁wel	-987
ler	-988
▁stud	-989
ün	-990
amil	-991
▁Jahre	-992
formation	-993
▁may	-994
▁great	-995
fter	-996
ism	-997
att	-998
▁big	-999
ically	-1000
▁Pl	-1001
▁zurück	-1002
▁three	-1003
omen	-1004
ep	-1005
▁count	-1006
nis	-1007
▁lang	-1008
▁gesch	-1009
▁Mit	-1010
uss	-1011
▁bit	-1012
äl	-1013
▁denn	-1014
▁start	-1015
▁hal	-1016
▁nie	-1017
▁human	-1018
▁muss	-1019
ire	-1020
ade	-1021
▁system	-1022
▁end	-1023
▁versch	-1024
▁If	-1025
piel	-1026
▁sur	-1027
ction	-1028
tet	-1029
ved	-1030
ting	-1031
▁well	-1032
▁percent	-1033
▁produ	-1034
▁weiter	-1035
▁Um	-1036
ächlich	-1037
nten	-1038
▁sim	-1039
▁gu	-1040
äre	-1041
▁ger	-1042
▁schon	-1043
öß	-1044
▁dec	-1045
▁ir	-1046
ics	-1047
ucht	-1048
thing	-1049
▁klein	-1050
▁heraus	-1051
ds	-1052
ize	-1053
zent	-1054
▁pa	-1055
▁ask	-1056
tell	-1057
▁called	-1058
▁ben	-1059
▁exper	-1060
▁build	-1061
▁bas	-1062
von	-1063
▁hand	-1064
▁app	-1065
iden	-1066
ating	-1067
ock	-1068
▁möchte	-1069
stell	-1070
▁Well	-1071
▁gra	-1072
▁Bl	-1073
▁verst	-1074
▁Amer	-1075
self	-1076
▁child	-1077
▁again	-1078
▁pol	-1079
▁ihnen	-1080
▁Fl	-1081
alt	-1082
rä	-1083
üt	-1084
▁ganz	-1085
▁Afr	-1086
▁technolog	-1087
ull	-1088
▁made	-1089
teil	-1090
▁vielleicht	-1091
la	-1092
▁Ide	-1093
▁Arbeit	-1094
les	-1095
hren	-1096
▁Teil	-1097
pro	-1098
▁quest	-1099
io	-1100
▁Her	-1101
halten	-1102
gel	-1103
▁ele	-1104
ork	-1105
▁long	-1106
ivers	-1107
atsächlich	-1108
▁einz	-1109
ek	-1110
▁zusammen	-1111
▁Kinder	-1112
etz	-1113
ates	-1114
äh	-1115
bt	-1116
▁trans	-1117
its	-1118
▁rem	-1119
▁arbeit	-1120
▁Nun	-1121
▁import	-1122
▁should	-1123
▁learn	-1124
cial	-1125
▁Geh	-1126
▁Land	-1127
▁mak	-1128
az	-1129
fahr	-1130
▁davon	-1131
esen	-1132
▁own	-1133
eld	-1134
entlich	-1135
▁fra	-1136
bs	-1137
▁why	-1138
angen	-1139
▁rel	-1140
pf	-1141
▁sec	-1142
▁For	-1143
oment	-1144
sam	-1145
▁Gen	-1146
▁underst	-1147
ierte	-1148
sche	-1149
ational	-1150
uter	-1151
uten	-1152
ities	-1153
▁Beis	-1154
▁Hier	-1155
▁mean	-1156
aum	-1157
▁gleich	-1158
▁person	-1159
▁All	-1160
▁Tag	-1161
eine	-1162
▁heute	-1163
▁cour	-1164
▁Wissen	-1165
▁hatten	-1166
uß	-1167
▁car	-1168
▁entw	-1169
▁Grund	-1170
▁thought	-1171
▁Im	-1172
▁after	-1173
▁turn	-1174
▁idea	-1175
halb	-1176
▁genau	-1177
▁Geschichte	-1178
for	-1179
▁fin	-1180
weise	-1181
▁design	-1182
zie	-1183
rank	-1184
▁didn	-1185
▁Bild	-1186
erm	-1187
▁today	-1188
▁letz	-1189
▁rec	-1190
ielen	-1191
br	-1192
ope	-1193
ubl	-1194
▁change	-1195
onom	-1196
▁brain	-1197
,000	-1198
▁feel	-1199
▁Fre	-1200
▁play	-1201
ail	-1202
inden	-1203
▁str	-1204
▁belie	-1205
▁important	-1206
erg	-1207
▁creat	-1208
ichten	-1209
ular	-1210
chten	-1211
body	-1212
ica	-1213
anden	-1214
▁Nach	-1215
▁Thank	-1216
hne	-1217
▁ihn	-1218
rechen	-1219
▁jem	-1220
▁its	-1221
▁last	-1222
anet	-1223
▁dort	-1224
omp	-1225
▁started	-1226
▁him	-1227
▁drei	-1228
kl	-1229
▁einige	-1230
▁könnte	-1231
ix	-1232
mlich	-1233
▁Diese	-1234
▁200	-1235
▁exam	-1236
over	-1237
atz	-1238
vent	-1239
▁paar	-1240
ändern	-1241
▁Unter	-1242
▁went	-1243
orn	-1244
oren	-1245
▁wollen	-1246
gar	-1247
ode	-1248
▁before	-1249
▁course	-1250
olle	-1251
▁Ste	-1252
erv	-1253
▁Zu	-1254
imm	-1255
▁nun	-1256
▁darüber	-1257
ings	-1258
▁understand	-1259
enden	-1260
▁werde	-1261
äd	-1262
atur	-1263
▁gehen	-1264
gram	-1265
▁meiner	-1266
▁wurden	-1267
▁give	-1268
reich	-1269
anz	-1270
▁still	-1271
irn	-1272
ache	-1273
▁sond	-1274
▁ans	-1275
▁able	-1276
▁tatsächlich	-1277
bei	-1278
asser	-1279
▁might	-1280
▁never	-1281
▁another	-1282
▁help	-1283
ility	-1284
ieden	-1285
▁ke	-1286
▁eff	-1287
▁better	-1288
..	-1289
▁Me	-1290
▁Beispiel	-1291
▁kl	-1292
▁story	-1293
utzen	-1294
▁verw	-1295
▁Da	-1296
▁erst	-1297
nde	-1298
▁schw	-1299
ogra	-1300
▁point	-1301
▁irgend	-1302
zähl	-1303
für	-1304
▁Ab	-1305
ennen	-1306
utz	-1307
▁Gl	-1308
▁sort	-1309
▁tak	-1310
ists	-1311
ürlich	-1312
schein	-1313
▁Geb	-1314
▁zie	-1315
▁sondern	-1316
▁weiß	-1317
ährend	-1318
▁cons	-1319
pen	-1320
▁bess	-1321
kay	-1322
amm	-1323
▁med	-1324
umber	-1325
▁power	-1326
eite	-1327
▁wahr	-1328
▁seine	-1329
uff	-1330
▁kid	-1331
▁br	-1332
ov	-1333
▁Ü	-1334
▁besch	-1335
änder	-1336
▁Ihre	-1337
▁eigen	-1338
▁found	-1339
▁bede	-1340
▁gab	-1341
▁bo	-1342
▁mal	-1343
oth	-1344
▁unserer	-1345
ital	-1346
ott	-1347
▁ago	-1348
▁Reg	-1349
ins	-1350
▁exp	-1351
ander	-1352
ugen	-1353
ward	-1354
▁next	-1355
▁Mus	-1356
ather	-1357
▁geb	-1358
aw	-1359
▁kam	-1360
iven	-1361
▁Kl	-1362
land	-1363
,"	-1364
▁gel	-1365
▁toget	-1366
▁together	-1367
fol	-1368
▁came	-1369
▁school	-1370
▁mon	-1371
▁ec	-1372
▁water	-1373
volution	-1374
▁Aut	-1375
▁wäre	-1376
▁6	-1377
arch	-1378
ues	-1379
ave	-1380
ts	-1381
▁denke	-1382
▁größ	-1383
▁Kon	-1384
allen	-1385
ED	-1386
▁Ph	-1387
▁Des	-1388
schen	-1389
▁place	-1390
▁Intern	-1391
rat	-1392
▁vom	-1393
▁leben	-1394
ingen	-1395
▁dazu	-1396
▁comple	-1397
ym	-1398
▁New	-1399
▁sl	-1400
ited	-1401
ata	-1402
▁imag	-1403
gef	-1404
▁pat	-1405
...	-1406
cted	-1407
▁few	-1408
achen	-1409
cken	-1410
ween	-1411
▁hät	-1412
▁neue	-1413
▁denken	-1414
alth	-1415
▁Lebens	-1416
▁Million	-1417
▁Chin	-1418
▁macht	-1419
▁kommen	-1420
▁used	-1421
öglich	-1422
velop	-1423
aufen	-1424
▁verl	-1425
▁number	-1426
▁Hand	-1427
▁finden	-1428
▁high	-1429
▁commun	-1430
▁technology	-1431
read	-1432
anted	-1433
▁each	-1434
▁denen	-1435
▁entwick	-1436
▁Mal	-1437
▁gemacht	-1438
▁gef	-1439
▁einmal	-1440
▁sogar	-1441
▁wichtig	-1442
▁min	-1443
arbeit	-1444
zeit	-1445
bl	-1446
▁gegen	-1447
▁inst	-1448
▁gerade	-1449
▁Technolog	-1450
▁Wer	-1451
iness	-1452
cause	-1453
ced	-1454
▁glaube	-1455
ized	-1456
▁When	-1457
▁between	-1458
▁question	-1459
els	-1460
▁Br	-1461
▁15	-1462
▁interess	-1463
▁zwischen	-1464
▁glob	-1465
▁kommt	-1466
eter	-1467
▁geben	-1468
öff	-1469
elle	-1470
▁looking	-1471
▁set	-1472
▁done	-1473
kommen	-1474
▁small	-1475
ative	-1476
geben	-1477
esting	-1478
ika	-1479
▁50	-1480
▁develop	-1481
ways	-1482
itu	-1483
▁example	-1484
▁funktion	-1485
▁organ	-1486
▁Ent	-1487
▁Frauen	-1488
▁30	-1489
ule	-1490
agen	-1491
ific	-1492
mit	-1493
▁100	-1494
ium	-1495
▁expl	-1496
▁Because	-1497
▁How	-1498
ierung	-1499
▁Ihr	-1500
ember	-1501
▁art	-1502
uge	-1503
affen	-1504
▁Med	-1505
▁too	-1506
▁bere	-1507
▁schn	-1508
▁Frage	-1509
cy	-1510
atch	-1511
▁TED	-1512
▁disc	-1513
▁par	-1514
▁four	-1515
▁näch	-1516
▁Wasser	-1517
▁Internet	-1518
arm	-1519
▁cre	-1520
aterial	-1521
▁Gehirn	-1522
▁ohne	-1523
▁partic	-1524
ört	-1525
▁old	-1526
▁vis	-1527
▁el	-1528
ps	-1529
▁form	-1530
▁run	-1531
▁zeigen	-1532
▁dafür	-1533
ines	-1534
unkt	-1535
▁love	-1536
uer	-1537
▁letzten	-1538
▁Über	-1539
atter	-1540
ationen	-1541
gew	-1542
▁nichts	-1543
ably	-1544
▁doesn	-1545
▁light	-1546
▁De	-1547
▁würden	-1548
▁9	-1549
▁data	-1550
ören	-1551
▁Is	-1552
▁sieht	-1553
▁passiert	-1554
▁8	-1555
▁Ex	-1556
▁met	-1557
▁women	-1558
dem	-1559
▁verschieden	-1560
▁ihren	-1561
▁ersten	-1562
▁bi	-1563
tz	-1564
weg	-1565
▁Prozent	-1566
stellen	-1567
▁wanted	-1568
▁cent	-1569
▁♪	-1570
▁cell	-1571
▁whole	-1572
▁jeder	-1573
▁konnte	-1574
▁grow	-1575
▁live	-1576
immt	-1577
▁second	-1578
pe	-1579
▁7	-1580
▁sk	-1581
ement	-1582
ikan	-1583
tschaft	-1584
▁erzähl	-1585
▁gener	-1586
alen	-1587
▁Stud	-1588
gie	-1589
▁inv	-1590
▁Univers	-1591
oy	-1592
ös	-1593
aub	-1594
gest	-1595
▁[	-1596
ures	-1597
▁dra	-1598
▁famil	-1599
▁während	-1600
ält	-1601
anke	-1602
ilm	-1603
▁Pr	-1604
▁daran	-1605
oney	-1606
▁Schw	-1607
▁million	-1608
▁lar	-1609
cept	-1610
▁care	-1611
▁verstehen	-1612
achte	-1613
▁stand	-1614
yn	-1615
here	-1616
▁poss	-1617
ross	-1618
led	-1619
▁eng	-1620
▁trying	-1621
▁Fr	-1622
▁Eine	-1623
▁tre	-1624
▁Millionen	-1625
▁wr	-1626
▁At	-1627
fer	-1628
ften	-1629
under	-1630
▁working	-1631
ogen	-1632
▁mag	-1633
selves	-1634
rupp	-1635
unde	-1636
▁always	-1637
▁begin	-1638
▁War	-1639
fin	-1640
▁reas	-1641
▁warum	-1642
▁lassen	-1643
▁ander	-1644
▁children	-1645
▁chang	-1646
▁sub	-1647
▁erste	-1648
▁sen	-1649
▁reg	-1650
▁etwa	-1651
▁read	-1652
ideo	-1653
▁Comp	-1654
▁book	-1655
▁Q	-1656
▁besser	-1657
▁beh	-1658
▁Idee	-1659
▁dire	-1660
iele	-1661
▁sollte	-1662
hrt	-1663
cher	-1664
▁natürlich	-1665
vers	-1666
▁away	-1667
▁mind	-1668
net	-1669
los	-1670
ives	-1671
▁Daten	-1672
ster	-1673
▁bus	-1674
▁believe	-1675
enten	-1676
▁polit	-1677
ma	-1678
▁As	-1679
▁Geld	-1680
▁prob	-1681
▁norm	-1682
alls	-1683
jekt	-1684
zeug	-1685
▁econom	-1686
▁fast	-1687
ness	-1688
▁less	-1689
▁phys	-1690
▁Person	-1691
fühl	-1692
agt	-1693
essen	-1694
▁sollten	-1695
ider	-1696
▁anim	-1697
ollar	-1698
ands	-1699
tre	-1700
▁erw	-1701
▁resp	-1702
äng	-1703
▁meinen	-1704
▁mensch	-1705
unk	-1706
▁cap	-1707
emein	-1708
▁acc	-1709
▁pict	-1710
ural	-1711
▁dre	-1712
ischer	-1713
amp	-1714
▁ja	-1715
.000	-1716
▁Mon	-1717
▁supp	-1718
schied	-1719
▁ganze	-1720
▁country	-1721
▁Tr	-1722
illi	-1723
ußer	-1724
amer	-1725
▁My	-1726
▁wollte	-1727
▁könnten	-1728
▁meinem	-1729
▁Raum	-1730
▁schnell	-1731
sy	-1732
▁abs	-1733
ivid	-1734
▁Weg	-1735
▁ziemlich	-1736
err	-1737
raft	-1738
▁große	-1739
▁meisten	-1740
▁using	-1741
▁aut	-1742
▁cor	-1743
arth	-1744
row	-1745
▁bekommen	-1746
isen	-1747
▁sprechen	-1748
akt	-1749
▁means	-1750
asch	-1751
ries	-1752
ernen	-1753
▁sagt	-1754
▁five	-1755
▁System	-1756
▁maybe	-1757
▁jemand	-1758
▁kids	-1759
licher	-1760
utet	-1761
▁fre	-1762
str	-1763
hip	-1764
dern	-1765
▁information	-1766
ruck	-1767
▁eig	-1768
▁dabei	-1769
▁took	-1770
▁ging	-1771
▁health	-1772
▁hard	-1773
▁thinking	-1774
öglichkeit	-1775
ane	-1776
uft	-1777
▁ihrer	-1778
▁'	-1779
▁frien	-1780
ären	-1781
▁money	-1782
▁cou	-1783
lung	-1784
ilt	-1785
utter	-1786
▁mark	-1787
▁space	-1788
press	-1789
▁arbeiten	-1790
▁Ä	-1791
wir	-1792
▁Mar	-1793
ünd	-1794
▁mod	-1795
▁doll	-1796
▁One	-1797
▁Min	-1798
▁sing	-1799
▁darauf	-1800
▁nehmen	-1801
▁everything	-1802
ric	-1803
ierten	-1804
reit	-1805
▁project	-1806
▁such	-1807
onder	-1808
▁Verb	-1809
▁teach	-1810
ets	-1811
▁create	-1812
▁sicher	-1813
▁Dank	-1814
amen	-1815
legen	-1816
▁home	-1817
ograph	-1818
▁spec	-1819
gesch	-1820
▁Men	-1821
ald	-1822
▁process	-1823
aff	-1824
ett	-1825
urs	-1826
ters	-1827
▁Wissenschaft	-1828
unft	-1829
▁food	-1830
▁open	-1831
▁under	-1832
▁Ger	-1833
scheinlich	-1834
▁nam	-1835
▁Ende	-1836
▁Mann	-1837
ime	-1838
▁US	-1839
örper	-1840
▁left	-1841
fte	-1842
▁become	-1843
annt	-1844
lear	-1845
▁energ	-1846
▁These	-1847
▁quite	-1848
ew	-1849
vir	-1850
imes	-1851
ird	-1852
▁att	-1853
urz	-1854
▁Ener	-1855
▁enough	-1856
gh	-1857
▁Schl	-1858
vern	-1859
reiben	-1860
adt	-1861
▁Am	-1862
ruct	-1863
▁Inter	-1864
▁publ	-1865
▁interesting	-1866
▁walk	-1867
▁doch	-1868
▁Kom	-1869
▁weniger	-1870
▁compan	-1871
▁moment	-1872
▁kleinen	-1873
▁fut	-1874
▁Dann	-1875
ci	-1876
ktur	-1877
up	-1878
nov	-1879
▁sense	-1880
▁Ö	-1881
ilen	-1882
ories	-1883
▁head	-1884
▁hist	-1885
äter	-1886
▁comes	-1887
▁half	-1888
▁bedeutet	-1889
▁Vers	-1890
▁...	-1891
▁getting	-1892
▁coll	-1893
reen	-1894
▁ass	-1895
icher	-1896
ringen	-1897
▁sah	-1898
▁vier	-1899
▁cr	-1900
sych	-1901
▁Sache	-1902
▁Denn	-1903
llt	-1904
uck	-1905
▁Dollar	-1906
ständ	-1907
▁Entw	-1908
▁Technologie	-1909
oot	-1910
kunft	-1911
▁unseren	-1912
▁Information	-1913
▁Wor	-1914
▁times	-1915
abor	-1916
▁govern	-1917
".	-1918
▁Famil	-1919
▁probably	-1920
ga	-1921
ließ	-1922
▁typ	-1923
▁Mein	-1924
aupt	-1925
usst	-1926
▁Okay	-1927
▁prof	-1928
▁happened	-1929
▁future	-1930
▁welche	-1931
zahl	-1932
▁sign	-1933
cer	-1934
▁int	-1935
▁stuff	-1936
rop	-1937
▁stop	-1938
▁energy	-1939
cke	-1940
duc	-1941
▁Pol	-1942
▁nah	-1943
äs	-1944
▁bewe	-1945
ole	-1946
iere	-1947
▁York	-1948
ouse	-1949
alten	-1950
nah	-1951
port	-1952
ertain	-1953
ennt	-1954
▁Eur	-1955
▁bringen	-1956
▁making	-1957
▁talking	-1958
▁Ha	-1959
ude	-1960
ax	-1961
iet	-1962
▁Kre	-1963
▁fas	-1964
ican	-1965
iter	-1966
▁dachte	-1967
ulation	-1968
▁heiß	-1969
▁ser	-1970
ron	-1971
▁Wo	-1972
ments	-1973
orgen	-1974
▁eigentlich	-1975
▁ihm	-1976
▁building	-1977
▁pie	-1978
▁pop	-1979
gs	-1980
esten	-1981
▁grou	-1982
▁gesehen	-1983
par	-1984
▁room	-1985
▁contro	-1986
▁Möglichkeit	-1987
äus	-1988
line	-1989
äft	-1990
▁She	-1991
▁China	-1992
▁month	-1993
▁Krank	-1994
aces	-1995
▁beste	-1996
hlen	-1997
ustr	-1998
▁möglich	-1999
▁kleine	-2000
▁co	-2001
▁planet	-2002
ister	-2003
▁social	-2004
▁dist	-2005
▁conne	-2006
▁global	-2007
tty	-2008
schl	-2009
ever	-2010
▁Here	-2011
▁far	-2012
▁seit	-2013
man	-2014
rad	-2015
▁18	-2016
ices	-2017
▁add	-2018
▁„	-2019
▁brauchen	-2020
▁elect	-2021
▁else	-2022
▁told	-2023
ware	-2024
▁beaut	-2025
▁Seite	-2026
▁Energie	-2027
▁cur	-2028
viron	-2029
▁Ob	-2030
fort	-2031
▁Gro	-2032
eder	-2033
esent	-2034
▁ungl	-2035
▁wenig	-2036
ng	-2037
▁Gew	-2038
▁pra	-2039
iff	-2040
▁without	-2041
▁Stra	-2042
▁dollars	-2043
undert	-2044
▁business	-2045
▁body	-2046
tem	-2047
▁soz	-2048
▁top	-2049
▁schl	-2050
▁coming	-2051
iment	-2052
achsen	-2053
▁großen	-2054
▁Chr	-2055
ately	-2056
▁jeden	-2057
▁gar	-2058
▁week	-2059
ged	-2060
▁El	-2061
▁voll	-2062
▁keep	-2063
▁wonder	-2064
▁anything	-2065
ior	-2066
iges	-2067
▁pos	-2068
▁OK	-2069
▁job	-2070
▁Weise	-2071
▁reason	-2072
▁Africa	-2073
ying	-2074
▁ber	-2075
eten	-2076
▁pretty	-2077
▁Bü	-2078
▁side	-2079
▁12	-2080
▁fol	-2081
ional	-2082
etzen	-2083
▁Design	-2084
▁seem	-2085
▁allow	-2086
gle	-2087
▁40	-2088
▁bad	-2089
▁opp	-2090
richt	-2091
ipp	-2092
▁Sh	-2093
ief	-2094
▁ganzen	-2095
▁environ	-2096
▁Män	-2097
▁Frau	-2098
ether	-2099
▁sound	-2100
▁countries	-2101
quen	-2102
ret	-2103
▁Menge	-2104
▁Computer	-2105
opf	-2106
▁Str	-2107
▁Engl	-2108
▁Spiel	-2109
▁lives	-2110
",	-2111
▁Kar	-2112
aun	-2113
▁keinen	-2114
▁ret	-2115
aps	-2116
ismus	-2117
▁across	-2118
ches	-2119
▁Ele	-2120
▁says	-2121
irl	-2122
▁Den	-2123
▁versuchen	-2124
itive	-2125
ument	-2126
▁makes	-2127
schaften	-2128
▁auss	-2129
ionen	-2130
▁No	-2131
emat	-2132
▁bre	-2133
▁außer	-2134
ernt	-2135
halt	-2136
▁Buch	-2137
▁simple	-2138
isk	-2139
▁Let	-2140
▁hoch	-2141
iving	-2142
▁Woch	-2143
▁gern	-2144
▁goes	-2145
nf	-2146
ift	-2147
▁air	-2148
▁gesagt	-2149
▁matter	-2150
▁absol	-2151
▁saw	-2152
▁schle	-2153
esearch	-2154
ince	-2155
▁ear	-2156
tellt	-2157
▁hope	-2158
▁Fall	-2159
▁sit	-2160
Ich	-2161
uring	-2162
▁Zukunft	-2163
vie	-2164
dent	-2165
erence	-2166
▁niem	-2167
gal	-2168
▁hätte	-2169
▁science	-2170
geh	-2171
ende	-2172
▁men	-2173
▁val	-2174
▁ey	-2175
utes	-2176
▁glauben	-2177
▁particular	-2178
mun	-2179
▁Grupp	-2180
▁ä	-2181
where	-2182
▁phot	-2183
▁program	-2184
▁Pat	-2185
▁fig	-2186
▁cult	-2187
▁rest	-2188
▁seen	-2189
▁soc	-2190
eth	-2191
▁eas	-2192
rieben	-2193
▁später	-2194
▁lea	-2195
▁educ	-2196
▁gest	-2197
▁experience	-2198
ality	-2199
▁happens	-2200
ders	-2201
▁char	-2202
work	-2203
ator	-2204
gehen	-2205
leben	-2206
▁Stadt	-2207
▁col	-2208
▁living	-2209
▁vielen	-2210
ape	-2211
▁asked	-2212
▁unglaub	-2213
app	-2214
let	-2215
inter	-2216
▁Augen	-2217
▁later	-2218
▁Ort	-2219
ization	-2220
▁picture	-2221
zug	-2222
▁Entwick	-2223
oh	-2224
▁On	-2225
kte	-2226
athemat	-2227
▁je	-2228
most	-2229
▁hour	-2230
▁Licht	-2231
▁having	-2232
▁scient	-2233
▁Lie	-2234
▁move	-2235
▁Vielen	-2236
orth	-2237
▁six	-2238
achten	-2239
▁Antw	-2240
▁Natur	-2241
▁stellen	-2242
▁lernen	-2243
einander	-2244
racht	-2245
ähigkeit	-2246
öl	-2247
▁mil	-2248
▁answer	-2249
▁eigenen	-2250
▁konnten	-2251
ants	-2252
▁Moment	-2253
üh	-2254
▁beim	-2255
▁irgendw	-2256
▁indem	-2257
▁Spra	-2258
▁ways	-2259
illiar	-2260
ternehmen	-2261
▁computer	-2262
▁Ged	-2263
▁complete	-2264
nung	-2265
NA	-2266
ots	-2267
ume	-2268
▁Groß	-2269
ker	-2270
▁vir	-2271
onnen	-2272
▁problems	-2273
iety	-2274
▁exist	-2275
▁heißt	-2276
ckt	-2277
rib	-2278
erein	-2279
▁Körper	-2280
▁individ	-2281
▁25	-2282
▁fünf	-2283
▁land	-2284
▁Danke	-2285
▁funktioniert	-2286
ily	-2287
▁bro	-2288
▁Dar	-2289
▁oft	-2290
mittel	-2291
▁music	-2292
▁effect	-2293
▁family	-2294
▁Ber	-2295
undheit	-2296
▁days	-2297
▁environment	-2298
oman	-2299
▁langu	-2300
▁thous	-2301
▁Mutter	-2302
▁Jetzt	-2303
▁Gemein	-2304
▁single	-2305
▁rob	-2306
▁case	-2307
▁jedes	-2308
▁schaffen	-2309
zeich	-2310
▁basically	-2311
folg	-2312
unst	-2313
▁Produ	-2314
av	-2315
ändert	-2316
ared	-2317
▁Earth	-2318
▁unt	-2319
▁pers	-2320
▁Musik	-2321
▁verk	-2322
ike	-2323
▁Haus	-2324
▁Milliar	-2325
air	-2326
▁ev	-2327
outh	-2328
▁remember	-2329
▁research	-2330
▁equ	-2331
äm	-2332
▁Sel	-2333
ident	-2334
gn	-2335
▁Erde	-2336
▁level	-2337
▁nä	-2338
ash	-2339
▁fest	-2340
gefähr	-2341
▁young	-2342
▁Planet	-2343
ision	-2344
ote	-2345
▁ble	-2346
asse	-2347
▁fal	-2348
chs	-2349
▁saying	-2350
▁Qu	-2351
▁inside	-2352
ided	-2353
ellschaft	-2354
▁dig	-2355
▁Probleme	-2356
zuf	-2357
▁loc	-2358
▁öff	-2359
rück	-2360
▁bew	-2361
▁hear	-2362
ilder	-2363
▁Kont	-2364
▁amaz	-2365
▁gute	-2366
ruktur	-2367
reichen	-2368
▁komple	-2369
▁seiner	-2370
▁Do	-2371
▁certain	-2372
itz	-2373
▁Wahr	-2374
ready	-2375
ament	-2376
▁guy	-2377
▁pain	-2378
isches	-2379
▁prote	-2380
ury	-2381
▁Organ	-2382
▁Warum	-2383
ife	-2384
▁almost	-2385
▁nutzen	-2386
▁possible	-2387
▁Ze	-2388
ktiv	-2389
ritt	-2390
▁Form	-2391
▁once	-2392
uche	-2393
▁Rob	-2394
▁began	-2395
▁watch	-2396
▁besond	-2397
▁yet	-2398
iverse	-2399
stellung	-2400
▁tot	-2401
▁stre	-2402
▁while	-2403
▁normal	-2404
▁eing	-2405
▁ideas	-2406
▁sure	-2407
▁wahrscheinlich	-2408
▁extre	-2409
stoff	-2410
dle	-2411
▁line	-2412
fahren	-2413
▁discover	-2414
▁suc	-2415
▁allen	-2416
▁betra	-2417
aden	-2418
▁self	-2419
▁genug	-2420
auer	-2421
anc	-2422
▁anders	-2423
▁helfen	-2424
▁billion	-2425
ield	-2426
▁Ang	-2427
▁both	-2428
▁wrong	-2429
iti	-2430
lt	-2431
▁contin	-2432
▁aller	-2433
▁net	-2434
▁erzählen	-2435
▁herum	-2436
osten	-2437
▁whether	-2438
oden	-2439
▁biolog	-2440
▁exc	-2441
▁product	-2442
▁zeigt	-2443
riff	-2444
▁incred	-2445
▁within	-2446
ush	-2447
ünst	-2448
▁USA	-2449
▁looks	-2450
▁schön	-2451
▁already	-2452
so	-2453
▁Jo	-2454
olen	-2455
▁bed	-2456
▁unserem	-2457
▁Par	-2458
▁fund	-2459
▁looked	-2460
fra	-2461
▁true	-2462
▁begann	-2463
öt	-2464
gte	-2465
iful	-2466
▁neuen	-2467
▁beha	-2468
▁exact	-2469
glichen	-2470
▁public	-2471
▁Uns	-2472
stand	-2473
▁Gesundheit	-2474
aby	-2475
▁speak	-2476
side	-2477
▁city	-2478
ages	-2479
ption	-2480
nehmen	-2481
ogn	-2482
▁dise	-2483
▁nächsten	-2484
▁nothing	-2485
▁Ever	-2486
▁kennen	-2487
▁someone	-2488
chmal	-2489
denken	-2490
▁Not	-2491
▁treat	-2492
zess	-2493
▁control	-2494
wend	-2495
▁lange	-2496
▁history	-2497
▁ungefähr	-2498
rum	-2499
▁dev	-2500
▁heard	-2501
▁amazing	-2502
ene	-2503
lichkeit	-2504
oice	-2505
welt	-2506
▁DNA	-2507
▁term	-2508
▁che	-2509
▁universe	-2510
▁Gegen	-2511
▁Schul	-2512
▁richtig	-2513
arten	-2514
▁recht	-2515
▁myself	-2516
▁Ja	-2517
▁erh	-2518
▁cost	-2519
scheid	-2520
osed	-2521
▁Bed	-2522
▁Why	-2523
gleich	-2524
▁bisschen	-2525
▁heart	-2526
▁kill	-2527
ivity	-2528
▁ü	-2529
ases	-2530
▁Bere	-2531
oral	-2532
▁Tod	-2533
heiten	-2534
▁CA	-2535
▁verd	-2536
ention	-2537
▁invest	-2538
▁Lehr	-2539
▁Kunst	-2540
▁erinn	-2541
ösen	-2542
▁Ma	-2543
ollow	-2544
▁girl	-2545
▁often	-2546
▁Du	-2547
▁train	-2548
ituation	-2549
imate	-2550
stead	-2551
▁Sta	-2552
liches	-2553
undred	-2554
▁Selbst	-2555
▁patient	-2556
inz	-2557
▁Tra	-2558
gangen	-2559
▁Ideen	-2560
iddle	-2561
▁bevor	-2562
▁extra	-2563
eah	-2564
▁erf	-2565
zus	-2566
▁writ	-2567
▁works	-2568
▁imagine	-2569
▁ur	-2570
▁wa	-2571
unter	-2572
▁cond	-2573
vious	-2574
▁mass	-2575
▁words	-2576
▁couple	-2577
▁figure	-2578
▁Fe	-2579
▁weg	-2580
▁jede	-2581
▁Fot	-2582
▁class	-2583
▁iss	-2584
▁psych	-2585
▁challen	-2586
▁bauen	-2587
▁cells	-2588
eiten	-2589
▁order	-2590
less	-2591
▁United	-2592
fä	-2593
▁mar	-2594
▁gemein	-2595
▁wus	-2596
▁beautiful	-2597
innen	-2598
uchte	-2599
▁community	-2600
▁liegt	-2601
▁piece	-2602
zieh	-2603
▁alt	-2604
ination	-2605
iker	-2606
ones	-2607
▁trad	-2608
ße	-2609
ians	-2610
thers	-2611
▁insp	-2612
▁Fähigkeit	-2613
▁To	-2614
▁aff	-2615
▁cancer	-2616
▁Informationen	-2617
▁full	-2618
▁kurz	-2619
kennen	-2620
▁Projekt	-2621
▁link	-2622
forder	-2623
▁built	-2624
▁result	-2625
▁Leuten	-2626
▁hundred	-2627
hin	-2628
aper	-2629
▁months	-2630
zust	-2631
imens	-2632
▁seinen	-2633
▁age	-2634
▁language	-2635
fect	-2636
▁night	-2637
fle	-2638
spr	-2639
▁Em	-2640
▁front	-2641
Wh	-2642
▁intell	-2643
▁Nicht	-2644
▁Punkt	-2645
▁Patient	-2646
ieht	-2647
▁sei	-2648
iting	-2649
▁must	-2650
▁Schule	-2651
▁gehört	-2652
The	-2653
inen	-2654
utzt	-2655
▁mot	-2656
▁dich	-2657
▁defin	-2658
▁inner	-2659
▁Erfahr	-2660
▁—	-2661
▁pay	-2662
▁klar	-2663
▁follow	-2664
▁everybody	-2665
llig	-2666
▁material	-2667
▁Planeten	-2668
▁Arten	-2669
äche	-2670
▁rad	-2671
ultur	-2672
▁face	-2673
▁wicht	-2674
▁species	-2675
ums	-2676
▁entire	-2677
▁government	-2678
aur	-2679
▁video	-2680
▁überall	-2681
mö	-2682
▁group	-2683
▁incre	-2684
▁Forsch	-2685
cc	-2686
▁hö	-2687
▁erl	-2688
▁verändern	-2689
ging	-2690
▁schwer	-2691
▁sw	-2692
▁Für	-2693
▁Zahl	-2694
▁60	-2695
asst	-2696
▁Exper	-2697
▁los	-2698
▁sagten	-2699
ton	-2700
ress	-2701
▁darum	-2702
▁Mäd	-2703
anzen	-2704
▁nennen	-2705
▁intern	-2706
▁friends	-2707
iten	-2708
▁Kopf	-2709
▁market	-2710
omet	-2711
anken	-2712
ortun	-2713
▁erkl	-2714
▁neur	-2715
ired	-2716
▁Milliarden	-2717
por	-2718
▁wasn	-2719
▁until	-2720
▁Antwort	-2721
irc	-2722
▁stehen	-2723
ivil	-2724
▁Gra	-2725
▁anf	-2726
▁Gebä	-2727
▁word	-2728
satz	-2729
umen	-2730
▁places	-2731
ested	-2732
lagen	-2733
▁Krie	-2734
▁Afrika	-2735
▁euch	-2736
inner	-2737
ential	-2738
▁completely	-2739
bo	-2740
ußen	-2741
▁isn	-2742
▁education	-2743
▁ident	-2744
▁anderes	-2745
nisse	-2746
▁appro	-2747
▁model	-2748
▁reden	-2749
cl	-2750
nitt	-2751
▁Dieses	-2752
▁Fragen	-2753
▁decided	-2754
icro	-2755
werk	-2756
ienen	-2757
▁eben	-2758
antw	-2759
▁India	-2760
▁ihrem	-2761
▁innov	-2762
▁quick	-2763
▁Unternehmen	-2764
▁spend	-2765
▁schwier	-2766
▁ant	-2767
▁emot	-2768
mut	-2769
▁sex	-2770
▁nature	-2771
▁Geschichten	-2772
ateg	-2773
▁dest	-2774
▁Glück	-2775
▁large	-2776
▁dep	-2777
▁object	-2778
▁Ur	-2779
▁Männer	-2780
▁musste	-2781
omes	-2782
reif	-2783
stit	-2784
ering	-2785
▁Film	-2786
osph	-2787
▁großart	-2788
ctor	-2789
▁Dem	-2790
▁Vie	-2791
▁terr	-2792
▁exactly	-2793
▁Meine	-2794
▁hinter	-2795
plic	-2796
▁chem	-2797
▁Bi	-2798
chan	-2799
▁Bet	-2800
▁Wirtschaft	-2801
voll	-2802
▁199	-2803
immen	-2804
▁behav	-2805
▁stories	-2806
▁entwickelt	-2807
ibly	-2808
wohl	-2809
▁taking	-2810
▁happening	-2811
▁ho	-2812
▁America	-2813
▁son	-2814
▁miss	-2815
liegen	-2816
▁itself	-2817
▁bereits	-2818
acter	-2819
▁Jahrh	-2820
▁tool	-2821
▁view	-2822
▁Can	-2823
▁Bes	-2824
▁engine	-2825
▁States	-2826
▁though	-2827
▁wunder	-2828
▁Goo	-2829
▁oben	-2830
kten	-2831
▁kinds	-2832
▁became	-2833
zept	-2834
▁Gott	-2835
▁animals	-2836
ommt	-2837
▁share	-2838
▁Zusammen	-2839
ielt	-2840
▁mess	-2841
ilfe	-2842
▁prov	-2843
▁Every	-2844
▁entde	-2845
rieb	-2846
▁Mode	-2847
ftware	-2848
▁steht	-2849
▁fragen	-2850
▁students	-2851
▁spielen	-2852
▁red	-2853
▁Minuten	-2854
▁benutzen	-2855
sh	-2856
▁Pe	-2857
face	-2858
▁deal	-2859
▁Gener	-2860
ability	-2861
▁halten	-2862
▁Mädchen	-2863
▁80	-2864
▁Di	-2865
▁Flug	-2866
▁repr	-2867
ructure	-2868
▁seinem	-2869
▁ourselves	-2870
ides	-2871
stra	-2872
andel	-2873
▁arch	-2874
▁gets	-2875
▁sens	-2876
▁techn	-2877
▁Indien	-2878
▁success	-2879
▁erreichen	-2880
igten	-2881
▁cool	-2882
▁stat	-2883
▁since	-2884
bed	-2885
▁adv	-2886
uster	-2887
▁namens	-2888
▁learned	-2889
▁Netz	-2890
▁Lös	-2891
▁dir	-2892
▁law	-2893
▁gerne	-2894
▁Gefühl	-2895
▁society	-2896
▁besonders	-2897
▁verschiedene	-2898
▁schein	-2899
gung	-2900
▁knew	-2901
▁wind	-2902
▁woman	-2903
▁themselves	-2904
izin	-2905
▁Spe	-2906
▁complex	-2907
▁somebody	-2908
▁Gesellschaft	-2909
▁minutes	-2910
▁God	-2911
▁won	-2912
▁game	-2913
▁hören	-2914
▁machte	-2915
met	-2916
icken	-2917
ütz	-2918
▁mem	-2919
▁circ	-2920
▁huge	-2921
▁study	-2922
▁erkennen	-2923
▁det	-2924
▁ones	-2925
▁hätten	-2926
▁Kn	-2927
▁av	-2928
▁darin	-2929
med	-2930
istan	-2931
▁past	-2932
inning	-2933
bra	-2934
fang	-2935
icult	-2936
▁conf	-2937
▁along	-2938
▁fly	-2939
▁sow	-2940
ature	-2941
▁var	-2942
▁oper	-2943
ral	-2944
ocus	-2945
▁Familie	-2946
▁oce	-2947
grund	-2948
indung	-2949
▁clear	-2950
▁questions	-2951
▁dah	-2952
▁sym	-2953
itting	-2954
▁rather	-2955
bare	-2956
ively	-2957
▁Wort	-2958
▁Verhalten	-2959
▁meet	-2960
▁name	-2961
▁tro	-2962
▁sechs	-2963
▁company	-2964
inal	-2965
wards	-2966
▁against	-2967
ichen	-2968
immer	-2969
▁Sc	-2970
▁cra	-2971
▁eins	-2972
▁Oder	-2973
uchten	-2974
igung	-2975
▁opportun	-2976
▁Them	-2977
▁test	-2978
▁Sk	-2979
▁guys	-2980
▁Ir	-2981
haps	-2982
▁Google	-2983
äuf	-2984
ager	-2985
ames	-2986
onne	-2987
unge	-2988
▁ähn	-2989
▁created	-2990
▁tradition	-2991
50	-2992
▁Kön	-2993
gramm	-2994
▁Far	-2995
▁free	-2996
▁turns	-2997
bild	-2998
reis	-2999
▁pot	-3000
▁hours	-3001
ahn	-3002
▁Sü	-3003
▁mother	-3004
▁worked	-3005
uc	-3006
▁Then	-3007
▁bott	-3008
▁Fol	-3009
ished	-3010
▁priv	-3011
ey	-3012
▁Lin	-3013
▁aud	-3014
▁opt	-3015
▁Bilder	-3016
of	-3017
änger	-3018
▁colle	-3019
▁focus	-3020
ologie	-3021
▁Sprache	-3022
▁del	-3023
inger	-3024
▁Gruppe	-3025
endet	-3026
▁jedem	-3027
scheiden	-3028
▁couldn	-3029
▁Beweg	-3030
▁American	-3031
ump	-3032
▁Fü	-3033
▁wohl	-3034
▁relations	-3035
▁Herz	-3036
▁gesam	-3037
▁extrem	-3038
ließlich	-3039
▁mov	-3040
▁Arch	-3041
ächt	-3042
▁Doch	-3043
roll	-3044
▁pred	-3045
merk	-3046
▁Weil	-3047
▁Ergeb	-3048
▁statt	-3049
▁Eltern	-3050
gestellt	-3051
▁Entscheid	-3052
ef	-3053
▁least	-3054
▁sometimes	-3055
▁Beh	-3056
richten	-3057
▁Auto	-3058
▁Richt	-3059
▁überh	-3060
▁Oh	-3061
▁hoff	-3062
erk	-3063
▁meas	-3064
▁Angst	-3065
iste	-3066
oter	-3067
orden	-3068
ützen	-3069
▁beein	-3070
▁liter	-3071
▁braucht	-3072
fall	-3073
▁lead	-3074
▁Vielleicht	-3075
▁vorstellen	-3076
ither	-3077
punkt	-3078
▁gave	-3079
▁Macht	-3080
istic	-3081
▁news	-3082
▁systems	-3083
▁difficult	-3084
▁irgendwie	-3085
annte	-3086
▁ries	-3087
iqu	-3088
▁11	-3089
ource	-3090
▁everyone	-3091
▁Jahrhundert	-3092
ehe	-3093
esse	-3094
▁amount	-3095
▁non	-3096
▁risk	-3097
▁Durch	-3098
ples	-3099
tend	-3100
▁Ad	-3101
▁network	-3102
uh	-3103
▁Char	-3104
antast	-3105
▁others	-3106
ätz	-3107
osp	-3108
▁redu	-3109
▁bewegen	-3110
▁disease	-3111
kehr	-3112
führt	-3113
indet	-3114
▁third	-3115
▁Kultur	-3116
amera	-3117
▁thousands	-3118
ined	-3119
▁hold	-3120
▁Vater	-3121
▁glück	-3122
▁happy	-3123
▁richt	-3124
sk	-3125
▁arm	-3126
▁film	-3127
▁state	-3128
ask	-3129
▁Fir	-3130
▁Some	-3131
▁verschiedenen	-3132
ekte	-3133
▁lik	-3134
akter	-3135
▁poor	-3136
▁house	-3137
▁Stunden	-3138
▁lots	-3139
▁listen	-3140
apan	-3141
▁Luft	-3142
▁HI	-3143
utions	-3144
▁early	-3145
▁anal	-3146
▁Kor	-3147
aster	-3148
▁invol	-3149
aug	-3150
view	-3151
ässt	-3152
▁arg	-3153
ublik	-3154
▁field	-3155
▁erhalten	-3156
tens	-3157
▁Bro	-3158
▁learning	-3159
ams	-3160
▁neu	-3161
▁deep	-3162
▁natural	-3163
anger	-3164
schnitt	-3165
▁einzel	-3166
Oh	-3167
anten	-3168
▁instead	-3169
icherheit	-3170
▁entwickeln	-3171
alax	-3172
iken	-3173
▁einigen	-3174
▁outside	-3175
apt	-3176
öhn	-3177
▁Video	-3178
cing	-3179
▁einzige	-3180
▁manchmal	-3181
▁difference	-3182
imp	-3183
▁death	-3184
▁Freund	-3185
▁wollten	-3186
▁behavior	-3187
ison	-3188
▁HIV	-3189
▁mult	-3190
▁Masch	-3191
▁seven	-3192
▁16	-3193
ante	-3194
ried	-3195
ules	-3196
▁Bei	-3197
▁Sachen	-3198
pect	-3199
▁oil	-3200
illions	-3201
▁cut	-3202
zeugen	-3203
▁Hause	-3204
▁behind	-3205
▁Sinn	-3206
▁sage	-3207
▁stell	-3208
▁taken	-3209
▁führen	-3210
▁interact	-3211
ox	-3212
führ	-3213
iben	-3214
▁erk	-3215
▁Veränder	-3216
igte	-3217
äten	-3218
▁Europe	-3219
▁machine	-3220
ning	-3221
ortra	-3222
▁beiden	-3223
▁bestimm	-3224
▁black	-3225
▁super	-3226
▁14	-3227
ester	-3228
▁ändern	-3229
häng	-3230
ising	-3231
itions	-3232
▁nämlich	-3233
▁Patienten	-3234
druck	-3235
▁area	-3236
▁dein	-3237
lossen	-3238
▁Krebs	-3239
▁verwenden	-3240
bes	-3241
▁Stück	-3242
▁Zw	-3243
▁eher	-3244
▁close	-3245
▁middle	-3246
▁Material	-3247
▁eyes	-3248
system	-3249
▁innerhalb	-3250
ony	-3251
▁frü	-3252
▁Werk	-3253
▁pick	-3254
▁Kindern	-3255
▁changed	-3256
▁connect	-3257
St	-3258
rü	-3259
▁cann	-3260
▁collect	-3261
oph	-3262
▁Beg	-3263
▁tem	-3264
▁drug	-3265
erweise	-3266
▁century	-3267
▁beginnen	-3268
▁relationship	-3269
hand	-3270
ölker	-3271
▁green	-3272
▁impro	-3273
▁besten	-3274
uz	-3275
▁experiment	-3276
▁unterschied	-3277
▁Techn	-3278
▁moving	-3279
ully	-3280
▁relig	-3281
▁pattern	-3282
tt	-3283
▁Gebäude	-3284
▁Organis	-3285
▁unglaublich	-3286
opp	-3287
pfen	-3288
▁bel	-3289
▁John	-3290
!"	-3291
▁Hö	-3292
▁vi	-3293
uren	-3294
▁getan	-3295
▁common	-3296
▁recent	-3297
▁record	-3298
ards	-3299
wand	-3300
▁Rück	-3301
▁verändert	-3302
▁fort	-3303
▁event	-3304
▁short	-3305
rew	-3306
bere	-3307
ahren	-3308
zieren	-3309
▁comput	-3310
▁explain	-3311
▁Regierung	-3312
▁wonderful	-3313
▁sug	-3314
ummer	-3315
▁genet	-3316
▁90	-3317
▁hands	-3318
uld	-3319
ehn	-3320
▁break	-3321
aktion	-3322
ustrie	-3323
▁given	-3324
▁Cl	-3325
unch	-3326
▁serv	-3327
▁menschlichen	-3328
▁Aufga	-3329
zustellen	-3330
ana	-3331
▁leave	-3332
▁terms	-3333
min	-3334
ließen	-3335
▁fantast	-3336
▁absolute	-3337
lev	-3338
oms	-3339
ests	-3340
ling	-3341
▁turned	-3342
▁obvious	-3343
▁interessant	-3344
ney	-3345
augh	-3346
alität	-3347
▁takes	-3348
▁perhaps	-3349
▁yourself	-3350
▁überhaupt	-3351
ased	-3352
▁occ	-3353
▁const	-3354
▁wegen	-3355
▁Bezieh	-3356
▁Gleich	-3357
▁seeing	-3358
genommen	-3359
▁culture	-3360
zy	-3361
▁schauen	-3362
▁versucht	-3363
▁17	-3364
gang	-3365
▁easy	-3366
▁Heraus	-3367
text	-3368
▁squ	-3369
auben	-3370
ufen	-3371
▁tut	-3372
▁digital	-3373
▁evolution	-3374
▁Ziel	-3375
▁zwar	-3376
▁paper	-3377
▁beginning	-3378
berfl	-3379
▁fand	-3380
▁stra	-3381
▁Chris	-3382
▁local	-3383
▁Universum	-3384
▁population	-3385
oud	-3386
okrat	-3387
isieren	-3388
▁Umwelt	-3389
▁gleichen	-3390
ee	-3391
▁online	-3392
oten	-3393
▁ern	-3394
▁needs	-3395
▁finally	-3396
urt	-3397
jor	-3398
tete	-3399
▁zer	-3400
▁Lage	-3401
▁inde	-3402
▁jour	-3403
▁offen	-3404
▁pract	-3405
ove	-3406
▁incl	-3407
▁parts	-3408
▁Dieser	-3409
▁Länder	-3410
▁Publik	-3411
▁Roboter	-3412
▁lim	-3413
▁communic	-3414
▁simp	-3415
▁image	-3416
▁Anfang	-3417
ände	-3418
▁Car	-3419
▁beob	-3420
▁entst	-3421
rab	-3422
▁World	-3423
▁reach	-3424
Well	-3425
▁cal	-3426
itect	-3427
▁Just	-3428
▁Meer	-3429
▁cannot	-3430
▁low	-3431
▁mathemat	-3432
▁personal	-3433
ina	-3434
haft	-3435
▁Res	-3436
ology	-3437
▁Rest	-3438
▁blue	-3439
▁profess	-3440
enne	-3441
▁Kle	-3442
▁allem	-3443
▁moral	-3444
▁Wochen	-3445
eht	-3446
ängt	-3447
kü	-3448
omat	-3449
▁Zug	-3450
▁ster	-3451
▁eight	-3452
onen	-3453
▁Prozess	-3454
▁whatever	-3455
▁%	-3456
▁micro	-3457
ikro	-3458
orie	-3459
ially	-3460
▁during	-3461
▁needed	-3462
▁niemand	-3463
ama	-3464
aren	-3465
▁bir	-3466
▁sat	-3467
▁Lehrer	-3468
▁Erfahrung	-3469
▁Mil	-3470
▁arbeite	-3471
▁Su	-3472
▁Har	-3473
▁longer	-3474
▁treffen	-3475
alif	-3476
▁Essen	-3477
▁friend	-3478
▁realized	-3479
umm	-3480
idence	-3481
völker	-3482
▁Japan	-3483
▁201	-3484
sicht	-3485
▁Städ	-3486
▁einge	-3487
▁expect	-3488
▁Stellen	-3489
▁powerful	-3490
wert	-3491
year	-3492
▁Nat	-3493
▁Typ	-3494
▁Zum	-3495
▁spra	-3496
▁thank	-3497
▁weltw	-3498
▁grand	-3499
▁mussten	-3500
▁ill	-3501
▁obs	-3502
▁scale	-3503
▁nächste	-3504
▁Prä	-3505
▁ple	-3506
inder	-3507
▁fühl	-3508
▁present	-3509
▁interested	-3510
▁Herausforder	-3511
▁198	-3512
baren	-3513
▁Part	-3514
▁entf	-3515
▁mole	-3516
▁bereit	-3517
ills	-3518
▁Bau	-3519
gress	-3520
▁desc	-3521
▁ocean	-3522
olz	-3523
▁team	-3524
▁major	-3525
▁Dingen	-3526
by	-3527
ehl	-3528
wär	-3529
▁leg	-3530
▁sun	-3531
ledge	-3532
orten	-3533
iziert	-3534
▁perform	-3535
bel	-3536
lam	-3537
erns	-3538
nahme	-3539
▁size	-3540
▁Mittel	-3541
▁folgen	-3542
▁simply	-3543
▁perfect	-3544
ötz	-3545
▁Fahr	-3546
book	-3547
▁buy	-3548
verage	-3549
ziehen	-3550
▁Tages	-3551
▁enc	-3552
▁kamen	-3553
▁surpr	-3554
bte	-3555
oon	-3556
zub	-3557
▁vö	-3558
ingt	-3559
▁Job	-3560
▁fore	-3561
▁orig	-3562
▁sozial	-3563
▁parents	-3564
lungs	-3565
udden	-3566
▁Tiere	-3567
▁robot	-3568
▁tried	-3569
▁Entwicklung	-3570
ele	-3571
haus	-3572
▁May	-3573
▁Tier	-3574
auso	-3575
▁Pap	-3576
ritte	-3577
▁meines	-3578
ently	-3579
▁conc	-3580
lo	-3581
▁Vir	-3582
▁cle	-3583
fully	-3584
▁okay	-3585
▁access	-3586
▁Freunde	-3587
▁weitere	-3588
▁companies	-3589
▁post	-3590
ources	-3591
▁13	-3592
▁erre	-3593
▁stay	-3594
▁Grunde	-3595
▁falsch	-3596
▁Geschäft	-3597
omin	-3598
▁Trans	-3599
hor	-3600
icks	-3601
▁Kap	-3602
anach	-3603
▁Verein	-3604
▁21	-3605
▁Publikum	-3606
oun	-3607
▁Rei	-3608
▁near	-3609
schaffen	-3610
mm	-3611
iale	-3612
ächst	-3613
▁gone	-3614
▁People	-3615
▁ground	-3616
▁architect	-3617
▁fundament	-3618
ai	-3619
cious	-3620
▁eigene	-3621
▁Unterschied	-3622
▁surv	-3623
▁quickly	-3624
▁economic	-3625
pid	-3626
▁worden	-3627
ban	-3628
▁hab	-3629
▁Klim	-3630
▁value	-3631
▁bringt	-3632
▁fühlen	-3633
▁Sicherheit	-3634
▁jo	-3635
▁Lassen	-3636
hle	-3637
▁Dr	-3638
statt	-3639
▁lässt	-3640
▁press	-3641
bor	-3642
cle	-3643
▁Boden	-3644
▁media	-3645
▁father	-3646
▁wusste	-3647
chter	-3648
▁felt	-3649
▁erstaun	-3650
▁ess	-3651
achst	-3652
elten	-3653
inary	-3654
▁Right	-3655
▁unten	-3656
merikan	-3657
▁inspir	-3658
▁Möglichkeiten	-3659
af	-3660
isse	-3661
itter	-3662
▁send	-3663
▁South	-3664
▁weeks	-3665
ibility	-3666
ouch	-3667
▁Tage	-3668
cially	-3669
▁Hilfe	-3670
▁Polit	-3671
▁recogn	-3672
▁solche	-3673
▁support	-3674
▁Struktur	-3675
iny	-3676
zentr	-3677
▁Wahl	-3678
▁Markt	-3679
▁spent	-3680
ilar	-3681
ised	-3682
▁hy	-3683
hood	-3684
▁Sek	-3685
▁ged	-3686
aring	-3687
▁enorm	-3688
▁schlecht	-3689
annten	-3690
▁hervor	-3691
▁special	-3692
äss	-3693
▁fu	-3694
bert	-3695
sein	-3696
▁dark	-3697
▁feed	-3698
▁Haupt	-3699
▁cities	-3700
▁völlig	-3701
pression	-3702
lef	-3703
falls	-3704
▁feet	-3705
▁gleiche	-3706
▁Ben	-3707
▁Nein	-3708
▁kont	-3709
▁essen	-3710
▁direkt	-3711
▁obwohl	-3712
▁Pa	-3713
▁crit	-3714
isiert	-3715
antwort	-3716
izieren	-3717
ötzlich	-3718
▁approach	-3719
fgh	-3720
ales	-3721
imme	-3722
rogen	-3723
▁shows	-3724
▁damals	-3725
▁dessen	-3726
▁strong	-3727
▁menschliche	-3728
fluss	-3729
▁Staaten	-3730
▁reality	-3731
▁sitting	-3732
▁70	-3733
▁Met	-3734
▁Web	-3735
▁deren	-3736
▁photograph	-3737
bon	-3738
ows	-3739
zin	-3740
ived	-3741
part	-3742
▁fish	-3743
flanzen	-3744
▁humans	-3745
▁letzte	-3746
▁schreiben	-3747
You	-3748
▁key	-3749
▁Meth	-3750
▁grund	-3751
▁jedoch	-3752
▁Bereich	-3753
▁ability	-3754
acy	-3755
ains	-3756
ograf	-3757
▁requ	-3758
▁known	-3759
▁wären	-3760
▁opportunity	-3761
agn	-3762
isc	-3763
lin	-3764
ops	-3765
uth	-3766
▁Per	-3767
▁neg	-3768
ails	-3769
▁Mars	-3770
usion	-3771
▁Neur	-3772
▁draw	-3773
rieden	-3774
▁Stand	-3775
reg	-3776
elte	-3777
▁direct	-3778
▁Öl	-3779
▁Elekt	-3780
▁either	-3781
▁fragte	-3782
sc	-3783
fghan	-3784
izing	-3785
nahmen	-3786
▁Thema	-3787
▁instit	-3788
▁leaders	-3789
▁betrachten	-3790
edeut	-3791
▁cover	-3792
▁lösen	-3793
▁phone	-3794
▁unters	-3795
irm	-3796
▁Gren	-3797
samkeit	-3798
▁structure	-3799
yl	-3800
▁Kü	-3801
zial	-3802
▁App	-3803
▁lab	-3804
▁sollen	-3805
▁National	-3806
abil	-3807
raum	-3808
rote	-3809
itzen	-3810
▁areas	-3811
▁growth	-3812
▁besteht	-3813
▁hor	-3814
▁pres	-3815
▁Woche	-3816
▁Instit	-3817
rift	-3818
▁Ant	-3819
▁dad	-3820
stein	-3821
▁ange	-3822
▁virt	-3823
▁write	-3824
▁economy	-3825
▁measure	-3826
lex	-3827
What	-3828
ators	-3829
▁lost	-3830
▁Denken	-3831
▁teilen	-3832
itze	-3833
▁bleiben	-3834
Was	-3835
nal	-3836
▁Tre	-3837
▁sudden	-3838
▁Gedanken	-3839
▁anderer	-3840
ball	-3841
▁main	-3842
iction	-3843
zellen	-3844
▁Nacht	-3845
▁changes	-3846
este	-3847
aught	-3848
ierend	-3849
▁democ	-3850
▁Red	-3851
▁box	-3852
▁vorher	-3853
▁wouldn	-3854
▁schwierig	-3855
▁incredible	-3856
▁entscheiden	-3857
com	-3858
ades	-3859
hält	-3860
ilos	-3861
lang	-3862
wusst	-3863
zogen	-3864
arbeitet	-3865
▁brought	-3866
öße	-3867
▁Ist	-3868
▁fear	-3869
▁foot	-3870
▁Kraft	-3871
▁based	-3872
▁zuvor	-3873
▁animal	-3874
▁Viele	-3875
▁Gesicht	-3876
▁individual	-3877
▁Bra	-3878
▁Oze	-3879
▁eat	-3880
▁stark	-3881
▁surface	-3882
▁consider	-3883
▁individu	-3884
▁Erw	-3885
▁plan	-3886
▁slow	-3887
▁step	-3888
gebung	-3889
▁Monate	-3890
▁suchen	-3891
▁political	-3892
▁caus	-3893
orning	-3894
▁bottom	-3895
the	-3896
▁pull	-3897
▁genauso	-3898
▁gemeinsam	-3899
wirk	-3900
▁Fort	-3901
▁teil	-3902
▁ansch	-3903
▁benöt	-3904
▁Ländern	-3905
▁realize	-3906
cin	-3907
oes	-3908
▁bar	-3909
▁har	-3910
▁log	-3911
ürger	-3912
▁Lond	-3913
▁Ster	-3914
▁sieben	-3915
▁stellt	-3916
▁English	-3917
eng	-3918
elbe	-3919
zeuge	-3920
▁Nahr	-3921
▁Tats	-3922
▁West	-3923
▁prim	-3924
▁Namen	-3925
▁clos	-3926
▁books	-3927
▁persön	-3928
▁attention	-3929
▁funktionieren	-3930
▁inte	-3931
▁Mot	-3932
▁verm	-3933
▁bitte	-3934
▁führt	-3935
▁ang	-3936
frast	-3937
▁fight	-3938
▁Lösung	-3939
▁modern	-3940
▁respons	-3941
▁univers	-3942
▁challenge	-3943
eum	-3944
▁ed	-3945
bene	-3946
▁Sym	-3947
ilden	-3948
▁Yeah	-3949
▁ermö	-3950
▁Ihren	-3951
ausende	-3952
▁kaufen	-3953
▁zweite	-3954
▁Familien	-3955
▁amerikan	-3956
▁international	-3957
▁Ko	-3958
▁aw	-3959
ollen	-3960
ission	-3961
▁consum	-3962
▁numbers	-3963
▁gefunden	-3964
ival	-3965
orge	-3966
wesen	-3967
▁born	-3968
gefühl	-3969
osition	-3970
▁indust	-3971
▁verbunden	-3972
ks	-3973
zeigt	-3974
ustain	-3975
▁Innov	-3976
▁force	-3977
▁molec	-3978
▁technologies	-3979
▁fall	-3980
▁verbess	-3981
kre	-3982
isst	-3983
▁Bar	-3984
ouble	-3985
▁Europ	-3986
▁blood	-3987
▁average	-3988
▁sterben	-3989
▁knowledge	-3990
ips	-3991
rän	-3992
iber	-3993
ynam	-3994
ances	-3995
finden	-3996
ikaner	-3997
▁Liebe	-3998
▁Arbeits	-3999
▁feeling	-4000
roh	-4001
▁Mo	-4002
ieten	-4003
▁hast	-4004
▁mechan	-4005
▁größten	-4006
▁developed	-4007
oid	-4008
vest	-4009
▁Fin	-4010
▁Park	-4011
▁trotz	-4012
▁wrote	-4013
▁giving	-4014
▁forward	-4015
We	-4016
cks	-4017
▁tw	-4018
ored	-4019
▁emer	-4020
▁liebe	-4021
▁Afghan	-4022
▁London	-4023
▁Modell	-4024
▁größte	-4025
▁impact	-4026
entially	-4027
▁langsam	-4028
▁unseres	-4029
weis	-4030
▁Dam	-4031
▁deg	-4032
▁fail	-4033
▁Bedeut	-4034
▁meaning	-4035
▁physical	-4036
▁500	-4037
alter	-4038
atten	-4039
reifen	-4040
▁lesen	-4041
prochen	-4042
▁welches	-4043
zw	-4044
bau	-4045
oper	-4046
▁Wert	-4047
▁comb	-4048
ensicht	-4049
▁Kr	-4050
ikal	-4051
jekte	-4052
▁Zellen	-4053
▁theory	-4054
▁morning	-4055
▁Wissenschaftler	-4056
ja	-4057
▁Mich	-4058
ichter	-4059
▁visual	-4060
igkeiten	-4061
▁draußen	-4062
▁komplex	-4063
.,	-4064
go	-4065
Das	-4066
ählen	-4067
▁ment	-4068
unehmen	-4069
▁transform	-4070
usch	-4071
ücke	-4072
inzip	-4073
▁Autos	-4074
▁growing	-4075
berfläche	-4076
In	-4077
▁CO	-4078
aben	-4079
reck	-4080
▁vol	-4081
▁Hoff	-4082
▁Sehen	-4083
aliforn	-4084
▁Archite	-4085
▁national	-4086
gegen	-4087
mosph	-4088
▁nice	-4089
▁vill	-4090
▁ersch	-4091
idge	-4092
äuft	-4093
assion	-4094
▁patients	-4095
▁Best	-4096
▁farm	-4097
▁Heute	-4098
▁Bewegung	-4099
▁electric	-4100
ube	-4101
▁24	-4102
▁map	-4103
produ	-4104
▁Brit	-4105
▁miles	-4106
ünstler	-4107
▁spread	-4108
▁audience	-4109
▁erinnern	-4110
▁X	-4111
bol	-4112
jen	-4113
res	-4114
▁197	-4115
▁Dav	-4116
▁Krieg	-4117
▁gelernt	-4118
▁scheint	-4119
▁schließlich	-4120
ünde	-4121
▁syn	-4122
chsel	-4123
▁seems	-4124
▁white	-4125
▁Revolution	-4126
▁scientists	-4127
▁images	-4128
▁running	-4129
▁verschw	-4130
▁literally	-4131
ehm	-4132
▁Jed	-4133
▁Mag	-4134
▁arr	-4135
hören	-4136
kraft	-4137
▁Cent	-4138
▁path	-4139
▁prop	-4140
▁tief	-4141
▁bewusst	-4142
▁Programm	-4143
ktor	-4144
obody	-4145
▁fert	-4146
▁understanding	-4147
put	-4148
chie	-4149
inos	-4150
jähr	-4151
lauf	-4152
▁ign	-4153
licht	-4154
▁bist	-4155
▁rein	-4156
▁worth	-4157
▁anyone	-4158
▁center	-4159
▁starting	-4160
▁Natürlich	-4161
ersp	-4162
ploy	-4163
▁favor	-4164
äß	-4165
▁nahm	-4166
▁gives	-4167
▁serious	-4168
▁Gemeinschaft	-4169
ieg	-4170
▁gewesen	-4171
völkerung	-4172
son	-4173
▁flo	-4174
▁climate	-4175
▁erschaffen	-4176
▁et	-4177
ätze	-4178
▁196	-4179
▁ice	-4180
igent	-4181
ochen	-4182
▁Führ	-4183
estern	-4184
▁Labor	-4185
▁Reihe	-4186
▁tools	-4187
▁jemals	-4188
bten	-4189
▁Gef	-4190
▁led	-4191
organ	-4192
▁sehe	-4193
▁North	-4194
▁beeinfl	-4195
iot	-4196
uit	-4197
ativ	-4198
▁größer	-4199
▁passieren	-4200
head	-4201
▁Mikro	-4202
▁guess	-4203
▁mache	-4204
▁stage	-4205
▁Schritt	-4206
▁erklären	-4207
ID	-4208
eim	-4209
ends	-4210
ores	-4211
▁Kat	-4212
▁Süd	-4213
▁flu	-4214
▁Alle	-4215
▁dead	-4216
▁avail	-4217
vention	-4218
▁telling	-4219
▁gegenüber	-4220
mar	-4221
▁übr	-4222
eller	-4223
▁prin	-4224
▁color	-4225
▁fanden	-4226
▁gebaut	-4227
▁playing	-4228
▁Tatsache	-4229
▁hundreds	-4230
▁sn	-4231
▁Sol	-4232
▁civil	-4233
▁Medien	-4234
▁Muster	-4235
▁proper	-4236
▁Wahrheit	-4237
▁Technologien	-4238
ped	-4239
aged	-4240
▁Som	-4241
gessen	-4242
▁erfolg	-4243
▁kleines	-4244
▁similar	-4245
cond	-4246
▁anfangen	-4247
▁glücklich	-4248
▁Verbindung	-4249
▁revolution	-4250
iod	-4251
▁fair	-4252
▁hosp	-4253
agieren	-4254
▁Mathemat	-4255
▁Eis	-4256
▁Tit	-4257
▁emp	-4258
blick	-4259
▁road	-4260
gliche	-4261
▁nimmt	-4262
▁deshalb	-4263
afft	-4264
imin	-4265
▁300	-4266
asing	-4267
zeitig	-4268
▁bemer	-4269
▁neigh	-4270
▁Unsere	-4271
▁bekannt	-4272
Th	-4273
▁Tem	-4274
▁aren	-4275
gewöhn	-4276
▁Jeder	-4277
▁daraus	-4278
▁hinaus	-4279
▁leicht	-4280
▁beginnt	-4281
▁wachsen	-4282
▁Richtung	-4283
▁aussehen	-4284
▁discovered	-4285
use	-4286
ehler	-4287
▁text	-4288
andeln	-4289
▁Technik	-4290
▁möchten	-4291
▁unterst	-4292
▁geworden	-4293
▁miteinander	-4294
cen	-4295
▁Our	-4296
wegen	-4297
iation	-4298
▁Platz	-4299
▁neben	-4300
▁Anzahl	-4301
▁concept	-4302
▁creating	-4303
▁Tw	-4304
▁mom	-4305
ulture	-4306
▁nachdem	-4307
▁Studenten	-4308
▁wissenschaft	-4309
kn	-4310
umb	-4311
älfte	-4312
▁soon	-4313
▁protect	-4314
▁Rad	-4315
rolle	-4316
▁Alles	-4317
▁Recht	-4318
ex	-4319
ras	-4320
▁San	-4321
entlichen	-4322
▁absolutely	-4323
▁Tatsächlich	-4324
▁1,	-4325
▁Ök	-4326
cker	-4327
▁führ	-4328
▁optim	-4329
▁polic	-4330
▁Produkt	-4331
yr	-4332
▁Je	-4333
otyp	-4334
▁ref	-4335
icans	-4336
zeugt	-4337
▁curr	-4338
▁prom	-4339
▁song	-4340
▁finan	-4341
▁neues	-4342
▁schwar	-4343
▁millions	-4344
▁def	-4345
▁eth	-4346
ragen	-4347
▁raus	-4348
forsch	-4349
▁alone	-4350
▁issue	-4351
▁travel	-4352
uchs	-4353
▁falls	-4354
▁medic	-4355
▁positive	-4356
▁plötzlich	-4357
gor	-4358
urity	-4359
▁Ihrem	-4360
▁block	-4361
▁perfe	-4362
▁danach	-4363
▁talked	-4364
▁Kranken	-4365
▁sustain	-4366
ites	-4367
▁mer	-4368
▁showed	-4369
▁movement	-4370
öst	-4371
iled	-4372
rael	-4373
▁cop	-4374
▁est	-4375
▁verloren	-4376
zens	-4377
▁fur	-4378
▁hon	-4379
▁Aben	-4380
▁konzentr	-4381
0,	-4382
▁la	-4383
▁Är	-4384
ified	-4385
▁sell	-4386
reiten	-4387
▁Teile	-4388
▁shape	-4389
▁bekommt	-4390
▁schrieb	-4391
cul	-4392
▁iP	-4393
anze	-4394
ille	-4395
wind	-4396
▁tat	-4397
▁zehn	-4398
itäten	-4399
▁among	-4400
▁truth	-4401
▁includ	-4402
▁entfernt	-4403
ered	-4404
▁toll	-4405
▁knows	-4406
▁Situation	-4407
▁verwendet	-4408
aubt	-4409
▁pack	-4410
andelt	-4411
setzen	-4412
▁Medik	-4413
▁Sicht	-4414
▁achie	-4415
▁Gewalt	-4416
pecially	-4417
▁genannt	-4418
▁development	-4419
▁acht	-4420
▁suff	-4421
▁Besch	-4422
▁Blick	-4423
▁David	-4424
▁Super	-4425
▁Einige	-4426
▁kleiner	-4427
▁incredibly	-4428
hy	-4429
▁Com	-4430
▁hil	-4431
▁Präs	-4432
▁fing	-4433
▁spir	-4434
▁wert	-4435
stellt	-4436
▁Stimme	-4437
▁Aufgabe	-4438
ügen	-4439
ining	-4440
uelle	-4441
▁rate	-4442
gorith	-4443
▁Bürger	-4444
▁Vortra	-4445
▁stellte	-4446
rig	-4447
lebt	-4448
▁Bas	-4449
▁Erk	-4450
▁Fuß	-4451
▁Ihrer	-4452
▁benef	-4453
▁period	-4454
▁gezeigt	-4455
▁Umgebung	-4456
▁recently	-4457
▁available	-4458
Sch	-4459
teilt	-4460
▁Stre	-4461
▁cars	-4462
gemein	-4463
▁entsch	-4464
▁Bildung	-4465
▁produce	-4466
▁experien	-4467
▁solution	-4468
▁Krankheit	-4469
▁Ira	-4470
▁dro	-4471
▁eye	-4472
▁findet	-4473
▁sofort	-4474
▁Deshalb	-4475
▁situation	-4476
auft	-4477
gten	-4478
▁jen	-4479
▁wid	-4480
recht	-4481
▁Face	-4482
▁elekt	-4483
osystem	-4484
▁attack	-4485
▁Afghanistan	-4486
▁Tat	-4487
▁mob	-4488
▁Frei	-4489
▁With	-4490
▁Eigen	-4491
▁sever	-4492
▁beschäft	-4493
▁fire	-4494
ichtet	-4495
▁guten	-4496
▁benutzt	-4497
▁Bedeutung	-4498
▁Vorstellung	-4499
xy	-4500
iko	-4501
▁pur	-4502
eiter	-4503
▁Phys	-4504
▁Viel	-4505
▁egal	-4506
▁sold	-4507
▁industry	-4508
aß	-4509
▁By	-4510
▁tö	-4511
▁Kam	-4512
▁cho	-4513
hnung	-4514
ussen	-4515
▁Nord	-4516
▁asking	-4517
▁chance	-4518
▁Während	-4519
▁resources	-4520
fern	-4521
rech	-4522
▁Ris	-4523
bsite	-4524
▁flow	-4525
▁infl	-4526
ritten	-4527
▁developing	-4528
▁Fä	-4529
rodu	-4530
▁sea	-4531
▁zwe	-4532
▁Team	-4533
▁baby	-4534
▁type	-4535
roffen	-4536
▁Ferns	-4537
bringen	-4538
▁niemals	-4539
▁innovation	-4540
▁nachdenken	-4541
ms	-4542
omb	-4543
▁hör	-4544
▁Prof	-4545
▁Stat	-4546
▁wall	-4547
▁blind	-4548
▁milit	-4549
▁solar	-4550
▁voice	-4551
▁designed	-4552
▁lay	-4553
▁Blut	-4554
▁City	-4555
▁hoffe	-4556
▁touch	-4557
▁Chinese	-4558
wusstsein	-4559
▁pictures	-4560
▁Ju	-4561
itch	-4562
▁convers	-4563
▁subject	-4564
rate	-4565
▁solve	-4566
▁sonst	-4567
▁Sonnen	-4568
▁bigger	-4569
▁compassion	-4570
▁Entwicklungs	-4571
.“	-4572
esh	-4573
inne	-4574
▁Wind	-4575
▁tiny	-4576
▁beide	-4577
▁becomes	-4578
▁komplett	-4579
▁offensicht	-4580
▁Wohl	-4581
▁Rolle	-4582
▁Regier	-4583
▁putting	-4584
▁Wirklich	-4585
SA	-4586
olf	-4587
rel	-4588
lage	-4589
▁hig	-4590
utage	-4591
▁Hälfte	-4592
▁Veränderung	-4593
IDS	-4594
yond	-4595
▁Bel	-4596
ideos	-4597
▁Foto	-4598
▁Zent	-4599
▁Aktiv	-4600
▁smart	-4601
▁carbon	-4602
▁verrück	-4603
lied	-4604
oose	-4605
▁Hel	-4606
▁Mex	-4607
▁yes	-4608
ändig	-4609
▁camp	-4610
▁Größe	-4611
▁haven	-4612
▁bezahl	-4613
▁issues	-4614
▁street	-4615
▁evidence	-4616
▁erfolgreich	-4617
des	-4618
▁cy	-4619
setz	-4620
▁Sat	-4621
dlich	-4622
ünden	-4623
▁Reise	-4624
unktion	-4625
▁allein	-4626
▁Amerika	-4627
▁fliegen	-4628
▁erreicht	-4629
▁Mc	-4630
▁oh	-4631
fore	-4632
umor	-4633
▁lif	-4634
▁nuc	-4635
unkte	-4636
äsent	-4637
▁Fisch	-4638
▁Erfolg	-4639
▁changing	-4640
▁kü	-4641
▁Arm	-4642
▁ult	-4643
feren	-4644
ängen	-4645
▁conv	-4646
▁drive	-4647
itation	-4648
▁Christ	-4649
zufinden	-4650
▁computers	-4651
▁especially	-4652
aly	-4653
äume	-4654
▁Dor	-4655
▁Tür	-4656
führen	-4657
▁zeige	-4658
▁gingen	-4659
▁general	-4660
▁reasons	-4661
▁weltweit	-4662
änge	-4663
▁Sau	-4664
iesen	-4665
▁bege	-4666
▁samm	-4667
utzutage	-4668
▁Straßen	-4669
▁ak	-4670
band	-4671
▁Iran	-4672
▁refle	-4673
▁except	-4674
▁liegen	-4675
▁Herausforderung	-4676
▁ann	-4677
▁bor	-4678
isierung	-4679
▁writing	-4680
▁Facebook	-4681
ique	-4682
▁Erd	-4683
▁Rel	-4684
▁sor	-4685
onstr	-4686
lassen	-4687
▁Mitte	-4688
▁trust	-4689
▁laufen	-4690
▁involved	-4691
▁Generation	-4692
▁generation	-4693
▁Ro	-4694
legt	-4695
▁Geist	-4696
▁bekam	-4697
▁links	-4698
▁moder	-4699
▁react	-4700
▁total	-4701
▁gefähr	-4702
▁Meinung	-4703
▁function	-4704
▁Ken	-4705
stens	-4706
▁Schü	-4707
▁zerst	-4708
▁Europa	-4709
▁hinein	-4710
▁integr	-4711
▁message	-4712
▁soziale	-4713
wirtschaft	-4714
akes	-4715
wood	-4716
▁Zwe	-4717
▁Chem	-4718
indern	-4719
agement	-4720
▁veröff	-4721
▁Prinzip	-4722
▁jemanden	-4723
sequen	-4724
▁ausge	-4725
▁mögen	-4726
▁predict	-4727
▁genommen	-4728
gra	-4729
asen	-4730
iers	-4731
racy	-4732
▁beyond	-4733
▁länger	-4734
▁kontroll	-4735
adem	-4736
ctors	-4737
ected	-4738
▁save	-4739
▁dream	-4740
▁rules	-4741
▁Straße	-4742
▁groups	-4743
▁lieben	-4744
▁Demokrat	-4745
kel	-4746
pfer	-4747
▁Kil	-4748
▁fix	-4749
▁hol	-4750
arily	-4751
▁ball	-4752
▁list	-4753
▁alten	-4754
▁fahren	-4755
▁ziehen	-4756
▁gegeben	-4757
▁died	-4758
ishing	-4759
▁lived	-4760
möglich	-4761
▁bacter	-4762
▁search	-4763
▁brachte	-4764
▁bestimmt	-4765
ehmer	-4766
ellow	-4767
▁towards	-4768
▁software	-4769
öh	-4770
▁anc	-4771
aking	-4772
▁dram	-4773
▁table	-4774
▁Kosten	-4775
▁device	-4776
▁several	-4777
▁conscious	-4778
sm	-4779
ta	-4780
Wir	-4781
ify	-4782
▁See	-4783
esser	-4784
▁unbe	-4785
▁daher	-4786
▁Wachst	-4787
▁strateg	-4788
▁betrachte	-4789
▁Fähigkeiten	-4790
▁Bab	-4791
ziert	-4792
▁rock	-4793
▁interessiert	-4794
ällt	-4795
▁Austr	-4796
▁virus	-4797
jenigen	-4798
▁Bakter	-4799
▁choice	-4800
▁necess	-4801
▁Mitgefühl	-4802
▁geschieht	-4803
back	-4804
iate	-4805
▁Nie	-4806
▁Einz	-4807
▁verh	-4808
▁First	-4809
▁girls	-4810
▁überw	-4811
erstoff	-4812
▁action	-4813
▁likely	-4814
ißen	-4815
plant	-4816
üssel	-4817
▁nine	-4818
indest	-4819
▁Hinter	-4820
▁setzen	-4821
anda	-4822
imal	-4823
ienst	-4824
olekü	-4825
▁Rich	-4826
▁empf	-4827
▁nein	-4828
▁Sonne	-4829
▁machten	-4830
▁Realität	-4831
win	-4832
zer	-4833
▁Of	-4834
▁Wör	-4835
▁gek	-4836
▁wish	-4837
▁speed	-4838
▁schneller	-4839
lim	-4840
room	-4841
▁Don	-4842
▁evol	-4843
olence	-4844
▁Preis	-4845
▁motiv	-4846
▁Medizin	-4847
▁geboren	-4848
zeh	-4849
ously	-4850
▁Ding	-4851
▁Eink	-4852
▁peace	-4853
▁Papier	-4854
▁compet	-4855
▁einfache	-4856
▁Vereinigten	-4857
▁particularly	-4858
zü	-4859
geht	-4860
pped	-4861
viel	-4862
▁Maß	-4863
▁Nur	-4864
▁Psych	-4865
▁Where	-4866
▁faszin	-4867
▁gesamte	-4868
▁moved	-4869
▁vision	-4870
arbeiten	-4871
▁Forschung	-4872
▁character	-4873
ada	-4874
gem	-4875
▁ca	-4876
▁op	-4877
schw	-4878
älter	-4879
▁rich	-4880
ensive	-4881
▁games	-4882
▁nennt	-4883
▁danger	-4884
▁sounds	-4885
▁absolut	-4886
▁medical	-4887
iar	-4888
▁1.	-4889
ford	-4890
seite	-4891
abhäng	-4892
ologen	-4893
▁basic	-4894
▁Studie	-4895
▁office	-4896
▁herauszufinden	-4897
ech	-4898
▁akt	-4899
▁Firma	-4900
▁Strom	-4901
▁Städte	-4902
▁Zahlen	-4903
▁geschrieben	-4904
atte	-4905
ikel	-4906
stru	-4907
▁sent	-4908
ilosoph	-4909
▁stimmt	-4910
▁Schauen	-4911
▁anybody	-4912
▁further	-4913
▁schools	-4914
▁Maschine	-4915
▁obviously	-4916
zte	-4917
▁Von	-4918
▁sle	-4919
dessen	-4920
▁progress	-4921
▁wirtschaft	-4922
▁Gesundheits	-4923
oke	-4924
ette	-4925
▁Yes	-4926
▁onto	-4927
▁tend	-4928
▁potential	-4929
▁Entscheidungen	-4930
bung	-4931
ises	-4932
antly	-4933
flict	-4934
▁Mark	-4935
ground	-4936
▁mount	-4937
▁Ergebnis	-4938
▁teachers	-4939
▁materials	-4940
come	-4941
igens	-4942
▁gesprochen	-4943
enk	-4944
▁hit	-4945
unger	-4946
▁Wand	-4947
▁Will	-4948
▁multi	-4949
▁Israel	-4950
▁tragen	-4951
▁walking	-4952
▁Oberfläche	-4953
Pro	-4954
▁TV	-4955
atic	-4956
▁gas	-4957
teile	-4958
ätzen	-4959
▁Kommun	-4960
▁nachzu	-4961
▁dachten	-4962
ami	-4963
rief	-4964
▁400	-4965
▁Wel	-4966
▁histor	-4967
▁starts	-4968
▁totally	-4969
▁certainly	-4970
ny	-4971
artet	-4972
piele	-4973
▁Bücher	-4974
▁screen	-4975
▁anstatt	-4976
merksamkeit	-4977
uk	-4978
lei	-4979
▁Any	-4980
▁Det	-4981
▁Baby	-4982
▁carry	-4983
▁track	-4984
▁quality	-4985
▁begannen	-4986
▁wichtiger	-4987
▁Nachrichten	-4988
oß	-4989
cts	-4990
bald	-4991
▁Russ	-4992
▁Maybe	-4993
▁Fehler	-4994
▁Pflanzen	-4995
ags	-4996
itor	-4997
▁fem	-4998
▁rece	-4999
▁repl	-5000
ometer	-5001
▁Karte	-5002
▁breat	-5003
▁biggest	-5004
▁examples	-5005
▁scientific	-5006
▁Aufmerksamkeit	-5007
icle	-5008
▁Abs	-5009
ivität	-5010
▁wants	-5011
bildung	-5012
▁Leiden	-5013
indungen	-5014
more	-5015
▁lok	-5016
▁frei	-5017
▁warm	-5018
isions	-5019
lungen	-5020
▁plant	-5021
▁notice	-5022
▁Auswirk	-5023
▁context	-5024
▁showing	-5025
▁extraord	-5026
▁Beziehung	-5027
auten	-5028
▁camera	-5029
▁Austral	-5030
▁student	-5031
▁ähnlich	-5032
bur	-5033
▁Büro	-5034
▁großer	-5035
▁sprach	-5036
ological	-5037
▁transport	-5038
▁University	-5039
▁Eff	-5040
▁Pal	-5041
▁fam	-5042
enken	-5043
ücken	-5044
▁lern	-5045
wissen	-5046
▁Kolle	-5047
▁Schön	-5048
▁bewegt	-5049
ühren	-5050
▁bank	-5051
teilen	-5052
▁Alter	-5053
▁transl	-5054
▁Politik	-5055
▁represent	-5056
Die	-5057
▁Fle	-5058
▁Dorf	-5059
▁Islam	-5060
▁sequen	-5061
▁verurs	-5062
▁Jahrzeh	-5063
▁ansehen	-5064
▁Bewusstsein	-5065
fre	-5066
nern	-5067
▁door	-5068
▁Frank	-5069
▁Niger	-5070
▁activ	-5071
▁separ	-5072
▁zuerst	-5073
▁Hoffnung	-5074
▁Künstler	-5075
▁everywhere	-5076
▁fundamental	-5077
wh	-5078
▁bill	-5079
▁heut	-5080
▁cross	-5081
▁gearbeitet	-5082
feld	-5083
▁Hoch	-5084
▁bald	-5085
▁Kreat	-5086
▁ernst	-5087
▁finde	-5088
▁graph	-5089
▁sahen	-5090
▁memory	-5091
▁nobody	-5092
▁Gruppen	-5093
▁chemical	-5094
▁projects	-5095
heim	-5096
ämpfen	-5097
▁After	-5098
▁Druck	-5099
▁Telef	-5100
▁effic	-5101
▁kosten	-5102
▁Schulen	-5103
▁passierte	-5104
arf	-5105
▁Kan	-5106
leist	-5107
▁Baum	-5108
▁Bill	-5109
gendes	-5110
weisen	-5111
▁exciting	-5112
▁extremely	-5113
▁Experiment	-5114
ickt	-5115
▁appl	-5116
▁trees	-5117
▁verfü	-5118
plicated	-5119
▁capital	-5120
▁journey	-5121
▁largest	-5122
▁Einfluss	-5123
▁Sw	-5124
erve	-5125
like	-5126
▁mut	-5127
▁vorh	-5128
▁anges	-5129
▁dynam	-5130
▁junge	-5131
aughter	-5132
zeichnet	-5133
▁deliver	-5134
▁violence	-5135
▁Kontrolle	-5136
▁verlassen	-5137
▁Bevölkerung	-5138
mus	-5139
aute	-5140
ramm	-5141
▁Himm	-5142
▁Most	-5143
▁capt	-5144
▁Vortrag	-5145
▁particip	-5146
▁thousand	-5147
front	-5148
▁Terr	-5149
▁jobs	-5150
▁nahe	-5151
▁Genau	-5152
▁Meter	-5153
▁trial	-5154
▁Behand	-5155
▁früher	-5156
▁Fortsch	-5157
▁Evolution	-5158
▁beobachten	-5159
▁bestimmten	-5160
▁gleichzeitig	-5161
ari	-5162
ohl	-5163
itet	-5164
nete	-5165
zies	-5166
▁kur	-5167
▁birth	-5168
▁Regeln	-5169
▁terror	-5170
▁threat	-5171
▁versuchte	-5172
ror	-5173
krie	-5174
▁Act	-5175
inken	-5176
▁2000	-5177
▁Orte	-5178
▁Ress	-5179
▁Sohn	-5180
▁bein	-5181
▁prot	-5182
trauen	-5183
▁Seiten	-5184
▁results	-5185
▁security	-5186
▁sozialen	-5187
▁intelligen	-5188
ery	-5189
ley	-5190
upp	-5191
erei	-5192
▁150	-5193
▁hot	-5194
▁nar	-5195
oming	-5196
schie	-5197
▁Auch	-5198
▁park	-5199
▁sand	-5200
▁clean	-5201
▁kreat	-5202
▁meant	-5203
▁näher	-5204
une	-5205
▁Ke	-5206
isis	-5207
onse	-5208
▁boy	-5209
astic	-5210
eless	-5211
▁lose	-5212
ements	-5213
▁Galax	-5214
▁kompl	-5215
▁plants	-5216
▁verbra	-5217
▁conflict	-5218
▁na	-5219
deck	-5220
▁etc	-5221
▁Regen	-5222
peratur	-5223
unately	-5224
▁member	-5225
▁Software	-5226
▁perspect	-5227
▁suddenly	-5228
▁supposed	-5229
abel	-5230
▁Vol	-5231
▁Ozean	-5232
ossible	-5233
▁Konzept	-5234
▁activity	-5235
▁einzelne	-5236
▁offensichtlich	-5237
vert	-5238
ützt	-5239
▁Fil	-5240
▁Bank	-5241
▁Verl	-5242
▁fill	-5243
ourcen	-5244
▁movie	-5245
▁named	-5246
▁region	-5247
▁sitzen	-5248
▁spezie	-5249
▁Monaten	-5250
▁wichtige	-5251
kr	-5252
▁sil	-5253
▁vac	-5254
iegen	-5255
wasser	-5256
▁labor	-5257
▁Versuch	-5258
▁favorite	-5259
▁Universität	-5260
IT	-5261
▁Sex	-5262
▁meth	-5263
▁galax	-5264
▁Wieder	-5265
▁Studien	-5266
▁nuclear	-5267
▁village	-5268
▁Demokratie	-5269
rage	-5270
▁ehr	-5271
▁ext	-5272
ulate	-5273
▁Arab	-5274
▁Zust	-5275
▁laun	-5276
altung	-5277
▁apart	-5278
▁crazy	-5279
▁Erinner	-5280
▁account	-5281
▁passion	-5282
▁ständig	-5283
▁watching	-5284
▁anschauen	-5285
▁eventually	-5286
▁Ag	-5287
erne	-5288
▁Hin	-5289
pidem	-5290
▁Plan	-5291
▁grew	-5292
▁role	-5293
▁skin	-5294
▁ready	-5295
▁Zugang	-5296
▁inform	-5297
▁models	-5298
sth	-5299
▁Trä	-5300
▁rid	-5301
▁Lauf	-5302
▁Oper	-5303
▁gehe	-5304
▁mine	-5305
▁return	-5306
▁creative	-5307
▁neighbor	-5308
▁position	-5309
▁connected	-5310
▁Menschheit	-5311
wür	-5312
▁35	-5313
▁NA	-5314
amin	-5315
etze	-5316
▁rot	-5317
ounds	-5318
▁East	-5319
▁Look	-5320
▁Eines	-5321
▁natür	-5322
ikation	-5323
▁Gebiet	-5324
▁Wörter	-5325
▁bleibt	-5326
▁faster	-5327
▁African	-5328
▁Reaktion	-5329
▁individuals	-5330
0.	-5331
▁Ed	-5332
itte	-5333
▁Col	-5334
▁Tro	-5335
ables	-5336
orfen	-5337
ächen	-5338
ausend	-5339
uellen	-5340
▁lands	-5341
▁prakt	-5342
▁urban	-5343
▁disapp	-5344
▁higher	-5345
▁richtige	-5346
▁Hy	-5347
erap	-5348
▁Even	-5349
▁aufge	-5350
underte	-5351
▁kannst	-5352
▁Washing	-5353
▁hospital	-5354
▁happiness	-5355
▁ö	-5356
aue	-5357
ils	-5358
letz	-5359
plex	-5360
▁inf	-5361
▁sod	-5362
▁poll	-5363
▁cause	-5364
▁immed	-5365
▁waste	-5366
▁emotion	-5367
▁private	-5368
▁teacher	-5369
▁collabor	-5370
▁democracy	-5371
▁somewhere	-5372
▁vergessen	-5373
ehow	-5374
obil	-5375
▁tar	-5376
iegel	-5377
teten	-5378
aterie	-5379
▁Morgen	-5380
▁brains	-5381
▁richtigen	-5382
joy	-5383
▁Ser	-5384
▁safe	-5385
▁wild	-5386
ration	-5387
stehen	-5388
▁domin	-5389
▁meist	-5390
▁Stelle	-5391
▁appear	-5392
▁source	-5393
▁finding	-5394
▁continue	-5395
▁response	-5396
windigkeit	-5397
▁arbeitete	-5398
▁Washington	-5399
hol	-5400
▁Gu	-5401
▁Sa	-5402
▁Dah	-5403
▁Gut	-5404
▁zus	-5405
ender	-5406
▁Mehr	-5407
▁Spaß	-5408
▁hous	-5409
▁task	-5410
ativen	-5411
▁ihres	-5412
ustrial	-5413
▁erzählt	-5414
ragt	-5415
▁000	-5416
▁Ord	-5417
▁sorts	-5418
▁bilden	-5419
▁großes	-5420
▁nation	-5421
▁Nachbar	-5422
▁Richard	-5423
mp	-5424
ufe	-5425
etic	-5426
ählt	-5427
▁Los	-5428
▁Zeug	-5429
▁nied	-5430
ielten	-5431
schlag	-5432
▁tells	-5433
▁indeed	-5434
▁remark	-5435
▁buildings	-5436
prü	-5437
rom	-5438
woh	-5439
klär	-5440
▁Tas	-5441
reibt	-5442
▁Paul	-5443
▁rain	-5444
▁Armut	-5445
▁deine	-5446
▁shown	-5447
schluss	-5448
▁larger	-5449
▁products	-5450
▁Innovation	-5451
▁essentially	-5452
Wie	-5453
abl	-5454
ued	-5455
unt	-5456
cape	-5457
imen	-5458
▁Asp	-5459
▁ine	-5460
▁Orten	-5461
▁adult	-5462
ilities	-5463
▁Gesetz	-5464
▁Molekü	-5465
▁Grenzen	-5466
▁allowed	-5467
▁hundert	-5468
▁objects	-5469
▁möglichen	-5470
▁verlieren	-5471
abr	-5472
lern	-5473
plan	-5474
uern	-5475
wart	-5476
▁Who	-5477
verty	-5478
▁wife	-5479
▁minds	-5480
▁poverty	-5481
▁wussten	-5482
▁aussieht	-5483
▁Vergangen	-5484
▁zumindest	-5485
ägt	-5486
▁goal	-5487
▁phen	-5488
▁push	-5489
▁forms	-5490
▁impossible	-5491
▁produzieren	-5492
No	-5493
auch	-5494
ires	-5495
▁Are	-5496
▁Gel	-5497
▁swe	-5498
▁worse	-5499
▁Objekt	-5500
▁minute	-5501
▁Schüler	-5502
▁bessere	-5503
▁irgendwo	-5504
fs	-5505
con	-5506
▁Sm	-5507
nder	-5508
▁Bud	-5509
▁lau	-5510
▁Twitter	-5511
▁erlaubt	-5512
▁überras	-5513
▁Nachricht	-5514
▁verbessern	-5515
▁communities	-5516
ec	-5517
kon	-5518
ulpt	-5519
spiel	-5520
▁Gene	-5521
▁Sign	-5522
▁late	-5523
▁Tagen	-5524
▁bunch	-5525
▁taught	-5526
▁England	-5527
▁Spezies	-5528
▁Personen	-5529
sta	-5530
ünft	-5531
arian	-5532
odies	-5533
▁citi	-5534
tember	-5535
▁Franc	-5536
▁earth	-5537
▁ended	-5538
▁enjoy	-5539
▁höher	-5540
isation	-5541
▁princi	-5542
▁colleag	-5543
▁suggest	-5544
▁demonstr	-5545
▁versuche	-5546
▁Mathematik	-5547
rem	-5548
üss	-5549
▁Wür	-5550
atory	-5551
▁cart	-5552
▁echt	-5553
▁Gerät	-5554
▁above	-5555
▁afford	-5556
▁fertig	-5557
▁launch	-5558
▁voller	-5559
legenheit	-5560
▁signific	-5561
bit	-5562
mals	-5563
uell	-5564
▁bal	-5565
▁bur	-5566
erman	-5567
▁burn	-5568
▁deut	-5569
▁rele	-5570
▁drugs	-5571
▁stick	-5572
▁erklär	-5573
▁Beispiele	-5574
▁complicated	-5575
▁traditional	-5576
▁nachzudenken	-5577
▁Vergangenheit	-5578
▁Ker	-5579
▁AIDS	-5580
▁dete	-5581
▁fine	-5582
▁site	-5583
▁Ebene	-5584
▁Invest	-5585
▁allows	-5586
▁points	-5587
izations	-5588
▁medizin	-5589
fel	-5590
pts	-5591
▁tru	-5592
▁Like	-5593
▁Sand	-5594
▁erwäh	-5595
▁discuss	-5596
▁massive	-5597
▁families	-5598
▁interest	-5599
▁Krankheiten	-5600
edia	-5601
mand	-5602
▁Bot	-5603
▁Erf	-5604
▁Uhr	-5605
bauen	-5606
▁Haut	-5607
▁Kong	-5608
▁cook	-5609
▁wait	-5610
reitet	-5611
▁affect	-5612
▁series	-5613
▁arbeitet	-5614
▁gebracht	-5615
▁Bakterien	-5616
▁conditions	-5617
▁heutzutage	-5618
▁Wirklichkeit	-5619
ürz	-5620
edom	-5621
gere	-5622
▁kre	-5623
räfte	-5624
zusch	-5625
änden	-5626
▁Kern	-5627
▁selt	-5628
though	-5629
▁Feuer	-5630
▁attra	-5631
▁nenne	-5632
▁Terror	-5633
▁altern	-5634
▁doctor	-5635
▁führte	-5636
▁distrib	-5637
▁schreck	-5638
▁gewinnen	-5639
▁electricity	-5640
zwe	-5641
▁Na	-5642
▁mist	-5643
▁Daher	-5644
▁cases	-5645
▁lower	-5646
▁older	-5647
▁Firmen	-5648
▁befinden	-5649
▁gesamten	-5650
▁emotional	-5651
▁extraordinary	-5652
▁$	-5653
kelet	-5654
äufig	-5655
▁tree	-5656
ferenz	-5657
▁Konfl	-5658
▁denkt	-5659
▁choose	-5660
▁phenomen	-5661
▁training	-5662
▁perspective	-5663
Re	-5664
imb	-5665
iced	-5666
ingu	-5667
lier	-5668
▁roll	-5669
ruction	-5670
wendung	-5671
▁stress	-5672
▁Sekunden	-5673
▁gekommen	-5674
▁standing	-5675
▁successful	-5676
ids	-5677
reng	-5678
annen	-5679
icians	-5680
▁Leist	-5681
▁Worte	-5682
▁Können	-5683
▁crisis	-5684
entliche	-5685
▁excited	-5686
▁introdu	-5687
▁somehow	-5688
▁Einstein	-5689
▁medicine	-5690
dom	-5691
ser	-5692
falt	-5693
stre	-5694
ured	-5695
▁erg	-5696
▁mis	-5697
▁oxy	-5698
drück	-5699
rochen	-5700
▁Linie	-5701
▁shift	-5702
▁author	-5703
▁einges	-5704
▁killed	-5705
▁pieces	-5706
▁prison	-5707
▁Theorie	-5708
▁reading	-5709
▁solchen	-5710
▁decision	-5711
gy	-5712
äte	-5713
▁Mü	-5714
▁Del	-5715
▁Ern	-5716
▁inn	-5717
altet	-5718
orben	-5719
▁Zwei	-5720
▁kept	-5721
vented	-5722
▁gewalt	-5723
▁manche	-5724
▁usually	-5725
▁interview	-5726
merz	-5727
olly	-5728
blich	-5729
kommt	-5730
▁traf	-5731
▁upon	-5732
▁winz	-5733
▁occur	-5734
ruption	-5735
▁keiner	-5736
▁morgen	-5737
▁content	-5738
▁bacteria	-5739
▁erzeugen	-5740
▁increase	-5741
▁trotzdem	-5742
beh	-5743
osm	-5744
pol	-5745
▁Mr	-5746
mark	-5747
▁cat	-5748
▁sky	-5749
▁luck	-5750
▁purp	-5751
▁town	-5752
▁vert	-5753
machen	-5754
▁alive	-5755
zugehen	-5756
ständnis	-5757
▁neurons	-5758
▁einzelnen	-5759
board	-5760
genie	-5761
▁anzu	-5762
▁inse	-5763
▁Relig	-5764
▁Those	-5765
▁aktiv	-5766
▁Second	-5767
imension	-5768
▁influen	-5769
▁mention	-5770
▁critical	-5771
▁erschein	-5772
▁straight	-5773
ckte	-5774
hang	-5775
▁doc	-5776
werke	-5777
▁Priv	-5778
▁Monat	-5779
▁Today	-5780
▁Which	-5781
▁aufre	-5782
▁calcul	-5783
▁runter	-5784
▁automat	-5785
▁provide	-5786
▁smaller	-5787
▁treatment	-5788
abet	-5789
wers	-5790
▁Kons	-5791
▁wund	-5792
ctions	-5793
werfen	-5794
▁sleep	-5795
▁address	-5796
▁studies	-5797
▁geschehen	-5798
▁Amerikaner	-5799
▁organization	-5800
tex	-5801
▁Gem	-5802
▁veh	-5803
▁alte	-5804
▁stär	-5805
▁yeah	-5806
▁Stamm	-5807
▁beings	-5808
▁Frieden	-5809
▁version	-5810
▁including	-5811
▁architecture	-5812
ios	-5813
ius	-5814
was	-5815
aria	-5816
hyth	-5817
▁wes	-5818
iling	-5819
▁clin	-5820
▁kaum	-5821
▁rund	-5822
▁truly	-5823
▁anywhere	-5824
▁unmöglich	-5825
licherweise	-5826
5,	-5827
ham	-5828
ehme	-5829
isms	-5830
▁MIT	-5831
▁zahl	-5832
iately	-5833
utzung	-5834
▁Times	-5835
▁angef	-5836
▁ignor	-5837
▁Bienen	-5838
▁Indian	-5839
▁actual	-5840
▁symbol	-5841
▁Netzwerk	-5842
▁military	-5843
▁patterns	-5844
▁Ergebnisse	-5845
▁increasing	-5846
dig	-5847
▁Sim	-5848
▁pen	-5849
▁tie	-5850
rasch	-5851
verse	-5852
iments	-5853
wenden	-5854
▁Somet	-5855
▁diagn	-5856
▁lines	-5857
▁Gefäng	-5858
▁analys	-5859
▁slight	-5860
▁seconds	-5861
▁aufgrund	-5862
▁painting	-5863
▁bestimmte	-5864
▁Entscheidung	-5865
▁conversation	-5866
ya	-5867
ulf	-5868
▁Kur	-5869
▁dog	-5870
▁prec	-5871
endent	-5872
▁Bezug	-5873
▁employ	-5874
▁please	-5875
▁sodass	-5876
▁college	-5877
▁Ressourcen	-5878
▁Regierungen	-5879
omm	-5880
uls	-5881
eles	-5882
pret	-5883
ücht	-5884
▁Zuf	-5885
▁bab	-5886
▁Berg	-5887
▁Phil	-5888
▁nerv	-5889
▁stars	-5890
▁throw	-5891
▁Landes	-5892
▁himself	-5893
▁erfahren	-5894
▁machines	-5895
▁entdecken	-5896
▁Wahrscheinlich	-5897
osh	-5898
▁Hü	-5899
▁Ok	-5900
dete	-5901
scht	-5902
▁Pak	-5903
▁erz	-5904
aging	-5905
äusch	-5906
▁Test	-5907
▁coun	-5908
▁page	-5909
▁sele	-5910
▁Prote	-5911
▁letzt	-5912
ualität	-5913
▁anymore	-5914
▁Flugzeug	-5915
▁programm	-5916
▁Auswirkungen	-5917
roph	-5918
▁Che	-5919
▁kil	-5920
itude	-5921
▁Ball	-5922
▁Mond	-5923
▁dunk	-5924
▁wann	-5925
▁wirk	-5926
ektive	-5927
ierter	-5928
▁check	-5929
▁danke	-5930
▁jungen	-5931
▁physics	-5932
▁»	-5933
org	-5934
▁Sä	-5935
▁lag	-5936
ildet	-5937
seits	-5938
▁neun	-5939
▁effort	-5940
▁skills	-5941
▁gefragt	-5942
▁riesige	-5943
▁entschieden	-5944
▁Nä	-5945
oint	-5946
ribe	-5947
▁Hall	-5948
folgen	-5949
▁hilft	-5950
▁messen	-5951
▁passen	-5952
▁greater	-5953
▁leisten	-5954
▁recognize	-5955
▁verbinden	-5956
▁verstanden	-5957
yle	-5958
ähig	-5959
▁unc	-5960
sprün	-5961
▁Höhe	-5962
zimmer	-5963
▁price	-5964
▁Himmel	-5965
▁Museum	-5966
▁rights	-5967
ingungen	-5968
▁dadurch	-5969
▁express	-5970
▁respond	-5971
▁written	-5972
▁Americans	-5973
fortunately	-5974
▁großartige	-5975
onie	-5976
▁Tal	-5977
▁nut	-5978
▁card	-5979
▁west	-5980
▁Chance	-5981
▁Formen	-5982
▁forest	-5983
▁Kollegen	-5984
▁einander	-5985
▁decisions	-5986
▁großartig	-5987
ara	-5988
aup	-5989
bre	-5990
play	-5991
▁las	-5992
emand	-5993
gener	-5994
ütter	-5995
▁Herr	-5996
▁lebt	-5997
▁rand	-5998
glicht	-5999
▁Brust	-6000
▁glass	-6001
▁läuft	-6002
▁quant	-6003
▁rechts	-6004
▁report	-6005
▁zeigte	-6006
▁Ordnung	-6007
▁biology	-6008
▁Verantwort	-6009
▁untersuchen	-6010
leb	-6011
▁tä	-6012
ilet	-6013
▁whe	-6014
▁Disk	-6015
▁High	-6016
▁code	-6017
▁Fotos	-6018
▁Sinne	-6019
▁board	-6020
▁genes	-6021
▁School	-6022
▁statist	-6023
▁specific	-6024
▁standard	-6025
▁übrigens	-6026
▁expensive	-6027
Es	-6028
iat	-6029
uted	-6030
wick	-6031
▁Ere	-6032
▁Wik	-6033
ahmen	-6034
riere	-6035
▁Heim	-6036
▁hält	-6037
assung	-6038
stelle	-6039
stoffe	-6040
▁Einer	-6041
▁Hände	-6042
▁sowohl	-6043
▁verste	-6044
▁weight	-6045
▁Glauben	-6046
▁Funktion	-6047
▁herausfinden	-6048
ads	-6049
örp	-6050
buch	-6051
time	-6052
will	-6053
▁rep	-6054
agine	-6055
grupp	-6056
▁cold	-6057
▁desp	-6058
▁legs	-6059
▁zufä	-6060
▁Außer	-6061
▁Gespr	-6062
ierende	-6063
▁famous	-6064
▁service	-6065
▁gestellt	-6066
▁ermöglicht	-6067
▁normalerweise	-6068
zi	-6069
▁Gal	-6070
▁hop	-6071
örder	-6072
▁Arzt	-6073
▁Bang	-6074
▁Mont	-6075
tragen	-6076
▁hörte	-6077
▁Darwin	-6078
▁surger	-6079
zunehmen	-6080
▁clearly	-6081
▁earlier	-6082
▁zweiten	-6083
▁erzählte	-6084
▁fantastic	-6085
▁Architektur	-6086
▁Krankenhaus	-6087
ux	-6088
▁45	-6089
iles	-6090
▁Ame	-6091
throp	-6092
▁Port	-6093
ameras	-6094
▁retten	-6095
▁Systeme	-6096
▁entdeckt	-6097
▁production	-6098
same	-6099
acity	-6100
auber	-6101
▁math	-6102
▁magic	-6103
▁beauty	-6104
▁policy	-6105
▁robots	-6106
▁Another	-6107
▁Entdeck	-6108
▁contrib	-6109
▁Freiheit	-6110
▁außerhalb	-6111
▁geschaffen	-6112
▁throughout	-6113
▁Pf	-6114
▁hell	-6115
▁Kampf	-6116
▁Geburt	-6117
▁Jahres	-6118
▁mental	-6119
▁Methode	-6120
▁handelt	-6121
▁Wachstum	-6122
▁Erwachsen	-6123
▁listening	-6124
▁solutions	-6125
ährt	-6126
reche	-6127
▁vern	-6128
ieties	-6129
▁Fluss	-6130
▁drink	-6131
▁loved	-6132
▁walked	-6133
arbeiter	-6134
▁waiting	-6135
▁becoming	-6136
▁practice	-6137
▁Maschinen	-6138
▁diejenigen	-6139
9,	-6140
Hey	-6141
key	-6142
sum	-6143
arte	-6144
seit	-6145
▁Sep	-6146
▁fit	-6147
ournal	-6148
sweise	-6149
▁Damit	-6150
▁Regel	-6151
▁Traum	-6152
▁costs	-6153
▁north	-6154
▁taten	-6155
▁fallen	-6156
▁sammeln	-6157
▁befindet	-6158
▁Vergleich	-6159
mäß	-6160
mend	-6161
▁pan	-6162
gaben	-6163
itten	-6164
▁weap	-6165
▁Zivil	-6166
▁berüh	-6167
▁shark	-6168
erences	-6169
▁einzig	-6170
▁random	-6171
▁current	-6172
▁driving	-6173
▁globalen	-6174
▁therefore	-6175
▁interessante	-6176
ago	-6177
rif	-6178
▁Lö	-6179
▁div	-6180
▁hyd	-6181
▁sam	-6182
ained	-6183
▁shot	-6184
▁brand	-6185
▁catch	-6186
▁store	-6187
▁älter	-6188
▁kommun	-6189
▁police	-6190
▁square	-6191
▁temper	-6192
▁Ingenie	-6193
▁healthy	-6194
▁willing	-6195
▁argument	-6196
▁familiar	-6197
ala	-6198
isco	-6199
lose	-6200
repr	-6201
vard	-6202
▁Bus	-6203
▁exh	-6204
reten	-6205
▁cele	-6206
▁crow	-6207
▁harm	-6208
▁Bühne	-6209
▁spect	-6210
unächst	-6211
▁abstra	-6212
▁greatest	-6213
▁intelligent	-6214
bü	-6215
ceed	-6216
▁Aud	-6217
iding	-6218
▁Erst	-6219
▁Noch	-6220
▁höch	-6221
▁ille	-6222
änomen	-6223
barkeit	-6224
▁Beginn	-6225
▁Geheim	-6226
▁plastic	-6227
ady	-6228
Nein	-6229
trag	-6230
önen	-6231
▁sus	-6232
anter	-6233
▁König	-6234
▁weren	-6235
▁Comput	-6236
▁divers	-6237
▁fascin	-6238
▁Englisch	-6239
▁einzigen	-6240
▁herunter	-6241
▁September	-6242
▁irgendein	-6243
30	-6244
rifft	-6245
▁Inse	-6246
▁Farbe	-6247
▁Verfü	-6248
▁gradu	-6249
▁range	-6250
mitteln	-6251
teilung	-6252
▁Einzel	-6253
▁Nummer	-6254
▁schützen	-6255
▁dangerous	-6256
▁direction	-6257
▁intelligence	-6258
▁environmental	-6259
pfe	-6260
▁Gh	-6261
itat	-6262
aries	-6263
lands	-6264
schirm	-6265
▁Liebl	-6266
▁floor	-6267
▁reich	-6268
ständig	-6269
▁spielt	-6270
▁Telefon	-6271
▁strange	-6272
▁betrachtet	-6273
▁amerikanischen	-6274
2,	-6275
Ja	-6276
attle	-6277
erven	-6278
etzte	-6279
orien	-6280
▁Rand	-6281
▁Wald	-6282
nungen	-6283
▁mächt	-6284
▁bisher	-6285
▁profit	-6286
▁spirit	-6287
▁warten	-6288
▁comfort	-6289
▁concern	-6290
▁respect	-6291
▁website	-6292
▁welcher	-6293
▁invented	-6294
▁Interesse	-6295
▁wundersch	-6296
▁performance	-6297
▁institutions	-6298
▁unterstützen	-6299
amb	-6300
▁Ak	-6301
rees	-6302
äuser	-6303
▁Gold	-6304
▁Komp	-6305
▁Name	-6306
▁antw	-6307
aurant	-6308
gesetzt	-6309
▁Drogen	-6310
▁Gründe	-6311
▁Intell	-6312
▁determ	-6313
▁selben	-6314
▁Nahrung	-6315
▁freedom	-6316
ieß	-6317
▁vo	-6318
lant	-6319
ctive	-6320
ießen	-6321
▁lief	-6322
▁rise	-6323
▁forth	-6324
imately	-6325
▁German	-6326
▁Jungen	-6327
▁Artikel	-6328
▁Harvard	-6329
▁Partner	-6330
▁geschah	-6331
▁various	-6332
▁getroffen	-6333
7,	-6334
aust	-6335
osen	-6336
▁Nor	-6337
▁dau	-6338
▁grü	-6339
▁jump	-6340
ätzlich	-6341
▁Finger	-6342
▁income	-6343
▁Western	-6344
▁Californ	-6345
▁teaching	-6346
▁herstellen	-6347
iell	-6348
▁fac	-6349
▁Fakt	-6350
atives	-6351
passen	-6352
▁types	-6353
▁babies	-6354
▁bodies	-6355
▁dritte	-6356
▁improv	-6357
▁services	-6358
▁Organisation	-6359
ostet	-6360
▁zero	-6361
frikan	-6362
▁ahead	-6363
▁encou	-6364
▁final	-6365
▁strug	-6366
▁worry	-6367
▁Lernen	-6368
▁gewiss	-6369
▁wealth	-6370
▁Imagine	-6371
▁doctors	-6372
▁Pakistan	-6373
▁verrückt	-6374
imensional	-6375
▁öffentlichen	-6376
8,	-6377
osc	-6378
▁Ru	-6379
aste	-6380
ffic	-6381
▁Dan	-6382
▁Fen	-6383
▁Two	-6384
▁jud	-6385
essor	-6386
ossen	-6387
platz	-6388
uchst	-6389
▁Amaz	-6390
▁Cong	-6391
▁Hirn	-6392
▁blog	-6393
▁früh	-6394
▁rule	-6395
▁George	-6396
▁ebenso	-6397
▁secret	-6398
▁meeting	-6399
▁mehrere	-6400
▁Zeitpunkt	-6401
War	-6402
kam	-6403
urm	-6404
hnen	-6405
▁Ton	-6406
▁hart	-6407
ending	-6408
▁legal	-6409
▁Ereign	-6410
▁Klimaw	-6411
▁celebr	-6412
▁erwarten	-6413
▁following	-6414
▁Behandlung	-6415
▁grundlegen	-6416
ikt	-6417
mon	-6418
▁GP	-6419
▁km	-6420
alle	-6421
▁Bis	-6422
▁Eth	-6423
▁Jul	-6424
redit	-6425
▁Grad	-6426
▁Miss	-6427
▁Norm	-6428
▁uses	-6429
eitens	-6430
▁Instr	-6431
▁Tisch	-6432
schiede	-6433
▁career	-6434
▁levels	-6435
▁method	-6436
▁remind	-6437
▁values	-6438
▁Charles	-6439
▁genetic	-6440
▁bestehen	-6441
▁entweder	-6442
▁instance	-6443
▁effective	-6444
▁Kol	-6445
▁fil	-6446
▁ran	-6447
▁win	-6448
phone	-6449
▁Stunde	-6450
▁flying	-6451
▁useful	-6452
ervation	-6453
▁Einkommen	-6454
amt	-6455
ray	-6456
brit	-6457
itiv	-6458
▁web	-6459
alley	-6460
▁Denk	-6461
▁Schn	-6462
▁telev	-6463
reprene	-6464
▁decide	-6465
gefunden	-6466
▁Nigeria	-6467
▁Lösungen	-6468
▁dasselbe	-6469
▁schicken	-6470
▁verkaufen	-6471
ellschaften	-6472
▁Beziehungen	-6473
▁&	-6474
uzz	-6475
▁Mär	-6476
round	-6477
▁tiss	-6478
▁decade	-6479
▁explor	-6480
▁install	-6481
▁spricht	-6482
▁Manchmal	-6483
▁citizens	-6484
▁humanity	-6485
▁immediately	-6486
kur	-6487
alog	-6488
▁cru	-6489
▁inj	-6490
▁ord	-6491
anced	-6492
masch	-6493
▁Quad	-6494
▁Your	-6495
▁laut	-6496
▁Schle	-6497
▁apply	-6498
▁desto	-6499
▁relev	-6500
gebracht	-6501
▁Komplex	-6502
▁describ	-6503
▁Anderson	-6504
▁erinnere	-6505
▁heutigen	-6506
▁California	-6507
▁Verständnis	-6508
▁.	-6509
ael	-6510
apes	-6511
iens	-6512
▁Sub	-6513
angel	-6514
dings	-6515
ients	-6516
▁laws	-6517
achtet	-6518
▁Think	-6519
▁Wesen	-6520
▁aufzu	-6521
ulieren	-6522
▁Kamera	-6523
▁Punkte	-6524
▁nahmen	-6525
▁although	-6526
▁bedeuten	-6527
▁erfunden	-6528
▁ebenfalls	-6529
▁remarkable	-6530
▁Jahrhunderts	-6531
2.	-6532
ürf	-6533
▁Co	-6534
esth	-6535
nehm	-6536
▁Big	-6537
ypoth	-6538
▁Text	-6539
▁fällt	-6540
▁radio	-6541
▁raise	-6542
▁trade	-6543
▁Teilen	-6544
▁ehrlich	-6545
▁infrast	-6546
▁popular	-6547
▁wunderv	-6548
▁Vorstell	-6549
▁Schönheit	-6550
▁governments	-6551
▁Veränderungen	-6552
abe	-6553
zul	-6554
▁Sl	-6555
ript	-6556
webe	-6557
▁Sil	-6558
▁NASA	-6559
▁Wohn	-6560
amente	-6561
ildern	-6562
▁Jedes	-6563
▁concl	-6564
▁match	-6565
▁slide	-6566
▁Zeiten	-6567
▁behaup	-6568
▁elektr	-6569
▁expand	-6570
▁Gehirns	-6571
▁Individ	-6572
▁electron	-6573
▁Erfahrungen	-6574
▁Institution	-6575
▁Bo	-6576
cies	-6577
▁Neu	-6578
▁deb	-6579
▁iPh	-6580
▁Sold	-6581
▁Vier	-6582
▁Wege	-6583
anning	-6584
▁fühlte	-6585
▁saving	-6586
chnologie	-6587
▁condition	-6588
1,	-6589
esis	-6590
endes	-6591
▁Band	-6592
▁Angel	-6593
▁guter	-6594
▁Finanz	-6595
▁Worten	-6596
▁forget	-6597
▁supply	-6598
▁voraus	-6599
▁gedacht	-6600
▁possibly	-6601
▁terrible	-6602
▁einfachen	-6603
▁connection	-6604
vey	-6605
öse	-6606
ancy	-6607
iant	-6608
iete	-6609
▁Pil	-6610
▁unf	-6611
aptop	-6612
iated	-6613
▁Life	-6614
▁fuel	-6615
▁isol	-6616
▁gutes	-6617
sichtig	-6618
▁Westen	-6619
▁Eigenschaften	-6620
hem	-6621
otel	-6622
▁End	-6623
▁Kir	-6624
▁Mut	-6625
stück	-6626
wärts	-6627
▁gift	-6628
▁jene	-6629
▁uner	-6630
▁aware	-6631
ssystem	-6632
▁commit	-6633
▁honest	-6634
▁selten	-6635
▁senten	-6636
▁trouble	-6637
▁jemandem	-6638
▁politics	-6639
▁engineering	-6640
▁durchschnitt	-6641
uhl	-6642
anne	-6643
▁Arg	-6644
▁bud	-6645
ustom	-6646
▁Drit	-6647
▁Prot	-6648
▁foss	-6649
▁hair	-6650
▁hole	-6651
▁Unser	-6652
▁liber	-6653
▁triff	-6654
inosaur	-6655
▁wenige	-6656
▁Position	-6657
▁slightly	-6658
▁Francisco	-6659
▁Gefängnis	-6660
frastruktur	-6661
▁television	-6662
▁unglaubliche	-6663
RI	-6664
ih	-6665
rt	-6666
ibr	-6667
irur	-6668
▁sad	-6669
gency	-6670
stütz	-6671
ufact	-6672
▁Auge	-6673
▁drop	-6674
selben	-6675
▁Liste	-6676
▁agric	-6677
▁unver	-6678
▁Ärzte	-6679
▁accept	-6680
▁summer	-6681
▁decades	-6682
▁erleben	-6683
▁original	-6684
▁understood	-6685
▁üb	-6686
ulen	-6687
▁imm	-6688
▁wün	-6689
▁Öff	-6690
▁Junge	-6691
▁dauer	-6692
▁erfor	-6693
▁Polize	-6694
▁mobile	-6695
▁directly	-6696
MS	-6697
aker	-6698
reib	-6699
wise	-6700
arter	-6701
bewer	-6702
holen	-6703
▁Mitt	-6704
▁Wass	-6705
▁hall	-6706
▁Haben	-6707
▁metap	-6708
▁south	-6709
▁Ahnung	-6710
▁fangen	-6711
▁sobald	-6712
▁atmosph	-6713
▁cultural	-6714
▁financial	-6715
▁vergleich	-6716
▁neighborhood	-6717
How	-6718
val	-6719
aign	-6720
ikas	-6721
lapp	-6722
räge	-6723
▁Sam	-6724
▁hom	-6725
Warum	-6726
▁Gang	-6727
▁YouT	-6728
▁mitt	-6729
▁Ident	-6730
▁assoc	-6731
geführt	-6732
▁Farben	-6733
▁dramat	-6734
▁states	-6735
▁struct	-6736
▁vorbei	-6737
▁survive	-6738
▁Nahrungs	-6739
▁Produkte	-6740
▁capacity	-6741
▁societies	-6742
▁überleben	-6743
▁industrial	-6744
ammt	-6745
▁Bib	-6746
▁Mat	-6747
▁Mir	-6748
▁dür	-6749
sehen	-6750
▁male	-6751
▁Plast	-6752
britann	-6753
▁destro	-6754
▁forces	-6755
▁lernte	-6756
▁temperature	-6757
Er	-6758
ärm	-6759
▁99	-6760
erin	-6761
▁Sal	-6762
▁mid	-6763
essed	-6764
ringt	-6765
▁Glob	-6766
▁Kurz	-6767
▁Körp	-6768
▁base	-6769
▁paid	-6770
▁James	-6771
▁komme	-6772
▁Freude	-6773
▁Schutz	-6774
▁commer	-6775
▁frühen	-6776
▁shared	-6777
▁target	-6778
▁Erkennt	-6779
▁YouTube	-6780
▁eigenes	-6781
▁enormous	-6782
▁Industrie	-6783
▁Schlüssel	-6784
▁Verfügung	-6785
▁behandeln	-6786
▁schlechte	-6787
▁wunderbar	-6788
▁konzentrieren	-6789
It	-6790
maß	-6791
pack	-6792
▁Hom	-6793
▁fro	-6794
omant	-6795
▁Great	-6796
▁Steve	-6797
▁hinzu	-6798
▁anyway	-6799
▁helped	-6800
▁Schrift	-6801
▁prevent	-6802
▁angefangen	-6803
vit	-6804
▁bat	-6805
folge	-6806
frika	-6807
icles	-6808
odell	-6809
▁From	-6810
▁Many	-6811
▁dank	-6812
▁lust	-6813
▁vict	-6814
▁Abend	-6815
▁Physik	-6816
▁artist	-6817
▁seines	-6818
▁trifft	-6819
▁unique	-6820
▁öffnen	-6821
minister	-6822
▁kulture	-6823
▁diseases	-6824
▁transpar	-6825
▁Antworten	-6826
▁Intelligen	-6827
▁außergewöhn	-6828
Te	-6829
hi	-6830
ino	-6831
▁Zuh	-6832
ilien	-6833
örung	-6834
▁gebe	-6835
▁Gehir	-6836
▁Werte	-6837
▁chair	-6838
▁manip	-6839
▁Sommer	-6840
▁Spitze	-6841
▁mostly	-6842
▁surgery	-6843
▁tremend	-6844
ternehmer	-6845
▁Biologie	-6846
▁gegangen	-6847
▁größeren	-6848
▁unabhäng	-6849
▁creativity	-6850
▁verbringen	-6851
▁Materialien	-6852
▁Go	-6853
ding	-6854
tech	-6855
üsse	-6856
▁Bein	-6857
▁Post	-6858
▁Again	-6859
▁Bäume	-6860
▁whose	-6861
▁Amazon	-6862
▁Manche	-6863
▁Schiff	-6864
▁Street	-6865
▁Tieren	-6866
▁Videos	-6867
▁closer	-6868
▁oxygen	-6869
ographic	-6870
▁Statist	-6871
▁answers	-6872
▁central	-6873
▁globale	-6874
▁Projekte	-6875
▁negative	-6876
▁published	-6877
▁challenges	-6878
20	-6879
tr	-6880
elf	-6881
lav	-6882
iest	-6883
itär	-6884
izes	-6885
▁Dis	-6886
▁Dre	-6887
▁Tex	-6888
▁vul	-6889
eting	-6890
ichts	-6891
▁Mill	-6892
▁boys	-6893
▁krie	-6894
▁worst	-6895
▁zeich	-6896
itionen	-6897
▁Region	-6898
▁Schwar	-6899
▁Waffen	-6900
▁double	-6901
▁effekt	-6902
▁intens	-6903
▁spreche	-6904
▁Freunden	-6905
▁controll	-6906
▁networks	-6907
▁Sauerstoff	-6908
▁colleagues	-6909
▁entreprene	-6910
▁Leidenschaft	-6911
▁Verantwortung	-6912
lös	-6913
▁ve	-6914
ners	-6915
oßen	-6916
weil	-6917
▁Tom	-6918
▁aid	-6919
fühle	-6920
▁heav	-6921
▁hört	-6922
▁tens	-6923
treten	-6924
▁Kreis	-6925
▁below	-6926
▁entsp	-6927
▁funny	-6928
isierte	-6929
▁Erstens	-6930
▁Fenster	-6931
▁explore	-6932
▁purpose	-6933
▁existiert	-6934
▁aufgenommen	-6935
▁organizations	-6936
"-	-6937
nam	-6938
spe	-6939
▁ök	-6940
such	-6941
uing	-6942
verb	-6943
▁Tor	-6944
▁fat	-6945
▁hus	-6946
light	-6947
unsch	-6948
▁Arme	-6949
▁Nähe	-6950
▁absch	-6951
▁echte	-6952
haltung	-6953
▁Bedürf	-6954
▁invent	-6955
▁played	-6956
▁streng	-6957
▁Zustand	-6958
▁effects	-6959
▁erzeugt	-6960
▁noticed	-6961
▁ursprün	-6962
▁algorith	-6963
▁begonnen	-6964
▁kontrollieren	-6965
▁infrastructure	-6966
gas	-6967
ims	-6968
pre	-6969
▁Hig	-6970
▁Alex	-6971
▁Kore	-6972
ochter	-6973
▁Zelle	-6974
▁print	-6975
▁Dienst	-6976
▁Muslim	-6977
▁beantw	-6978
▁causes	-6979
▁corner	-6980
▁einsch	-6981
▁Männern	-6982
▁mountain	-6983
▁profound	-6984
▁speaking	-6985
▁herzustellen	-6986
erc	-6987
▁23	-6988
▁Mö	-6989
affe	-6990
uber	-6991
▁194	-6992
▁Bru	-6993
▁Get	-6994
▁zug	-6995
aling	-6996
ergie	-6997
fraid	-6998
äumen	-6999
▁erhö	-7000
▁heat	-7001
▁loss	-7002
▁smell	-7003
▁brilli	-7004
▁Ausdruck	-7005
▁produced	-7006
▁Gelegenheit	-7007
▁Infrastruktur	-7008
▁75	-7009
deut	-7010
inct	-7011
term	-7012
▁Etw	-7013
▁bio	-7014
▁mix	-7015
ündet	-7016
▁sick	-7017
▁tele	-7018
eitern	-7019
▁Insel	-7020
▁offic	-7021
▁häufig	-7022
▁wählen	-7023
▁Michael	-7024
▁Schluss	-7025
▁entlang	-7026
▁Designer	-7027
▁nachhalt	-7028
▁consequen	-7029
▁geschafft	-7030
▁philosoph	-7031
▁Unterstütz	-7032
▁atmosphere	-7033
▁profession	-7034
▁Großbritann	-7035
▁Kreativität	-7036
▁erstaunlich	-7037
▁experiments	-7038
pft	-7039
urb	-7040
▁Jobs	-7041
▁plat	-7042
orgung	-7043
▁Titel	-7044
▁frame	-7045
▁shoot	-7046
▁twice	-7047
▁Herzen	-7048
▁active	-7049
▁afraid	-7050
▁chines	-7051
▁frustr	-7052
▁iPhone	-7053
▁Journal	-7054
▁größere	-7055
▁workers	-7056
▁Führungs	-7057
▁Interess	-7058
▁pressure	-7059
▁programs	-7060
▁Werkzeuge	-7061
▁Überleben	-7062
bet	-7063
bin	-7064
rag	-7065
zil	-7066
▁ko	-7067
mung	-7068
stes	-7069
▁Mos	-7070
stadt	-7071
▁Chic	-7072
orthin	-7073
▁Osten	-7074
▁Schwe	-7075
▁birds	-7076
▁dance	-7077
ichtbar	-7078
▁akzept	-7079
▁speech	-7080
mosphäre	-7081
▁evolved	-7082
▁genutzt	-7083
▁journal	-7084
▁notwend	-7085
▁surround	-7086
▁entstehen	-7087
▁institution	-7088
do	-7089
ogel	-7090
▁His	-7091
▁Pop	-7092
▁Rep	-7093
▁Wid	-7094
raten	-7095
rench	-7096
▁coff	-7097
▁ließ	-7098
▁Colle	-7099
ception	-7100
▁10,000	-7101
▁Nehmen	-7102
▁applic	-7103
ognitive	-7104
▁degrees	-7105
▁manufact	-7106
▁riesigen	-7107
Be	-7108
dy	-7109
col	-7110
orb	-7111
▁2.	-7112
▁Bon	-7113
▁Ext	-7114
▁tax	-7115
▁Stan	-7116
▁fehl	-7117
▁koll	-7118
▁viol	-7119
etzten	-7120
▁parad	-7121
ktionen	-7122
▁bought	-7123
▁highly	-7124
▁Tochter	-7125
▁dorthin	-7126
▁schlimm	-7127
▁brauchte	-7128
▁relationships	-7129
gin	-7130
odes	-7131
▁600	-7132
artig	-7133
azine	-7134
mente	-7135
rical	-7136
utsch	-7137
▁Blog	-7138
▁Lang	-7139
▁Wett	-7140
▁lack	-7141
▁poet	-7142
fassen	-7143
▁dying	-7144
▁indep	-7145
▁schaut	-7146
▁markets	-7147
▁streets	-7148
▁Karriere	-7149
ida	-7150
rot	-7151
aced	-7152
▁kor	-7153
▁sou	-7154
▁tri	-7155
anging	-7156
blemen	-7157
imente	-7158
schutz	-7159
▁synth	-7160
▁Thanks	-7161
▁resist	-7162
▁Gefühle	-7163
▁stopped	-7164
▁erlauben	-7165
abt	-7166
ete	-7167
▁Hum	-7168
▁äuß	-7169
▁gilt	-7170
▁Suche	-7171
▁Wikip	-7172
▁nehme	-7173
▁oppos	-7174
▁Center	-7175
▁Meeres	-7176
▁Norden	-7177
▁custom	-7178
▁langen	-7179
▁myster	-7180
▁Knochen	-7181
▁Materie	-7182
▁kämpfen	-7183
▁campaign	-7184
▁Medikamente	-7185
▁communicate	-7186
▁differences	-7187
▁ermöglichen	-7188
Why	-7189
üben	-7190
onent	-7191
▁Dort	-7192
▁Holz	-7193
▁Loch	-7194
▁ausz	-7195
▁fühlt	-7196
▁kenne	-7197
▁rough	-7198
▁shock	-7199
▁sogen	-7200
istisch	-7201
▁Brazil	-7202
▁bemerk	-7203
▁flight	-7204
zeichnen	-7205
▁Chicago	-7206
▁Instead	-7207
▁choices	-7208
▁seltsam	-7209
▁einfacher	-7210
▁complexity	-7211
▁verantwort	-7212
now	-7213
tes	-7214
▁od	-7215
eden	-7216
▁Con	-7217
ampag	-7218
entle	-7219
oston	-7220
▁King	-7221
▁bomb	-7222
▁erne	-7223
▁nütz	-7224
▁wire	-7225
ennung	-7226
schuld	-7227
▁gross	-7228
▁Ansatz	-7229
▁Atlant	-7230
▁eating	-7231
▁switch	-7232
▁vertra	-7233
ollywood	-7234
▁Klassen	-7235
▁endlich	-7236
▁improve	-7237
▁Phänomen	-7238
▁Vielfalt	-7239
▁studying	-7240
▁produziert	-7241
▁beeinflusst	-7242
▁differently	-7243
üst	-7244
ason	-7245
leun	-7246
wohn	-7247
▁Frü	-7248
▁GPS	-7249
bruch	-7250
heben	-7251
markt	-7252
mögen	-7253
▁Hund	-7254
▁Iraq	-7255
▁bees	-7256
▁hielt	-7257
▁Nerven	-7258
▁Wunder	-7259
▁genome	-7260
▁reduce	-7261
▁satell	-7262
▁achieve	-7263
▁creates	-7264
▁handeln	-7265
▁Neuronen	-7266
geschichte	-7267
▁diversity	-7268
▁psycholog	-7269
▁Temperatur	-7270
▁biological	-7271
▁conference	-7272
▁surprising	-7273
▁Geschwindigkeit	-7274
Ver	-7275
größ	-7276
ähle	-7277
alien	-7278
▁Eins	-7279
gebaut	-7280
▁Typen	-7281
▁fühle	-7282
▁legen	-7283
▁Klasse	-7284
▁gather	-7285
▁lights	-7286
▁seemed	-7287
▁weiterhin	-7288
▁Komplexität	-7289
▁experiences	-7290
▁sustainable	-7291
▁wichtigsten	-7292
4,	-7293
Un	-7294
uum	-7295
load	-7296
ließt	-7297
▁Glas	-7298
▁abge	-7299
▁kürz	-7300
lieben	-7301
▁photo	-7302
▁female	-7303
▁magnet	-7304
▁window	-7305
▁afrikan	-7306
▁element	-7307
▁helping	-7308
▁bringing	-7309
▁molecules	-7310
▁reagieren	-7311
▁significant	-7312
▁Durchschnitt	-7313
▁communication	-7314
Wenn	-7315
thal	-7316
uert	-7317
▁Pan	-7318
▁Sun	-7319
▁Wal	-7320
▁bub	-7321
▁nöt	-7322
istry	-7323
▁Anst	-7324
▁flex	-7325
▁habt	-7326
▁krit	-7327
imeter	-7328
▁Todes	-7329
▁basis	-7330
▁könnt	-7331
▁Middle	-7332
▁breast	-7333
▁ändert	-7334
▁devices	-7335
▁missing	-7336
▁entsteht	-7337
▁Wikipedia	-7338
▁entschied	-7339
▁landscape	-7340
▁beeinflussen	-7341
▁consciousness	-7342
na	-7343
▁2,	-7344
▁Ah	-7345
bank	-7346
berg	-7347
mmer	-7348
rect	-7349
stag	-7350
▁dom	-7351
▁pig	-7352
▁frag	-7353
▁gele	-7354
▁gene	-7355
▁Beruf	-7356
▁Micro	-7357
▁Boston	-7358
▁Erzähl	-7359
▁Result	-7360
▁broken	-7361
ierenden	-7362
▁Unterschiede	-7363
▁Verbindungen	-7364
▁Zusammenhang	-7365
arr	-7366
ico	-7367
▁Kä	-7368
cell	-7369
glie	-7370
used	-7371
▁Kop	-7372
fälle	-7373
olden	-7374
setzt	-7375
▁prep	-7376
▁1,000	-7377
▁Paris	-7378
▁trick	-7379
ungspro	-7380
▁Massen	-7381
▁Robert	-7382
▁easily	-7383
▁kostet	-7384
▁Begriff	-7385
▁Version	-7386
industrie	-7387
▁spending	-7388
▁stellten	-7389
▁Botschaft	-7390
▁Fortschritt	-7391
▁Entwicklungsl	-7392
oom	-7393
Okay	-7394
chem	-7395
lder	-7396
▁Lat	-7397
▁tom	-7398
ekten	-7399
▁Ganz	-7400
▁Kein	-7401
▁Mach	-7402
▁Mart	-7403
▁More	-7404
▁Over	-7405
▁Virus	-7406
▁seien	-7407
▁cooper	-7408
▁gotten	-7409
▁spaces	-7410
▁symmet	-7411
▁Ameisen	-7412
▁Werkzeug	-7413
▁verkauft	-7414
erspektive	-7415
▁Geschäfts	-7416
dimensional	-7417
▁Kommunikation	-7418
Le	-7419
det	-7420
▁eg	-7421
▁ut	-7422
olds	-7423
▁20.	-7424
▁Air	-7425
▁Jan	-7426
▁Les	-7427
▁Pre	-7428
▁Wol	-7429
akten	-7430
haben	-7431
quenz	-7432
▁gros	-7433
▁teen	-7434
istenz	-7435
izität	-7436
riffen	-7437
▁Opfer	-7438
▁agree	-7439
▁analy	-7440
▁bread	-7441
▁fully	-7442
▁initi	-7443
führung	-7444
▁Risiko	-7445
▁Fernseh	-7446
▁artists	-7447
▁daughter	-7448
▁Präsident	-7449
▁scientist	-7450
▁background	-7451
▁commercial	-7452
▁Gesellschaften	-7453
cel	-7454
▁["	-7455
igur	-7456
▁Las	-7457
▁sal	-7458
icket	-7459
water	-7460
▁Trad	-7461
▁rede	-7462
▁vast	-7463
aining	-7464
▁motor	-7465
▁Karten	-7466
▁Kohlen	-7467
▁batter	-7468
▁begeist	-7469
▁hearing	-7470
▁gewonnen	-7471
▁veränder	-7472
▁bemerkens	-7473
▁ecosystem	-7474
▁tremendous	-7475
▁politischen	-7476
▁opportunities	-7477
wahr	-7478
▁Jede	-7479
▁Müll	-7480
▁aufw	-7481
▁none	-7482
▁race	-7483
ording	-7484
umente	-7485
▁Green	-7486
▁assum	-7487
▁auszu	-7488
mutlich	-7489
stronom	-7490
▁passed	-7491
▁presen	-7492
▁therap	-7493
▁vulner	-7494
ulations	-7495
▁College	-7496
▁members	-7497
▁strength	-7498
▁designers	-7499
▁interpret	-7500
▁politische	-7501
▁Wirtschafts	-7502
dr	-7503
▁,	-7504
ays	-7505
▁Kö	-7506
urop	-7507
▁saß	-7508
frage	-7509
hilfe	-7510
laden	-7511
pping	-7512
▁Good	-7513
▁disk	-7514
brauch	-7515
wohner	-7516
▁Higgs	-7517
▁visit	-7518
auschen	-7519
▁erhält	-7520
▁Kapital	-7521
▁Zentrum	-7522
▁ancient	-7523
▁farmers	-7524
▁letztes	-7525
▁efficient	-7526
▁Ökosystem	-7527
▁responsibility	-7528
angt	-7529
ober	-7530
▁Pot	-7531
▁Zur	-7532
▁fle	-7533
▁ren	-7534
▁saf	-7535
etwas	-7536
▁Satz	-7537
führer	-7538
▁feels	-7539
brechen	-7540
▁Altern	-7541
▁Schlag	-7542
▁origin	-7543
▁verfüg	-7544
▁Einsatz	-7545
▁focused	-7546
▁religion	-7547
▁Kilometer	-7548
▁verbreitet	-7549
▁Zusammenarbeit	-7550
1.	-7551
500	-7552
Sie	-7553
izen	-7554
rupt	-7555
ührt	-7556
▁jün	-7557
▁san	-7558
impan	-7559
mmern	-7560
right	-7561
▁Feld	-7562
▁darf	-7563
▁rare	-7564
artige	-7565
stände	-7566
▁rapid	-7567
bedingt	-7568
ivalent	-7569
klärung	-7570
▁bedeut	-7571
▁buchst	-7572
ationale	-7573
▁Plastik	-7574
▁dagegen	-7575
▁forever	-7576
▁Aufgaben	-7577
▁behandelt	-7578
▁Atmosphäre	-7579
▁Unterstützung	-7580
die	-7581
pfl	-7582
emen	-7583
kung	-7584
▁wis	-7585
ratic	-7586
rauch	-7587
▁Golf	-7588
▁Proz	-7589
▁Tanz	-7590
▁hing	-7591
▁ship	-7592
▁vari	-7593
estens	-7594
gramme	-7595
▁Zusch	-7596
▁davor	-7597
▁engage	-7598
▁ganzes	-7599
isierten	-7600
▁Kontakt	-7601
▁Sekunde	-7602
▁Städten	-7603
▁Insekten	-7604
▁Fernsehen	-7605
▁verursacht	-7606
▁übertragen	-7607
omas	-7608
▁Gar	-7609
frist	-7610
▁Fein	-7611
▁hero	-7612
▁stim	-7613
uments	-7614
▁enter	-7615
▁pleas	-7616
ography	-7617
▁Kunden	-7618
▁klingt	-7619
▁verein	-7620
▁yellow	-7621
▁Niemand	-7622
▁extreme	-7623
▁Qualität	-7624
▁Schimpan	-7625
▁betrifft	-7626
▁metaphor	-7627
▁weiteres	-7628
▁Professor	-7629
▁erstellen	-7630
▁Universums	-7631
▁Großbritannien	-7632
tle	-7633
eler	-7634
ieso	-7635
teln	-7636
schte	-7637
▁Eind	-7638
others	-7639
▁gaben	-7640
▁spiel	-7641
mission	-7642
▁knowing	-7643
▁mission	-7644
▁perfekt	-7645
▁recover	-7646
▁schafft	-7647
▁benötigen	-7648
▁Intelligenz	-7649
hre	-7650
urf	-7651
zif	-7652
▁27	-7653
▁sü	-7654
▁Spr	-7655
▁Stär	-7656
▁eure	-7657
▁fash	-7658
▁schm	-7659
formen	-7660
izient	-7661
▁Babys	-7662
▁Schla	-7663
▁cheap	-7664
▁dahin	-7665
zeichen	-7666
zubauen	-7667
▁Sterne	-7668
▁desert	-7669
▁fairly	-7670
▁gentle	-7671
▁sexual	-7672
zwischen	-7673
▁Diskuss	-7674
▁Schwier	-7675
▁Spielen	-7676
▁Soldaten	-7677
▁dieselbe	-7678
▁überzeugt	-7679
▁Hintergrund	-7680
▁beschreiben	-7681
▁imagination	-7682
za	-7683
edy	-7684
kop	-7685
opt	-7686
▁CE	-7687
inde	-7688
▁250	-7689
▁Jer	-7690
andid	-7691
krebs	-7692
print	-7693
ugier	-7694
▁Abst	-7695
▁bloß	-7696
▁join	-7697
▁mort	-7698
▁zent	-7699
person	-7700
usagen	-7701
otograf	-7702
▁Online	-7703
▁Rücken	-7704
▁bitten	-7705
▁leiden	-7706
▁Actually	-7707
▁addition	-7708
▁opposite	-7709
▁investieren	-7710
▁possibility	-7711
An	-7712
co	-7713
ias	-7714
▁ep	-7715
king	-7716
obel	-7717
orgt	-7718
rian	-7719
stud	-7720
antas	-7721
based	-7722
▁Seit	-7723
▁Szen	-7724
antage	-7725
▁Vogel	-7726
▁adapt	-7727
▁digit	-7728
▁sitzt	-7729
▁sowie	-7730
▁weird	-7731
▁wirst	-7732
zusehen	-7733
änglich	-7734
▁Spiele	-7735
▁Wunsch	-7736
▁aspect	-7737
▁signal	-7738
▁British	-7739
▁failure	-7740
▁moments	-7741
▁sharing	-7742
▁Religion	-7743
▁inspired	-7744
▁wiederum	-7745
ungssystem	-7746
▁unbedingt	-7747
▁wunderschön	-7748
▁Landwirtschaft	-7749
▁herausgefunden	-7750
Sh	-7751
bu	-7752
len	-7753
ota	-7754
lymp	-7755
pted	-7756
uden	-7757
ügel	-7758
▁hau	-7759
house	-7760
krieg	-7761
usive	-7762
▁lucky	-7763
▁mouth	-7764
▁Fällen	-7765
▁Valley	-7766
▁coffee	-7767
entlicht	-7768
istische	-7769
▁Objekte	-7770
▁rechten	-7771
▁außerdem	-7772
▁identity	-7773
▁Lieblings	-7774
▁Untersuch	-7775
▁particles	-7776
▁religious	-7777
▁erforschen	-7778
▁phenomenon	-7779
▁vollkommen	-7780
▁überzeugen	-7781
▁Bedingungen	-7782
▁Klimawandel	-7783
▁Organisationen	-7784
oe	-7785
ola	-7786
▁Vö	-7787
gypt	-7788
leid	-7789
spro	-7790
üren	-7791
▁amb	-7792
losen	-7793
▁Sche	-7794
▁erfü	-7795
▁host	-7796
▁note	-7797
▁Jugend	-7798
▁Wandel	-7799
▁demand	-7800
▁lautet	-7801
▁notion	-7802
▁erklärt	-7803
▁umgehen	-7804
▁accident	-7805
▁benötigt	-7806
▁Institute	-7807
▁creatures	-7808
▁sozusagen	-7809
anst	-7810
ears	-7811
reci	-7812
▁Cam	-7813
ungsf	-7814
ätsel	-7815
▁Fach	-7816
▁Gest	-7817
▁Verk	-7818
▁spot	-7819
erecht	-7820
▁avoid	-7821
▁Inform	-7822
▁drehen	-7823
▁nearly	-7824
▁selber	-7825
▁tissue	-7826
▁steigen	-7827
ification	-7828
▁Gemeinde	-7829
▁benefits	-7830
▁Konferenz	-7831
▁verdienen	-7832
▁Ausbildung	-7833
▁beschäftigt	-7834
▁competition	-7835
6,	-7836
8.	-7837
di	-7838
sa	-7839
itzt	-7840
wahl	-7841
▁Lab	-7842
▁Adam	-7843
▁Brot	-7844
▁anti	-7845
▁beis	-7846
▁jung	-7847
▁plus	-7848
▁repe	-7849
▁Klima	-7850
▁Obama	-7851
▁names	-7852
▁party	-7853
▁French	-7854
▁Sozial	-7855
▁leider	-7856
▁Angeles	-7857
▁Zeichen	-7858
▁alleine	-7859
▁buchstä	-7860
▁fashion	-7861
▁foreign	-7862
▁stecken	-7863
▁turning	-7864
▁zufällig	-7865
▁sicherlich	-7866
▁entwickelten	-7867
▁kommunizieren	-7868
▁veröffentlicht	-7869
aos	-7870
far	-7871
olo	-7872
▁ta	-7873
ippe	-7874
▁Pri	-7875
▁cry	-7876
▁daß	-7877
ocken	-7878
▁Asia	-7879
▁seed	-7880
fallen	-7881
▁Anges	-7882
▁Ghana	-7883
▁Masse	-7884
▁alter	-7885
▁simpl	-7886
▁sorry	-7887
▁erstes	-7888
▁Einfach	-7889
▁Modelle	-7890
▁describe	-7891
▁brilliant	-7892
2-	-7893
ruf	-7894
äbe	-7895
spra	-7896
stab	-7897
vity	-7898
▁gun	-7899
▁zuk	-7900
chnen	-7901
urcht	-7902
zelle	-7903
▁Heil	-7904
▁Last	-7905
▁core	-7906
▁recy	-7907
▁wood	-7908
▁Sport	-7909
▁Stoff	-7910
▁calls	-7911
▁disor	-7912
▁künst	-7913
▁proud	-7914
▁tolle	-7915
▁Kontin	-7916
▁charge	-7917
▁hinweg	-7918
▁erwartet	-7919
▁rational	-7920
▁Identität	-7921
▁leadership	-7922
▁Lebensmittel	-7923
60	-7924
Don	-7925
car	-7926
inc	-7927
van	-7928
angs	-7929
renz	-7930
yram	-7931
etter	-7932
halte	-7933
volle	-7934
▁Drei	-7935
▁Fest	-7936
▁Rede	-7937
▁Take	-7938
▁abzu	-7939
▁forg	-7940
▁Basis	-7941
▁Laden	-7942
▁coast	-7943
▁email	-7944
▁weiss	-7945
setzung	-7946
▁Mexico	-7947
▁Nutzen	-7948
▁corpor	-7949
▁remote	-7950
▁Kontext	-7951
▁abgesch	-7952
▁concent	-7953
▁despite	-7954
▁geführt	-7955
▁planets	-7956
▁virtual	-7957
▁Audience	-7958
▁bezahlen	-7959
▁deutlich	-7960
▁vermutlich	-7961
▁durchgeführt	-7962
igr	-7963
zweif	-7964
▁Fabr	-7965
▁Link	-7966
▁Pers	-7967
▁bird	-7968
▁iron	-7969
▁trag	-7970
▁Child	-7971
▁Haiti	-7972
▁Handy	-7973
▁Keine	-7974
▁Schne	-7975
▁Treib	-7976
▁condu	-7977
▁dreht	-7978
▁invis	-7979
▁krank	-7980
▁neuer	-7981
▁Satell	-7982
▁bridge	-7983
▁colors	-7984
▁events	-7985
▁haupts	-7986
▁physic	-7987
richtung	-7988
▁Science	-7989
▁ausgest	-7990
▁European	-7991
▁besitzen	-7992
▁eingesch	-7993
▁elements	-7994
▁partners	-7995
▁Charakter	-7996
▁Vertrauen	-7997
▁Bildschirm	-7998
▁importantly	-7999
xis	-8000
▁Ac	-8001
iner	-8002
spir	-8003
▁Bal	-8004
▁Fün	-8005
▁Mod	-8006
▁Sen	-8007
▁usw	-8008
itely	-8009
lecht	-8010
▁Graf	-8011
laufen	-8012
oppelt	-8013
rennen	-8014
ulated	-8015
ährung	-8016
▁Affen	-8017
▁noise	-8018
▁prior	-8019
▁wider	-8020
wechsel	-8021
▁Nichts	-8022
▁Themen	-8023
▁Vision	-8024
▁easier	-8025
▁meters	-8026
▁sector	-8027
▁werfen	-8028
▁husband	-8029
▁illegal	-8030
▁weapons	-8031
▁zukünft	-8032
que	-8033
▁Wü	-8034
fält	-8035
gern	-8036
iche	-8037
▁Mad	-8038
asche	-8039
ausch	-8040
icted	-8041
igend	-8042
▁Sehr	-8043
▁stem	-8044
▁Falls	-8045
▁broad	-8046
▁exerc	-8047
▁wohin	-8048
▁Änder	-8049
▁Thomas	-8050
▁infect	-8051
▁master	-8052
▁versus	-8053
▁Schmerz	-8054
▁anderem	-8055
▁figured	-8056
▁Großteil	-8057
▁distance	-8058
▁modernen	-8059
▁relevant	-8060
▁Milliarde	-8061
▁gestalten	-8062
▁repräsent	-8063
▁natürliche	-8064
▁necessarily	-8065
Du	-8066
▁Cr	-8067
pper	-8068
▁Hil	-8069
▁Lar	-8070
▁Log	-8071
▁Rem	-8072
▁Irak	-8073
▁held	-8074
▁hung	-8075
▁nutz	-8076
▁puzz	-8077
ession	-8078
ighten	-8079
▁Beine	-8080
▁Liter	-8081
▁attem	-8082
▁gebra	-8083
▁laugh	-8084
▁quote	-8085
▁stolz	-8086
▁tough	-8087
▁töten	-8088
▁Geräte	-8089
▁dollar	-8090
▁dreams	-8091
▁epidem	-8092
ifically	-8093
▁Polizei	-8094
▁brother	-8095
▁suffering	-8096
▁buchstäblich	-8097
PA	-8098
bi	-8099
iop	-8100
irk	-8101
ros	-8102
änn	-8103
▁AB	-8104
onds	-8105
▁Ach	-8106
▁Akt	-8107
▁Dra	-8108
eared	-8109
krank	-8110
ulous	-8111
▁läch	-8112
▁mill	-8113
zeiten	-8114
▁accur	-8115
▁bound	-8116
▁faith	-8117
▁giant	-8118
▁truck	-8119
▁ancest	-8120
▁entspr	-8121
▁gewöhn	-8122
▁photos	-8123
▁raised	-8124
▁Gewicht	-8125
▁balance	-8126
▁fragten	-8127
▁related	-8128
▁Korallen	-8129
▁Problemen	-8130
▁definition	-8131
path	-8132
▁ban	-8133
▁lat	-8134
etten	-8135
▁Ecke	-8136
▁fell	-8137
▁halb	-8138
wirken	-8139
▁Mobil	-8140
▁Staat	-8141
▁Stein	-8142
▁helps	-8143
▁ideal	-8144
▁indic	-8145
artment	-8146
astroph	-8147
▁Island	-8148
▁Sorgen	-8149
▁antwor	-8150
▁grandm	-8151
▁schöne	-8152
▁sculpt	-8153
▁Bildern	-8154
▁regular	-8155
forschung	-8156
▁Galaxien	-8157
▁gelangen	-8158
▁Sometimes	-8159
▁überrascht	-8160
ety	-8161
This	-8162
apse	-8163
cles	-8164
rale	-8165
▁Haw	-8166
▁dou	-8167
▁dur	-8168
bling	-8169
folgt	-8170
▁Jack	-8171
▁auth	-8172
▁boat	-8173
▁glam	-8174
▁port	-8175
öffnet	-8176
ördern	-8177
▁Jungs	-8178
▁Metap	-8179
▁Zeich	-8180
▁hängt	-8181
▁river	-8182
▁Bauern	-8183
▁opened	-8184
▁Gründen	-8185
▁appreci	-8186
▁contact	-8187
▁destroy	-8188
▁kümmern	-8189
▁leading	-8190
▁Kindheit	-8191
▁Leistung	-8192
▁billions	-8193
▁erinnert	-8194
▁nächstes	-8195
▁previous	-8196
▁tausende	-8197
▁intellect	-8198
▁verfolgen	-8199
▁alternative	-8200
▁interagieren	-8201
▁Institutionen	-8202
.'	-8203
ded	-8204
ees	-8205
▁DH	-8206
ifen	-8207
▁Ass	-8208
▁Bio	-8209
▁Bur	-8210
▁pun	-8211
izien	-8212
▁Inst	-8213
▁Sein	-8214
▁leid	-8215
schaff	-8216
▁grass	-8217
▁stuck	-8218
gewicht	-8219
▁aussch	-8220
▁religi	-8221
▁Drittel	-8222
▁Gesetze	-8223
▁However	-8224
▁holding	-8225
▁typical	-8226
istischen	-8227
▁Kaliforn	-8228
▁sequence	-8229
▁Gegenteil	-8230
▁gegenseit	-8231
▁necessary	-8232
▁structures	-8233
Der	-8234
cked	-8235
oret	-8236
soft	-8237
▁cro	-8238
agers	-8239
aters	-8240
inkel	-8241
▁Eing	-8242
▁mamm	-8243
▁compl	-8244
▁crash	-8245
▁fragt	-8246
▁halte	-8247
▁hohen	-8248
▁Konsum	-8249
▁brings	-8250
▁clever	-8251
▁contra	-8252
▁convin	-8253
▁dürfen	-8254
▁romant	-8255
▁sorgen	-8256
▁steckt	-8257
▁derzeit	-8258
▁falsche	-8259
▁succeed	-8260
▁Sprachen	-8261
▁Wahrnehm	-8262
▁Zweitens	-8263
▁entirely	-8264
▁ultimately	-8265
▁responsible	-8266
Ar	-8267
ipe	-8268
irt	-8269
▁BG	-8270
▁II	-8271
ehnt	-8272
iban	-8273
ötet	-8274
▁Bob	-8275
▁Did	-8276
▁joy	-8277
cting	-8278
werte	-8279
▁Very	-8280
▁band	-8281
▁edge	-8282
▁sinn	-8283
▁Herst	-8284
▁Statt	-8285
▁leads	-8286
▁mouse	-8287
▁offer	-8288
▁Global	-8289
▁Meilen	-8290
▁Rahmen	-8291
▁Zuerst	-8292
▁lieber	-8293
▁identif	-8294
▁document	-8295
▁platform	-8296
▁bestimmen	-8297
▁childhood	-8298
▁verbracht	-8299
▁Erinnerung	-8300
▁irgendwann	-8301
AR	-8302
bie	-8303
igm	-8304
▁Bef	-8305
▁Tur	-8306
▁mor	-8307
▁shr	-8308
idden	-8309
▁Bett	-8310
▁Emot	-8311
▁Kann	-8312
▁Lern	-8313
▁Lied	-8314
▁ausl	-8315
ancing	-8316
▁Apple	-8317
▁Genom	-8318
▁Mount	-8319
▁Solar	-8320
▁cloud	-8321
▁moves	-8322
▁newsp	-8323
gesehen	-8324
ometers	-8325
▁pounds	-8326
▁Verlust	-8327
▁correct	-8328
▁insects	-8329
▁leaving	-8330
▁require	-8331
▁shouldn	-8332
▁Forscher	-8333
▁weiteren	-8334
richtungen	-8335
▁entwerfen	-8336
▁schließen	-8337
▁verhindern	-8338
▁Kohlenstoff	-8339
▁professional	-8340
3,	-8341
ses	-8342
eper	-8343
osis	-8344
▁tit	-8345
beweg	-8346
chern	-8347
itete	-8348
idents	-8349
tended	-8350
▁Brenn	-8351
▁Stift	-8352
▁paint	-8353
▁beteil	-8354
▁deinen	-8355
▁gehabt	-8356
▁wächst	-8357
▁counter	-8358
▁kompliz	-8359
ibilities	-8360
▁believed	-8361
▁scheinen	-8362
▁Microsoft	-8363
▁allgemein	-8364
esentlichen	-8365
▁verwandeln	-8366
▁wunderbare	-8367
▁Öffentlich	-8368
▁mathematics	-8369
▁möglicherweise	-8370
aks	-8371
xim	-8372
prob	-8373
udes	-8374
▁Off	-8375
ffekt	-8376
▁Sing	-8377
▁lies	-8378
▁seat	-8379
▁Filme	-8380
▁Kapit	-8381
▁walls	-8382
▁wheel	-8383
atively	-8384
▁Gewebe	-8385
▁Händen	-8386
▁caught	-8387
▁closed	-8388
▁slowly	-8389
jährigen	-8390
▁Wichtig	-8391
▁gewisse	-8392
▁schwarz	-8393
▁studied	-8394
▁täglich	-8395
▁besseren	-8396
▁strategy	-8397
▁discovery	-8398
▁influence	-8399
▁operating	-8400
▁president	-8401
▁begeistert	-8402
▁university	-8403
wissenschaft	-8404
▁hauptsächlich	-8405
Nun	-8406
set	-8407
▁Ox	-8408
▁UN	-8409
enty	-8410
kton	-8411
▁Nan	-8412
▁ast	-8413
▁kit	-8414
asion	-8415
hafte	-8416
riage	-8417
▁Fund	-8418
▁ants	-8419
▁exch	-8420
▁roof	-8421
aschen	-8422
astrop	-8423
jekten	-8424
▁Motor	-8425
▁click	-8426
▁resol	-8427
▁Nation	-8428
▁benutz	-8429
▁testen	-8430
maschine	-8431
▁display	-8432
▁matters	-8433
▁trained	-8434
▁Konflikt	-8435
▁creation	-8436
▁fighting	-8437
▁prototyp	-8438
▁Aktivität	-8439
▁einsetzen	-8440
▁Strukturen	-8441
▁constantly	-8442
▁öffentlich	-8443
▁unfortunately	-8444
ppe	-8445
äst	-8446
aken	-8447
loss	-8448
ößen	-8449
▁Koh	-8450
▁Mem	-8451
▁tue	-8452
illed	-8453
▁1950	-8454
▁Boot	-8455
▁Frem	-8456
▁Maus	-8457
▁enth	-8458
ategie	-8459
▁Außen	-8460
▁Count	-8461
▁angew	-8462
▁embra	-8463
▁exhib	-8464
▁weder	-8465
▁budget	-8466
▁degree	-8467
▁narrat	-8468
▁parent	-8469
ausenden	-8470
illionen	-8471
▁Teilchen	-8472
▁emotions	-8473
▁separate	-8474
▁vorhanden	-8475
▁investment	-8476
▁vollständig	-8477
▁letztendlich	-8478
5.	-8479
▁Ug	-8480
gehe	-8481
oben	-8482
wegs	-8483
▁Aug	-8484
▁Tun	-8485
▁spl	-8486
adies	-8487
anner	-8488
apers	-8489
▁Bras	-8490
▁Once	-8491
neiden	-8492
nissen	-8493
▁Spekt	-8494
▁talks	-8495
ampagne	-8496
issions	-8497
▁glaubt	-8498
▁lesson	-8499
▁oceans	-8500
esterday	-8501
▁Fleisch	-8502
▁bemerkt	-8503
▁factory	-8504
▁Elektron	-8505
▁Experten	-8506
▁surprise	-8507
▁zunehmen	-8508
▁gefährlich	-8509
▁Schimpansen	-8510
▁irgendetwas	-8511
▁civilization	-8512
▁Öffentlichkeit	-8513
ua	-8514
ahe	-8515
pos	-8516
▁ru	-8517
Talk	-8518
▁Ehe	-8519
elesc	-8520
fahrt	-8521
offen	-8522
schlä	-8523
unken	-8524
▁Bush	-8525
▁Have	-8526
▁empt	-8527
▁hate	-8528
▁hohe	-8529
itiven	-8530
▁Ziele	-8531
▁climb	-8532
▁starb	-8533
jährige	-8534
ächtnis	-8535
▁Elektr	-8536
▁Gefahr	-8537
▁adults	-8538
▁deeply	-8539
▁failed	-8540
▁finanz	-8541
▁museum	-8542
▁stelle	-8543
▁General	-8544
▁acceler	-8545
▁getötet	-8546
blichkeit	-8547
▁Außerdem	-8548
▁Standard	-8549
▁Stanford	-8550
▁finished	-8551
▁galaxies	-8552
▁angesehen	-8553
▁concerned	-8554
▁organisms	-8555
▁depression	-8556
▁versuchten	-8557
▁wichtigste	-8558
▁fascinating	-8559
▁interessieren	-8560
icon	-8561
nden	-8562
oons	-8563
tert	-8564
▁Hal	-8565
▁Opt	-8566
▁Pra	-8567
▁Syn	-8568
▁ter	-8569
▁ton	-8570
allel	-8571
eline	-8572
ipped	-8573
orrow	-8574
▁Fünf	-8575
▁Span	-8576
▁Volk	-8577
▁moon	-8578
▁myth	-8579
▁soil	-8580
▁tour	-8581
atoren	-8582
▁Texas	-8583
▁begeg	-8584
▁setzt	-8585
istence	-8586
▁Heimat	-8587
▁finger	-8588
▁Verkehr	-8589
▁benefit	-8590
▁reprodu	-8591
▁station	-8592
▁traffic	-8593
zubringen	-8594
▁advantage	-8595
▁engineers	-8596
▁invisible	-8597
▁collective	-8598
▁mindestens	-8599
80	-8600
Os	-8601
bas	-8602
cil	-8603
öpf	-8604
oler	-8605
▁cla	-8606
▁pet	-8607
asten	-8608
pielt	-8609
▁pair	-8610
abetes	-8611
itness	-8612
werten	-8613
▁argue	-8614
▁frage	-8615
▁sport	-8616
▁Mütter	-8617
▁Republ	-8618
▁begins	-8619
▁bright	-8620
▁phones	-8621
▁Deutsch	-8622
▁Quadrat	-8623
▁capable	-8624
▁präsent	-8625
▁schönen	-8626
▁Verstand	-8627
▁praktisch	-8628
▁Landschaft	-8629
▁Verhaltens	-8630
▁arbeiteten	-8631
▁interaction	-8632
▁amerikanische	-8633
bahn	-8634
best	-8635
sinn	-8636
▁Fel	-8637
▁fab	-8638
▁kap	-8639
▁sac	-8640
ength	-8641
letzt	-8642
▁Diag	-8643
▁Janu	-8644
▁purs	-8645
iminal	-8646
mutter	-8647
▁Bitte	-8648
▁Olymp	-8649
hältnis	-8650
▁Irgend	-8651
▁Stress	-8652
▁Zimmer	-8653
▁attach	-8654
▁bieten	-8655
▁leader	-8656
▁letter	-8657
▁sister	-8658
▁Militär	-8659
▁Stimmen	-8660
▁einiger	-8661
▁managed	-8662
▁compared	-8663
▁Everybody	-8664
▁eingesetzt	-8665
▁Interaktion	-8666
▁verantwortlich	-8667
4.	-8668
ädt	-8669
gabe	-8670
iern	-8671
teid	-8672
unte	-8673
▁21.	-8674
▁Gas	-8675
▁row	-8676
craft	-8677
geber	-8678
lafen	-8679
▁Flor	-8680
▁bone	-8681
▁opin	-8682
schule	-8683
▁fresh	-8684
▁hyper	-8685
▁kennt	-8686
▁kurze	-8687
▁musst	-8688
▁Folgen	-8689
▁Haufen	-8690
▁detail	-8691
▁erster	-8692
verständ	-8693
▁Gedanke	-8694
▁Verletz	-8695
▁artific	-8696
▁erzähle	-8697
▁wenigen	-8698
▁fotograf	-8699
▁Wettbewer	-8700
pet	-8701
aked	-8702
ocks	-8703
olph	-8704
prom	-8705
ties	-8706
▁Ans	-8707
▁Ins	-8708
▁emb	-8709
▁era	-8710
▁pal	-8711
▁prä	-8712
▁tag	-8713
▁ält	-8714
aufte	-8715
ckten	-8716
plane	-8717
▁Code	-8718
▁whom	-8719
ipment	-8720
kehren	-8721
▁Kenya	-8722
▁brief	-8723
▁immun	-8724
▁klass	-8725
▁teuer	-8726
▁garden	-8727
▁reward	-8728
▁dritten	-8729
▁invited	-8730
▁married	-8731
▁vehicle	-8732
▁weather	-8733
▁gehalten	-8734
▁languages	-8735
▁perfectly	-8736
▁consumption	-8737
▁hoffentlich	-8738
▁öffentliche	-8739
▁unterscheiden	-8740
ka	-8741
▁Wä	-8742
ence	-8743
schm	-8744
▁Eig	-8745
▁Kal	-8746
▁cam	-8747
ippen	-8748
macht	-8749
ordin	-8750
▁Aust	-8751
▁Beob	-8752
▁Dunk	-8753
▁drag	-8754
▁herr	-8755
▁king	-8756
afrika	-8757
hrough	-8758
▁Defin	-8759
▁eleph	-8760
▁holen	-8761
▁circle	-8762
▁galaxy	-8763
▁nannte	-8764
▁wisdom	-8765
▁basiert	-8766
▁bekamen	-8767
▁empower	-8768
▁nochmal	-8769
▁majority	-8770
▁meistens	-8771
▁Schwester	-8772
▁described	-8773
▁otherwise	-8774
▁surprised	-8775
▁Forschungs	-8776
▁businesses	-8777
▁kompliziert	-8778
vin	-8779
aled	-8780
care	-8781
gans	-8782
prof	-8783
rast	-8784
▁spr	-8785
osion	-8786
uries	-8787
utzer	-8788
▁Mund	-8789
▁Star	-8790
▁meat	-8791
▁reve	-8792
immung	-8793
▁Innen	-8794
▁Nobel	-8795
▁Three	-8796
▁coral	-8797
▁quiet	-8798
▁surge	-8799
▁veget	-8800
▁Grenze	-8801
▁Häuser	-8802
▁dauert	-8803
▁paying	-8804
▁Spiegel	-8805
▁protein	-8806
▁wearing	-8807
▁Algorith	-8808
▁finanzie	-8809
▁followed	-8810
▁normalen	-8811
▁schlimmer	-8812
▁equivalent	-8813
▁Perspektive	-8814
▁agriculture	-8815
gro	-8816
pra	-8817
ühr	-8818
inkt	-8819
onym	-8820
sens	-8821
▁Rot	-8822
▁tal	-8823
place	-8824
▁Fehl	-8825
▁Hins	-8826
▁Jeff	-8827
▁Sind	-8828
▁Temp	-8829
▁wear	-8830
▁weib	-8831
▁cycle	-8832
▁grown	-8833
▁plane	-8834
bewesen	-8835
▁10.000	-8836
▁Uganda	-8837
▁exists	-8838
▁gesund	-8839
▁string	-8840
▁insight	-8841
▁mothers	-8842
▁schaute	-8843
▁Dinosaur	-8844
▁Eindruck	-8845
▁Nationen	-8846
▁aufhören	-8847
▁everyday	-8848
▁launched	-8849
▁molecule	-8850
▁classroom	-8851
▁entworfen	-8852
möglichkeit	-8853
▁Erkenntnis	-8854
▁Kalifornien	-8855
▁ju	-8856
aßen	-8857
keln	-8858
läss	-8859
▁Dad	-8860
▁Zer	-8861
▁rat	-8862
andem	-8863
esign	-8864
known	-8865
ologe	-8866
▁Each	-8867
▁Pfer	-8868
▁aufs	-8869
▁earn	-8870
▁fold	-8871
▁stup	-8872
bracht	-8873
▁Egypt	-8874
▁Radio	-8875
▁equal	-8876
▁lernt	-8877
▁traur	-8878
▁verme	-8879
▁Bruder	-8880
▁Fische	-8881
▁Minute	-8882
▁Obwohl	-8883
▁ließen	-8884
▁linken	-8885
▁unless	-8886
▁Gleiche	-8887
▁depress	-8888
▁Gespräch	-8889
▁mentioned	-8890
▁beantworten	-8891
▁hergestellt	-8892
asi	-8893
rol	-8894
ura	-8895
iors	-8896
▁Law	-8897
aming	-8898
leren	-8899
ängst	-8900
▁Dass	-8901
▁Orig	-8902
▁Vide	-8903
▁gold	-8904
▁horr	-8905
▁vacc	-8906
pected	-8907
uliert	-8908
▁Autor	-8909
▁Folge	-8910
▁Klang	-8911
▁Kleid	-8912
▁Laufe	-8913
▁grade	-8914
problem	-8915
▁Rätsel	-8916
▁ausgeb	-8917
▁incent	-8918
▁mitten	-8919
▁Gehirne	-8920
▁vorhers	-8921
▁hunderte	-8922
▁Folgendes	-8923
▁seriously	-8924
▁wesentlich	-8925
▁Experimente	-8926
▁unterschiedlich	-8927
uel	-8928
▁BF	-8929
icke	-8930
pher	-8931
▁Nar	-8932
▁Rat	-8933
▁due	-8934
scher	-8935
▁1990	-8936
▁Roll	-8937
▁gäbe	-8938
▁hasn	-8939
hängig	-8940
▁Beste	-8941
▁chann	-8942
▁limit	-8943
▁regel	-8944
▁round	-8945
▁wahre	-8946
▁Effekt	-8947
▁Mechan	-8948
▁dinner	-8949
▁lebens	-8950
▁lustig	-8951
ologists	-8952
▁drawing	-8953
▁highest	-8954
ungskraft	-8955
▁Moleküle	-8956
▁feedback	-8957
▁normally	-8958
▁Gegensatz	-8959
▁economics	-8960
▁equipment	-8961
▁entspricht	-8962
▁existieren	-8963
▁Unternehmer	-8964
▁vergleichen	-8965
▁interessanter	-8966
"]	-8967
oca	-8968
squ	-8969
tte	-8970
▁Fa	-8971
zing	-8972
▁195	-8973
▁Anw	-8974
▁Cal	-8975
▁Ham	-8976
▁Ill	-8977
▁Mac	-8978
▁zog	-8979
acher	-8980
ischt	-8981
▁Dere	-8982
▁Pass	-8983
▁Rock	-8984
▁beib	-8985
▁magn	-8986
gewalt	-8987
gruppe	-8988
ipping	-8989
urally	-8990
▁2,000	-8991
▁Ganze	-8992
▁lunch	-8993
▁nutzt	-8994
▁trägt	-8995
▁wieso	-8996
artigen	-8997
▁Toilet	-8998
▁aufgew	-8999
▁breath	-9000
▁diskut	-9001
▁erlebt	-9002
▁hoffen	-9003
▁Project	-9004
▁Vorteil	-9005
▁Zuhause	-9006
▁limited	-9007
▁reichen	-9008
▁tausend	-9009
▁multiple	-9010
▁planning	-9011
▁Politiker	-9012
▁continent	-9013
▁allerdings	-9014
▁principles	-9015
▁distribution	-9016
BI	-9017
ähn	-9018
▁'9	-9019
▁Ap	-9020
aped	-9021
enkt	-9022
ifik	-9023
omme	-9024
urer	-9025
vere	-9026
wide	-9027
▁Int	-9028
▁sum	-9029
itzer	-9030
izont	-9031
reien	-9032
▁beat	-9033
▁ober	-9034
▁peng	-9035
▁wave	-9036
▁Found	-9037
▁State	-9038
▁dolph	-9039
▁faces	-9040
▁pages	-9041
▁roten	-9042
meister	-9043
▁Chirur	-9044
▁belong	-9045
▁gering	-9046
▁reform	-9047
▁shapes	-9048
▁stabil	-9049
▁Germany	-9050
▁curious	-9051
▁dennoch	-9052
▁genauer	-9053
▁nervous	-9054
▁organic	-9055
▁relativ	-9056
▁treated	-9057
imensions	-9058
▁airplane	-9059
▁erkannte	-9060
▁survival	-9061
▁principle	-9062
If	-9063
▁(	-9064
har	-9065
hlt	-9066
▁26	-9067
cast	-9068
geln	-9069
hers	-9070
olit	-9071
▁Deb	-9072
▁Pac	-9073
▁dry	-9074
hlung	-9075
▁Impf	-9076
▁Pres	-9077
▁agre	-9078
▁arms	-9079
▁zeit	-9080
fragen	-9081
onomen	-9082
▁Hotel	-9083
▁Reich	-9084
▁somit	-9085
ologist	-9086
▁Andere	-9087
▁Streit	-9088
▁academ	-9089
▁empath	-9090
▁mittel	-9091
▁starke	-9092
▁vieler	-9093
▁Körpers	-9094
▁Mission	-9095
▁Theater	-9096
▁warming	-9097
▁wechsel	-9098
▁designer	-9099
▁erfinden	-9100
▁received	-9101
önlichkeit	-9102
▁hopefully	-9103
▁entstanden	-9104
▁increasingly	-9105
can	-9106
avig	-9107
gien	-9108
leit	-9109
lieb	-9110
ohol	-9111
▁gig	-9112
isher	-9113
ähren	-9114
▁Does	-9115
▁Manh	-9116
▁bull	-9117
▁engl	-9118
▁fiel	-9119
▁intu	-9120
agiert	-9121
rument	-9122
▁rural	-9123
▁users	-9124
glieder	-9125
▁Kräfte	-9126
▁Zucker	-9127
▁circum	-9128
▁echten	-9129
▁manage	-9130
▁müsste	-9131
▁schick	-9132
▁schien	-9133
▁toward	-9134
▁100,000	-9135
▁article	-9136
▁normale	-9137
▁Arbeiten	-9138
▁Japanese	-9139
▁magazine	-9140
▁schlagen	-9141
▁brauchten	-9142
▁wichtigen	-9143
▁Eigentlich	-9144
▁dimensions	-9145
▁instrument	-9146
▁statistics	-9147
▁entwickelte	-9148
▁generations	-9149
▁transformation	-9150
akte	-9151
andt	-9152
comp	-9153
gers	-9154
wich	-9155
wärt	-9156
▁Inn	-9157
▁Sur	-9158
▁Ven	-9159
▁Vis	-9160
auern	-9161
fisch	-9162
gment	-9163
owers	-9164
▁Gras	-9165
▁Mess	-9166
▁Samm	-9167
▁situ	-9168
anders	-9169
▁Krise	-9170
▁Milch	-9171
▁Titan	-9172
▁lebte	-9173
▁Lachen	-9174
▁debate	-9175
▁harder	-9176
▁thinks	-9177
▁Elektro	-9178
▁gelesen	-9179
▁privile	-9180
▁Hinsicht	-9181
▁brachten	-9182
▁investig	-9183
▁cognitive	-9184
▁effizient	-9185
▁universal	-9186
▁Augenblick	-9187
▁Bewegungen	-9188
▁verbreiten	-9189
So	-9190
▁22	-9191
▁65	-9192
ares	-9193
cket	-9194
▁Sar	-9195
▁1980	-9196
▁Pfle	-9197
▁Phot	-9198
▁dran	-9199
▁tail	-9200
▁verf	-9201
atures	-9202
ischem	-9203
▁Erleb	-9204
▁Etwas	-9205
▁Kohle	-9206
▁Trotz	-9207
▁chain	-9208
▁chimp	-9209
▁heads	-9210
▁steps	-9211
ordnung	-9212
▁Beweis	-9213
▁Rechte	-9214
▁drüben	-9215
▁expert	-9216
▁fields	-9217
▁kurzen	-9218
▁leaves	-9219
▁stupid	-9220
▁beinhal	-9221
▁bezahlt	-9222
▁brauche	-9223
▁compare	-9224
▁gestern	-9225
▁demokrat	-9226
▁property	-9227
▁Lebewesen	-9228
▁technical	-9229
▁Organismen	-9230
▁persönlich	-9231
nel	-9232
äum	-9233
▁Bu	-9234
mitt	-9235
▁11.	-9236
▁120	-9237
▁Pfl	-9238
▁Tie	-9239
▁nan	-9240
▁ruh	-9241
▁ten	-9242
estic	-9243
ifest	-9244
osing	-9245
power	-9246
▁Fett	-9247
▁Gand	-9248
▁Null	-9249
▁Open	-9250
▁Zell	-9251
▁reef	-9252
werden	-9253
▁Armen	-9254
▁Carol	-9255
▁Ihres	-9256
▁Start	-9257
▁Would	-9258
reitung	-9259
▁Wellen	-9260
▁driver	-9261
▁zahlen	-9262
▁Nachdem	-9263
▁vorbere	-9264
▁aufbauen	-9265
▁ordinary	-9266
▁sentence	-9267
▁zunächst	-9268
ituationen	-9269
▁Australia	-9270
▁Hollywood	-9271
▁Entdeckung	-9272
▁Satelliten	-9273
▁Generationen	-9274
Ge	-9275
ardo	-9276
iano	-9277
kept	-9278
▁Pfe	-9279
▁tox	-9280
▁1960	-9281
▁Auss	-9282
▁Dach	-9283
▁Elef	-9284
▁Empf	-9285
▁Krit	-9286
▁enem	-9287
▁männ	-9288
istent	-9289
riften	-9290
▁aufta	-9291
▁categ	-9292
▁crime	-9293
▁daily	-9294
▁fängt	-9295
▁homes	-9296
▁lifet	-9297
amerika	-9298
fassung	-9299
fordert	-9300
▁Grafik	-9301
▁belief	-9302
▁motion	-9303
▁Ansicht	-9304
▁angesch	-9305
▁covered	-9306
▁fördern	-9307
▁letters	-9308
▁theater	-9309
▁Methoden	-9310
▁Zeitalter	-9311
▁according	-9312
▁electrical	-9313
▁reduzieren	-9314
▁experienced	-9315
ae	-9316
hö	-9317
icy	-9318
ita	-9319
vis	-9320
▁La	-9321
adel	-9322
pass	-9323
rete	-9324
cking	-9325
lease	-9326
▁coal	-9327
▁pure	-9328
▁trip	-9329
minist	-9330
ondere	-9331
▁Dabei	-9332
▁Korea	-9333
▁Their	-9334
▁Weile	-9335
▁heavy	-9336
▁versp	-9337
ografie	-9338
schrift	-9339
▁Aspekt	-9340
▁Fakten	-9341
▁Jemand	-9342
▁Steuer	-9343
▁damage	-9344
▁enable	-9345
▁fourth	-9346
▁island	-9347
sätzlich	-9348
▁Element	-9349
▁gehören	-9350
▁illustr	-9351
▁justice	-9352
▁killing	-9353
▁testing	-9354
▁volunte	-9355
▁watched	-9356
▁welchen	-9357
▁soldiers	-9358
▁Netzwerke	-9359
▁Everything	-9360
▁Individuen	-9361
▁verbrachte	-9362
üb	-9363
Yes	-9364
üge	-9365
üte	-9366
▁Ol	-9367
▁PM	-9368
▁af	-9369
bles	-9370
▁700	-9371
▁Dok	-9372
▁Net	-9373
▁SMS	-9374
▁rie	-9375
igern	-9376
inted	-9377
passt	-9378
riffe	-9379
teuer	-9380
tocin	-9381
▁Atom	-9382
▁Sens	-9383
▁Wein	-9384
▁bear	-9385
▁copy	-9386
▁ethn	-9387
▁jähr	-9388
▁valu	-9389
▁Jeden	-9390
▁Stock	-9391
▁anger	-9392
▁cloth	-9393
▁colon	-9394
▁einst	-9395
gegeben	-9396
▁Linien	-9397
▁Martin	-9398
▁hidden	-9399
▁Manhatt	-9400
▁setting	-9401
▁signals	-9402
▁Elemente	-9403
▁Tausende	-9404
▁abhängig	-9405
▁geändert	-9406
▁kürzlich	-9407
▁Abschluss	-9408
▁Gemeinden	-9409
▁Tradition	-9410
▁gestorben	-9411
▁Foundation	-9412
▁associated	-9413
▁definieren	-9414
▁erscheinen	-9415
▁kilometers	-9416
▁beschlossen	-9417
▁Elektrizität	-9418
▁consequences	-9419
olt	-9420
utt	-9421
▁Cy	-9422
anch	-9423
ctic	-9424
mann	-9425
pekt	-9426
▁10,	-9427
▁bom	-9428
▁gap	-9429
chnet	-9430
▁Wild	-9431
▁date	-9432
▁gesp	-9433
▁puts	-9434
ifying	-9435
schaut	-9436
ushing	-9437
▁Viren	-9438
▁autom	-9439
▁halbe	-9440
▁maint	-9441
▁novel	-9442
▁nötig	-9443
▁scene	-9444
gedacht	-9445
▁Ausmaß	-9446
▁Canada	-9447
▁Oxford	-9448
▁caused	-9449
▁explan	-9450
▁filled	-9451
▁implic	-9452
▁movies	-9453
▁starten	-9454
▁astronom	-9455
▁effektiv	-9456
▁resource	-9457
▁Zuschauer	-9458
▁beschloss	-9459
▁currently	-9460
▁essential	-9461
▁vergangen	-9462
▁beeindruck	-9463
▁auseinander	-9464
▁verschwinden	-9465
▁traditionellen	-9466
?“	-9467
▁ap	-9468
down	-9469
life	-9470
well	-9471
agina	-9472
kreis	-9473
zieht	-9474
▁Budd	-9475
▁Eben	-9476
▁Mass	-9477
▁rück	-9478
▁Peter	-9479
▁Tumor	-9480
▁Union	-9481
▁awful	-9482
▁facts	-9483
▁folks	-9484
▁holes	-9485
▁infin	-9486
▁passt	-9487
▁pengu	-9488
▁solch	-9489
▁subst	-9490
▁wobei	-9491
auspiel	-9492
stellte	-9493
▁Garten	-9494
▁advert	-9495
▁analog	-9496
▁announ	-9497
▁hypoth	-9498
▁kombin	-9499
▁losing	-9500
▁meiste	-9501
▁perman	-9502
▁stammt	-9503
ätigkeit	-9504
▁Student	-9505
▁arrived	-9506
▁autonom	-9507
▁identify	-9508
▁aufregend	-9509
▁convinced	-9510
▁processes	-9511
▁yesterday	-9512
▁artificial	-9513
▁Wahrnehmung	-9514
▁grandmother	-9515
▁researchers	-9516
▁International	-9517
box	-9518
enz	-9519
ipl	-9520
kan	-9521
▁NG	-9522
ompl	-9523
phen	-9524
test	-9525
uous	-9526
▁Wei	-9527
▁cow	-9528
▁unl	-9529
affee	-9530
besch	-9531
elben	-9532
state	-9533
▁1970	-9534
▁Ober	-9535
▁Säug	-9536
▁cosm	-9537
▁diss	-9538
ichern	-9539
recher	-9540
staben	-9541
▁empty	-9542
▁folgt	-9543
▁liked	-9544
▁negot	-9545
▁niedr	-9546
▁shoes	-9547
zentrum	-9548
ographie	-9549
struktur	-9550
zuführen	-9551
▁players	-9552
▁Prototyp	-9553
▁ungewöhn	-9554
▁erscheint	-9555
▁verbindet	-9556
▁zerstören	-9557
▁darstellen	-9558
▁comfortable	-9559
▁grundlegende	-9560
3.	-9561
mas	-9562
rix	-9563
zep	-9564
zut	-9565
That	-9566
acle	-9567
ltra	-9568
resp	-9569
rett	-9570
skop	-9571
▁bee	-9572
emble	-9573
erves	-9574
omben	-9575
▁Viet	-9576
▁fuhr	-9577
▁grab	-9578
▁hadn	-9579
▁surf	-9580
▁weak	-9581
▁angeb	-9582
▁flies	-9583
▁quasi	-9584
▁saved	-9585
▁signs	-9586
▁sites	-9587
▁spoke	-9588
▁stood	-9589
▁Batter	-9590
▁Geräus	-9591
▁deeper	-9592
▁kurzem	-9593
▁lebten	-9594
▁spring	-9595
astrophe	-9596
▁Beweise	-9597
▁Details	-9598
▁Malaria	-9599
▁appropr	-9600
▁dealing	-9601
▁spielte	-9602
▁stärker	-9603
▁worüber	-9604
▁anwenden	-9605
▁behalten	-9606
▁nützlich	-9607
▁Erklärung	-9608
▁designing	-9609
▁satellite	-9610
▁Interessen	-9611
▁Produktion	-9612
▁considered	-9613
▁natürlichen	-9614
▁Schwierigkeiten	-9615
9.	-9616
Pl	-9617
ynd	-9618
ader	-9619
aler	-9620
edic	-9621
fish	-9622
würd	-9623
äuse	-9624
▁Eng	-9625
▁Nov	-9626
▁Top	-9627
ancen	-9628
ehren	-9629
ierer	-9630
lying	-9631
owing	-9632
▁Kerl	-9633
▁Teen	-9634
▁bits	-9635
▁gall	-9636
▁scen	-9637
▁soph	-9638
▁erled	-9639
▁heran	-9640
▁layer	-9641
▁minim	-9642
▁Saturn	-9643
▁Staats	-9644
▁finish	-9645
▁reicht	-9646
▁verlie	-9647
▁voices	-9648
▁zählen	-9649
▁Berechn	-9650
▁Britain	-9651
▁Spieler	-9652
▁TEDTalk	-9653
▁Website	-9654
▁eindeut	-9655
▁opening	-9656
▁worried	-9657
▁engineer	-9658
▁entgegen	-9659
imensionen	-9660
▁Brasilien	-9661
▁Emotionen	-9662
▁Konsequen	-9663
▁Manhattan	-9664
▁studieren	-9665
▁verfügbar	-9666
▁importance	-9667
▁beschäftigen	-9668
Is	-9669
bru	-9670
hek	-9671
mel	-9672
obe	-9673
▁3.	-9674
icip	-9675
otic	-9676
unkl	-9677
gerät	-9678
▁Anim	-9679
▁Bron	-9680
▁Echt	-9681
▁Koll	-9682
▁Verw	-9683
▁drin	-9684
▁tall	-9685
▁trib	-9686
▁vess	-9687
▁vote	-9688
plomat	-9689
rechte	-9690
▁honor	-9691
▁perce	-9692
▁recon	-9693
▁übrig	-9694
frieden	-9695
▁Träume	-9696
▁Voraus	-9697
▁berühm	-9698
▁körper	-9699
▁muscle	-9700
▁nieder	-9701
▁picked	-9702
▁sharks	-9703
▁Maßstab	-9704
▁battery	-9705
▁cutting	-9706
▁morgens	-9707
▁Nachbarn	-9708
▁feelings	-9709
▁zerstört	-9710
▁President	-9711
▁aufgebaut	-9712
▁entdeckte	-9713
▁professor	-9714
▁wondering	-9715
▁innovative	-9716
▁management	-9717
▁Deutschland	-9718
EC	-9719
oli	-9720
zed	-9721
agos	-9722
emin	-9723
obby	-9724
rägt	-9725
▁pil	-9726
genda	-9727
llekt	-9728
mäßig	-9729
oster	-9730
theit	-9731
▁Atem	-9732
▁Belo	-9733
▁Mary	-9734
▁Talk	-9735
▁hide	-9736
▁libr	-9737
▁soul	-9738
heimer	-9739
▁Cambr	-9740
▁Gates	-9741
▁Smith	-9742
▁spont	-9743
▁teeth	-9744
▁wuchs	-9745
drücken	-9746
erneath	-9747
▁Gewinn	-9748
▁setzte	-9749
▁videos	-9750
programm	-9751
▁calling	-9752
▁capture	-9753
▁experts	-9754
▁sources	-9755
▁Schatten	-9756
▁gewissen	-9757
▁reaction	-9758
▁struggle	-9759
▁geschickt	-9760
▁Mitarbeiter	-9761
▁connections	-9762
▁medizinische	-9763
ait	-9764
gyp	-9765
uhe	-9766
ula	-9767
▁32	-9768
irat	-9769
osex	-9770
oute	-9771
▁10-	-9772
▁Fas	-9773
▁Mah	-9774
▁bie	-9775
ended	-9776
iform	-9777
neten	-9778
▁Hack	-9779
▁chap	-9780
▁dots	-9781
▁ends	-9782
▁flat	-9783
▁umge	-9784
isters	-9785
ündete	-9786
▁Neben	-9787
▁Seine	-9788
▁Willi	-9789
▁blieb	-9790
▁verbl	-9791
ulating	-9792
▁Inhalt	-9793
▁Kaffee	-9794
▁Mexiko	-9795
▁Yorker	-9796
▁formen	-9797
▁status	-9798
▁Florida	-9799
▁erkennt	-9800
▁umgeben	-9801
▁variety	-9802
▁deswegen	-9803
▁expected	-9804
▁marriage	-9805
▁chimpanze	-9806
issenschaft	-9807
▁beobachtet	-9808
▁zugänglich	-9809
▁faszinierend	-9810
7.	-9811
ET	-9812
He	-9813
isf	-9814
vas	-9815
yer	-9816
▁KB	-9817
anen	-9818
liot	-9819
umin	-9820
▁Bay	-9821
▁Hor	-9822
▁Jim	-9823
▁Mel	-9824
▁ens	-9825
▁inh	-9826
bares	-9827
iency	-9828
opath	-9829
▁Beim	-9830
▁Prim	-9831
▁Soll	-9832
▁Verd	-9833
▁diet	-9834
▁hurt	-9835
▁youn	-9836
nitten	-9837
onents	-9838
▁Neues	-9839
▁Vögel	-9840
▁solid	-9841
züglich	-9842
▁Anyway	-9843
▁Quelle	-9844
▁encoun	-9845
▁fossil	-9846
▁heißen	-9847
▁steigt	-9848
▁Werbung	-9849
▁keeping	-9850
▁microsc	-9851
▁nations	-9852
▁Chemikal	-9853
▁Freundin	-9854
▁annehmen	-9855
▁cultures	-9856
▁tomorrow	-9857
▁interface	-9858
▁Geschlecht	-9859
▁Dinosaurier	-9860
▁independent	-9861
▁transparent	-9862
Do	-9863
ani	-9864
leg	-9865
▁95	-9866
▁ah	-9867
agon	-9868
atom	-9869
baut	-9870
elly	-9871
izer	-9872
star	-9873
▁mel	-9874
anzös	-9875
nimmt	-9876
▁Brun	-9877
▁Gree	-9878
▁Show	-9879
▁Tour	-9880
▁kick	-9881
▁summ	-9882
merzen	-9883
▁Fälle	-9884
▁Pingu	-9885
▁Seele	-9886
▁Tests	-9887
▁Zitat	-9888
▁ermut	-9889
bereich	-9890
▁Riesen	-9891
▁Schuld	-9892
▁safety	-9893
▁sample	-9894
▁skelet	-9895
▁zusätz	-9896
zusetzen	-9897
▁Vietnam	-9898
▁monitor	-9899
▁partner	-9900
▁roughly	-9901
▁Kulturen	-9902
▁advanced	-9903
▁analysis	-9904
▁ersetzen	-9905
▁requires	-9906
▁valuable	-9907
stellungen	-9908
▁Cambridge	-9909
▁Vorfahren	-9910
▁beschleun	-9911
▁entertain	-9912
▁underneath	-9913
▁vermitteln	-9914
▁Architekten	-9915
▁schrecklich	-9916
▁entrepreneurs	-9917
Al	-9918
MA	-9919
NS	-9920
uhr	-9921
war	-9922
dest	-9923
mehr	-9924
oles	-9925
▁800	-9926
▁Hey	-9927
▁Jes	-9928
▁Roh	-9929
olfen	-9930
▁Sitz	-9931
▁blau	-9932
▁lady	-9933
▁spät	-9934
▁susp	-9935
▁user	-9936
▁wide	-9937
iences	-9938
▁Febru	-9939
▁Stufe	-9940
▁appar	-9941
▁broke	-9942
▁cards	-9943
▁fähig	-9944
▁prove	-9945
▁vorne	-9946
▁waves	-9947
▁zieht	-9948
▁Größen	-9949
▁Umfeld	-9950
▁define	-9951
▁establ	-9952
▁trials	-9953
▁Schnitt	-9954
▁erwähnt	-9955
▁illness	-9956
▁carrying	-9957
▁hydrogen	-9958
▁schwarze	-9959
▁sprachen	-9960
▁Bereichen	-9961
▁langfrist	-9962
▁notwendig	-9963
▁producing	-9964
▁verhalten	-9965
▁Überrasch	-9966
▁inspiriert	-9967
▁properties	-9968
▁specifically	-9969
hai	-9970
ibe	-9971
aurs	-9972
herr	-9973
sver	-9974
▁Cor	-9975
▁dat	-9976
▁gay	-9977
glied	-9978
karte	-9979
ville	-9980
weile	-9981
▁Camp	-9982
▁Ungl	-9983
▁corn	-9984
▁evil	-9985
orient	-9986
rucken	-9987
▁Black	-9988
▁Sogar	-9989
▁admit	-9990
▁außen	-9991
▁crowd	-9992
▁fewer	-9993
▁fiber	-9994
▁unend	-9995
spielen	-9996
▁Erwart	-9997
▁Wetter	-9998
▁houses	-9999
▁treten	-10000
▁Präsent	-10001
▁cartoon	-10002
▁dynamic	-10003
▁gebeten	-10004
▁müssten	-10005
▁solcher	-10006
▁viruses	-10007
▁Arbeiter	-10008
▁verteilt	-10009
versorgung	-10010
▁Operation	-10011
▁chemistry	-10012
▁industrie	-10013
▁Buchstaben	-10014
▁expression	-10015
▁vulnerable	-10016
▁Situationen	-10017
▁effectively	-10018
▁Informations	-10019
▁intellectual	-10020
▁possibilities	-10021
LA	-10022
].	-10023
äne	-10024
ario	-10025
aube	-10026
flug	-10027
izop	-10028
kont	-10029
oses	-10030
ping	-10031
▁bul	-10032
▁rig	-10033
istor	-10034
orted	-10035
▁Homo	-10036
▁Vern	-10037
▁biom	-10038
▁exec	-10039
▁flie	-10040
▁gain	-10041
▁grid	-10042
kosten	-10043
▁Betra	-10044
▁Kreuz	-10045
▁Moral	-10046
▁Zweck	-10047
▁shall	-10048
▁sugar	-10049
▁Anteil	-10050
▁Bedroh	-10051
▁Einsch	-10052
▁Virgin	-10053
▁enorme	-10054
▁gender	-10055
▁hinten	-10056
▁player	-10057
▁schaff	-10058
issionen	-10059
izophren	-10060
▁aggress	-10061
▁berührt	-10062
▁niedrig	-10063
▁seitdem	-10064
▁übersch	-10065
isationen	-10066
verbrauch	-10067
▁Weltraum	-10068
▁consumer	-10069
▁convince	-10070
▁diagnost	-10071
▁exchange	-10072
▁location	-10073
▁relative	-10074
▁Potential	-10075
▁Strategie	-10076
▁existence	-10077
▁organized	-10078
▁sophistic	-10079
▁Großmutter	-10080
▁aufzubauen	-10081
▁situations	-10082
▁fantastisch	-10083
▁construction	-10084
▁persönlichen	-10085
IP	-10086
ij	-10087
wie	-10088
▁wü	-10089
iein	-10090
▁19.	-10091
▁191	-10092
▁Alz	-10093
▁LED	-10094
▁Ren	-10095
▁Sum	-10096
▁van	-10097
alyse	-10098
frien	-10099
ingly	-10100
linge	-10101
otten	-10102
staat	-10103
▁Wurz	-10104
▁rief	-10105
▁scre	-10106
▁shel	-10107
acters	-10108
iglich	-10109
▁Derek	-10110
▁Gutes	-10111
▁smile	-10112
▁Damals	-10113
▁Doktor	-10114
▁Welche	-10115
▁ausgel	-10116
▁facing	-10117
▁review	-10118
▁spezif	-10119
▁Auswahl	-10120
▁Entfern	-10121
▁cameras	-10122
▁hierher	-10123
▁mächtig	-10124
▁theoret	-10125
▁Congress	-10126
▁Minister	-10127
▁circumst	-10128
▁exercise	-10129
▁Jahrzehnt	-10130
▁chemicals	-10131
▁mortality	-10132
▁characters	-10133
▁schlechter	-10134
▁transition	-10135
▁untersucht	-10136
▁feststellen	-10137
▁stattdessen	-10138
.«	-10139
DP	-10140
obi	-10141
ris	-10142
▁Ec	-10143
Look	-10144
▁Day	-10145
▁Tes	-10146
▁Urs	-10147
▁hur	-10148
▁lic	-10149
asste	-10150
chron	-10151
ünder	-10152
▁Fast	-10153
▁Such	-10154
▁beit	-10155
▁gegr	-10156
▁ring	-10157
▁snow	-10158
design	-10159
esents	-10160
▁Antar	-10161
▁Offen	-10162
▁hinge	-10163
▁hotel	-10164
▁rates	-10165
▁vorbe	-10166
▁zweit	-10167
achtung	-10168
ziehung	-10169
zufügen	-10170
▁Chemie	-10171
▁Health	-10172
▁forced	-10173
▁gelöst	-10174
▁verwir	-10175
▁winter	-10176
▁authent	-10177
▁contain	-10178
▁sending	-10179
▁Bereiche	-10180
▁Geräusch	-10181
▁entstand	-10182
▁generate	-10183
▁komplexe	-10184
▁messages	-10185
▁thoughts	-10186
▁whenever	-10187
▁Transport	-10188
▁Medikament	-10189
▁Verhältnis	-10190
▁corruption	-10191
▁relatively	-10192
▁represents	-10193
▁schlechten	-10194
verständlich	-10195
-1	-10196
/1	-10197
azz	-10198
lem	-10199
atik	-10200
bors	-10201
ifer	-10202
izon	-10203
laub	-10204
rain	-10205
ught	-10206
wach	-10207
▁Ros	-10208
▁Wow	-10209
▁tap	-10210
hythm	-10211
iques	-10212
rooms	-10213
rufen	-10214
uropä	-10215
▁mode	-10216
▁suit	-10217
▁tons	-10218
▁unex	-10219
▁wake	-10220
▁wand	-10221
▁Lager	-10222
▁Stuhl	-10223
▁geist	-10224
▁sympt	-10225
entwick	-10226
steigen	-10227
ständen	-10228
▁Herren	-10229
▁Schlaf	-10230
▁Signal	-10231
▁conver	-10232
▁poetry	-10233
▁prefer	-10234
inosaurs	-10235
▁Konflik	-10236
▁spannen	-10237
▁überprü	-10238
▁emerging	-10239
▁erstellt	-10240
▁langweil	-10241
▁lifetime	-10242
▁Alzheimer	-10243
▁behaviors	-10244
▁carefully	-10245
▁wiederhol	-10246
▁Korruption	-10247
▁collection	-10248
▁restaurant	-10249
dam	-10250
sun	-10251
uts	-10252
Mail	-10253
ämpf	-10254
▁Jew	-10255
▁sla	-10256
▁zut	-10257
▁Alph	-10258
▁Kurs	-10259
▁Long	-10260
▁Teuf	-10261
▁Trag	-10262
▁erle	-10263
▁getr	-10264
▁grün	-10265
▁klin	-10266
▁maps	-10267
▁neut	-10268
▁poem	-10269
▁resc	-10270
▁tank	-10271
▁Ägyp	-10272
ichert	-10273
jemand	-10274
omente	-10275
stream	-10276
▁Human	-10277
▁Süden	-10278
▁divid	-10279
aurants	-10280
richtet	-10281
steroid	-10282
▁Gegend	-10283
▁Helden	-10284
▁Leider	-10285
▁Stärke	-10286
▁Winter	-10287
▁Wolken	-10288
▁bottle	-10289
▁ergibt	-10290
▁explod	-10291
▁heisst	-10292
▁kannte	-10293
▁langer	-10294
▁length	-10295
zukommen	-10296
▁Fliegen	-10297
▁Galaxie	-10298
▁Molekül	-10299
▁selling	-10300
▁standen	-10301
▁victims	-10302
▁welchem	-10303
▁clinical	-10304
▁gespielt	-10305
▁graduate	-10306
▁parallel	-10307
▁systemat	-10308
▁versteht	-10309
▁Anwendung	-10310
▁Verbesser	-10311
▁aufnehmen	-10312
▁unabhängig	-10313
▁westlichen	-10314
▁unterstützt	-10315
möglichkeiten	-10316
▁Erinnerungen	-10317
fir	-10318
▁ce	-10319
alem	-10320
ller	-10321
quar	-10322
ähne	-10323
▁Krä	-10324
▁ped	-10325
appen	-10326
lings	-10327
rator	-10328
▁Expl	-10329
▁Gore	-10330
▁Klin	-10331
▁acqu	-10332
▁ausb	-10333
▁liqu	-10334
▁qual	-10335
▁ride	-10336
▁trop	-10337
porary	-10338
▁Could	-10339
▁Grand	-10340
▁beweg	-10341
▁maxim	-10342
▁silen	-10343
▁tumor	-10344
▁dunkle	-10345
▁fellow	-10346
▁geomet	-10347
▁junger	-10348
▁sauber	-10349
▁Risiken	-10350
▁Wissens	-10351
▁malaria	-10352
fähigkeit	-10353
▁Echtzeit	-10354
▁prepared	-10355
▁Geheimnis	-10356
▁digitalen	-10357
▁emissions	-10358
▁employees	-10359
▁lediglich	-10360
▁Australien	-10361
▁beinhaltet	-10362
▁gegenseitig	-10363
▁Zivilisation	-10364
▁internationalen	-10365
ky	-10366
hel	-10367
lad	-10368
öss	-10369
airs	-10370
ehlt	-10371
eres	-10372
illa	-10373
rict	-10374
▁Bem	-10375
▁Dat	-10376
▁Ehr	-10377
▁Mas	-10378
▁Sor	-10379
▁Sow	-10380
▁Tim	-10381
▁hey	-10382
▁que	-10383
inson	-10384
iogen	-10385
maßen	-10386
▁Früh	-10387
▁Inte	-10388
▁Mult	-10389
▁Paar	-10390
▁Wall	-10391
▁Zahn	-10392
▁lect	-10393
fernen	-10394
äusern	-10395
▁Brook	-10396
▁Hilfs	-10397
▁Letzt	-10398
▁Parte	-10399
▁added	-10400
anthrop	-10401
areness	-10402
dlichen	-10403
itarian	-10404
otherap	-10405
▁Blumen	-10406
▁Kriegs	-10407
▁Nieder	-10408
▁blauen	-10409
▁buying	-10410
▁credit	-10411
▁durchs	-10412
▁inevit	-10413
▁depends	-10414
▁encoura	-10415
▁rapidly	-10416
▁Existenz	-10417
▁Kongress	-10418
▁beweisen	-10419
▁epidemic	-10420
▁trillion	-10421
▁wertvoll	-10422
▁disappear	-10423
▁interests	-10424
▁definitely	-10425
▁überwinden	-10426
▁persönliche	-10427
▁politicians	-10428
▁mathematical	-10429
▁wirtschaftliche	-10430
abol	-10431
inte	-10432
netz	-10433
samm	-10434
ulin	-10435
äfte	-10436
▁Hir	-10437
antom	-10438
greif	-10439
schau	-10440
▁Ange	-10441
▁Bund	-10442
▁Jung	-10443
▁Tele	-10444
▁arts	-10445
▁cure	-10446
▁thro	-10447
indert	-10448
izienz	-10449
rieren	-10450
wachst	-10451
▁Schäd	-10452
▁Women	-10453
▁beach	-10454
▁doubt	-10455
▁reven	-10456
▁serve	-10457
▁steel	-10458
▁stehe	-10459
ierungs	-10460
wärmung	-10461
▁begren	-10462
▁contem	-10463
▁factor	-10464
▁remain	-10465
bination	-10466
▁Fahrrad	-10467
▁Geistes	-10468
▁Respekt	-10469
▁beinahe	-10470
▁impress	-10471
▁konstru	-10472
▁kriegen	-10473
▁primary	-10474
▁steuern	-10475
▁äußerst	-10476
abilities	-10477
besondere	-10478
▁Aufnahme	-10479
▁Bildungs	-10480
▁Lebenser	-10481
▁beispiel	-10482
▁besuchen	-10483
▁schätzen	-10484
▁verstehe	-10485
▁movements	-10486
▁vermeiden	-10487
▁healthcare	-10488
▁protection	-10489
▁verbessert	-10490
▁Erwachsenen	-10491
▁Wesentlichen	-10492
▁erstaunliche	-10493
▁menschlicher	-10494
-,	-10495
6.	-10496
Wow	-10497
hes	-10498
ült	-10499
adow	-10500
bage	-10501
bell	-10502
bers	-10503
foot	-10504
rans	-10505
rass	-10506
▁Yet	-10507
▁sau	-10508
gling	-10509
ibiot	-10510
itals	-10511
▁2008	-10512
▁Four	-10513
▁Prob	-10514
▁gang	-10515
▁höre	-10516
▁stir	-10517
▁unit	-10518
▁vent	-10519
ported	-10520
punkte	-10521
▁Brief	-10522
▁Pfund	-10523
▁Platt	-10524
▁Rechn	-10525
▁chart	-10526
▁drauf	-10527
▁navig	-10528
▁occup	-10529
▁risks	-10530
▁sides	-10531
▁sucht	-10532
quality	-10533
▁Handel	-10534
▁Normal	-10535
▁meinte	-10536
▁mirror	-10537
▁soviel	-10538
▁sparen	-10539
▁stattf	-10540
▁gefällt	-10541
▁lokalen	-10542
▁neurosc	-10543
▁promise	-10544
▁radical	-10545
▁regener	-10546
▁release	-10547
▁Zwischen	-10548
▁pleasure	-10549
▁generally	-10550
▁Depression	-10551
▁Diskussion	-10552
▁introduced	-10553
▁Kombination	-10554
▁evolutionary	-10555
70	-10556
not	-10557
ruh	-10558
uba	-10559
▁CD	-10560
ahen	-10561
nahm	-10562
ockt	-10563
what	-10564
▁GDP	-10565
▁Hen	-10566
▁Rom	-10567
▁sem	-10568
athan	-10569
boden	-10570
icing	-10571
level	-10572
nungs	-10573
opter	-10574
oting	-10575
ränkt	-10576
▁Dire	-10577
▁arab	-10578
▁atom	-10579
▁deta	-10580
▁irre	-10581
▁jüng	-10582
▁runs	-10583
imming	-10584
lösung	-10585
nehmer	-10586
▁Blatt	-10587
▁Damen	-10588
▁Jesus	-10589
▁Wieso	-10590
▁goods	-10591
▁horse	-10592
▁metal	-10593
▁refer	-10594
▁sweet	-10595
ermaßen	-10596
▁ausgew	-10597
▁bubble	-10598
▁compar	-10599
▁desire	-10600
▁potent	-10601
▁Erkrank	-10602
▁Komment	-10603
▁liefern	-10604
▁moderne	-10605
▁vergröß	-10606
▁überein	-10607
▁gefangen	-10608
▁kreieren	-10609
▁weiterer	-10610
▁Grundlage	-10611
▁Wohlstand	-10612
▁introduce	-10613
▁practical	-10614
▁radiation	-10615
▁wirkliche	-10616
▁Definition	-10617
▁discussion	-10618
▁psychology	-10619
▁Bedürfnisse	-10620
▁vorzustellen	-10621
Na	-10622
Man	-10623
bek	-10624
dre	-10625
eid	-10626
▁Po	-10627
mord	-10628
ränk	-10629
örer	-10630
▁Pet	-10631
▁Squ	-10632
▁biz	-10633
▁bow	-10634
▁dün	-10635
▁nor	-10636
▁rub	-10637
▁sta	-10638
▁wom	-10639
akers	-10640
weite	-10641
▁Allt	-10642
▁Cont	-10643
▁Hell	-10644
▁Weib	-10645
▁brit	-10646
▁seid	-10647
angers	-10648
gehend	-10649
icious	-10650
▁Gehen	-10651
▁claim	-10652
▁stock	-10653
▁übert	-10654
▁Brücke	-10655
▁Danach	-10656
▁Inspir	-10657
▁Mandel	-10658
▁Therap	-10659
▁besagt	-10660
▁medium	-10661
▁organs	-10662
▁talent	-10663
qualität	-10664
▁Einheit	-10665
▁attempt	-10666
▁Deswegen	-10667
▁affected	-10668
▁official	-10669
▁recorded	-10670
▁spectrum	-10671
▁Südafrika	-10672
▁invention	-10673
▁newspaper	-10674
▁Schauspiel	-10675
▁Aktivitäten	-10676
▁environments	-10677
nü	-10678
ati	-10679
hte	-10680
ups	-10681
▁85	-10682
läuf	-10683
umps	-10684
uses	-10685
▁Cra	-10686
▁Hem	-10687
▁Joe	-10688
▁Sir	-10689
▁asp	-10690
▁bag	-10691
▁ing	-10692
▁ums	-10693
ieben	-10694
illen	-10695
point	-10696
rimin	-10697
wagen	-10698
▁nett	-10699
▁shop	-10700
▁verg	-10701
▁wars	-10702
reffen	-10703
rücken	-10704
sprung	-10705
ternal	-10706
▁Bauch	-10707
▁Koran	-10708
▁input	-10709
▁skill	-10710
▁verab	-10711
prechen	-10712
rechend	-10713
▁August	-10714
▁Hunger	-10715
▁Russia	-10716
▁assign	-10717
▁eingel	-10718
▁former	-10719
▁gelebt	-10720
▁refuge	-10721
▁singen	-10722
▁stream	-10723
▁Pacific	-10724
▁applied	-10725
▁dropped	-10726
▁gravity	-10727
▁proport	-10728
▁replace	-10729
▁singing	-10730
▁vehicles	-10731
▁Erfindung	-10732
▁Philosoph	-10733
▁besondere	-10734
▁dinosaurs	-10735
▁encounter	-10736
▁entfernen	-10737
▁typically	-10738
▁gemeinsame	-10739
▁techniques	-10740
▁übernehmen	-10741
▁beschrieben	-10742
▁Persönlichkeit	-10743
wen	-10744
äub	-10745
▁28	-10746
▁MT	-10747
okus	-10748
ugel	-10749
▁wra	-10750
iveau	-10751
orous	-10752
ratch	-10753
usual	-10754
▁Tief	-10755
▁clim	-10756
▁fern	-10757
▁firm	-10758
▁rote	-10759
▁soft	-10760
▁tats	-10761
fected	-10762
haften	-10763
illing	-10764
▁Kenia	-10765
▁Weihn	-10766
▁aging	-10767
▁armen	-10768
▁atoms	-10769
▁chron	-10770
▁fährt	-10771
▁ought	-10772
endence	-10773
igungen	-10774
▁Kirche	-10775
▁Mengen	-10776
▁Sprach	-10777
▁bauten	-10778
▁detect	-10779
▁replic	-10780
▁verblü	-10781
▁Absicht	-10782
▁Taliban	-10783
▁details	-10784
▁electro	-10785
▁engaged	-10786
▁erhöhen	-10787
▁grundle	-10788
▁mistake	-10789
▁Nachhalt	-10790
▁Spektrum	-10791
▁bemerken	-10792
▁birthday	-10793
▁ähnliche	-10794
leistungen	-10795
▁dieselben	-10796
▁eindeutig	-10797
▁gegründet	-10798
▁molecular	-10799
▁mountains	-10800
▁überrasch	-10801
▁Instrument	-10802
▁algorithms	-10803
▁components	-10804
▁fasziniert	-10805
▁Sicherheits	-10806
▁geschlossen	-10807
▁großartigen	-10808
▁funktionierte	-10809
▁technological	-10810
mü	-10811
va	-10812
ppy	-10813
umn	-10814
▁Tö	-10815
arre	-10816
ense	-10817
ombe	-10818
ulse	-10819
▁Boy	-10820
▁Rio	-10821
▁mat	-10822
agram	-10823
ielle	-10824
obile	-10825
utete	-10826
▁Jose	-10827
▁Kenn	-10828
▁bare	-10829
▁clip	-10830
▁iPod	-10831
▁peak	-10832
▁shut	-10833
▁tick	-10834
▁wine	-10835
urance	-10836
▁3,000	-10837
▁Kabel	-10838
▁Küste	-10839
▁Phase	-10840
▁Scott	-10841
▁estim	-10842
▁innen	-10843
▁obser	-10844
▁staff	-10845
gruppen	-10846
stoffen	-10847
▁Gottes	-10848
▁Symmet	-10849
▁assist	-10850
▁battle	-10851
▁bietet	-10852
▁church	-10853
▁hoping	-10854
▁lachen	-10855
▁pulled	-10856
▁regard	-10857
▁season	-10858
▁worlds	-10859
putation	-10860
▁Bestand	-10861
▁Richtig	-10862
▁Schicks	-10863
▁berühmt	-10864
▁centers	-10865
▁erhielt	-10866
▁factors	-10867
▁however	-10868
▁kitchen	-10869
▁lessons	-10870
▁opinion	-10871
ologische	-10872
▁Diagramm	-10873
▁Schritte	-10874
▁Vorteile	-10875
▁dahinter	-10876
▁Allgemein	-10877
▁Interview	-10878
▁erweitern	-10879
▁gebraucht	-10880
▁neighbors	-10881
▁perception	-10882
▁veränderte	-10883
▁Chemikalien	-10884
▁Statistiken	-10885
▁combination	-10886
▁internationale	-10887
BM	-10888
pa	-10889
rey	-10890
sey	-10891
örm	-10892
▁Ky	-10893
alte	-10894
grad	-10895
ikes	-10896
kins	-10897
oved	-10898
rüst	-10899
west	-10900
▁Imp	-10901
▁Seh	-10902
▁adj	-10903
anned	-10904
nchen	-10905
ätter	-10906
▁beiz	-10907
▁eggs	-10908
▁gere	-10909
▁länd	-10910
▁5,000	-10911
▁Wagen	-10912
▁baute	-10913
▁goals	-10914
▁imple	-10915
▁inher	-10916
▁notes	-10917
▁prime	-10918
▁theme	-10919
▁topic	-10920
▁traum	-10921
▁unbek	-10922
forscht	-10923
örungen	-10924
▁Howard	-10925
▁Laptop	-10926
▁Ozeane	-10927
▁aftern	-10928
▁furcht	-10929
▁height	-10930
▁liquid	-10931
▁robust	-10932
▁rocket	-10933
▁senses	-10934
elescope	-10935
lerweile	-10936
pflanzen	-10937
▁Afrikas	-10938
▁Bibliot	-10939
▁Momente	-10940
▁Signale	-10941
▁Viertel	-10942
▁Wechsel	-10943
▁chicken	-10944
▁include	-10945
▁nachden	-10946
▁verring	-10947
▁Business	-10948
▁disaster	-10949
▁elektron	-10950
▁konfront	-10951
▁occurred	-10952
▁speziell	-10953
ologischen	-10954
▁Gegenwart	-10955
▁worldwide	-10956
▁efficiency	-10957
▁foundation	-10958
▁Stattdessen	-10959
▁akzeptieren	-10960
▁Unterhaltung	-10961
▁gesellschaft	-10962
▁collaboration	-10963
aj	-10964
vi	-10965
▁x	-10966
önt	-10967
anes	-10968
ifth	-10969
igma	-10970
äden	-10971
▁Brü	-10972
▁Lou	-10973
▁Hill	-10974
▁Merk	-10975
▁froh	-10976
▁genü	-10977
▁hits	-10978
estyle	-10979
hängen	-10980
▁Folie	-10981
▁Poten	-10982
▁Power	-10983
▁Since	-10984
▁Wüste	-10985
▁Zerst	-10986
▁dedic	-10987
▁embar	-10988
▁keeps	-10989
▁toler	-10990
▁Führer	-10991
▁Privat	-10992
▁acting	-10993
▁belieb	-10994
▁blocks	-10995
▁cortex	-10996
▁driven	-10997
▁kümmer	-10998
▁willst	-10999
ikations	-11000
▁Gebiete	-11001
▁accompl	-11002
▁ansieht	-11003
▁besitzt	-11004
▁courage	-11005
▁glaubte	-11006
▁manchen	-11007
▁reached	-11008
▁Betracht	-11009
▁Herstell	-11010
▁Mehrheit	-11011
▁Metapher	-11012
▁Ungleich	-11013
▁Zunächst	-11014
▁darunter	-11015
▁folgende	-11016
▁gefallen	-11017
▁mistakes	-11018
▁ultimate	-11019
▁vertraut	-11020
▁Überzeug	-11021
▁activities	-11022
▁Einstellung	-11023
▁dargestellt	-11024
▁schwieriger	-11025
▁sophisticated	-11026
▁beispielsweise	-11027
any	-11028
opy	-11029
▁PC	-11030
▁Ve	-11031
burg	-11032
etik	-11033
gely	-11034
half	-11035
igem	-11036
utze	-11037
▁wüs	-11038
▁Ähn	-11039
acken	-11040
adium	-11041
alled	-11042
füllt	-11043
hrase	-11044
ician	-11045
iring	-11046
räume	-11047
▁Penn	-11048
▁disp	-11049
▁fürs	-11050
▁quad	-11051
▁zoom	-11052
ateful	-11053
forest	-11054
mented	-11055
▁Darum	-11056
▁Inner	-11057
▁Motiv	-11058
▁Other	-11059
▁Stahl	-11060
▁jener	-11061
▁sight	-11062
▁surve	-11063
ishment	-11064
▁Epidem	-11065
▁Fabrik	-11066
▁Tonnen	-11067
▁ingred	-11068
▁portra	-11069
▁satisf	-11070
▁studio	-11071
▁thanks	-11072
▁ungehe	-11073
gehalten	-11074
schlagen	-11075
▁Central	-11076
▁Lektion	-11077
▁Wirkung	-11078
▁feature	-11079
▁figures	-11080
▁operate	-11081
▁quantum	-11082
▁unusual	-11083
losigkeit	-11084
schriften	-11085
stitution	-11086
▁digitale	-11087
▁features	-11088
▁memories	-11089
▁mögliche	-11090
▁sichtbar	-11091
ikanischen	-11092
▁naturally	-11093
▁traveling	-11094
▁verwandelt	-11095
▁aufgewachsen	-11096
DA	-11097
lyn	-11098
see	-11099
▁33	-11100
▁RB	-11101
aven	-11102
cons	-11103
ehrt	-11104
fert	-11105
sper	-11106
uits	-11107
▁Pen	-11108
▁dot	-11109
burgh	-11110
lager	-11111
oking	-11112
▁Ford	-11113
▁Laut	-11114
▁Weiß	-11115
▁heil	-11116
▁lift	-11117
System	-11118
ammelt	-11119
bereit	-11120
elling	-11121
iraten	-11122
plätze	-11123
ruppen	-11124
unkten	-11125
▁Erinn	-11126
▁Rhyth	-11127
▁Würde	-11128
▁mosqu	-11129
▁piano	-11130
▁pregn	-11131
erstand	-11132
steller	-11133
▁France	-11134
▁Kompon	-11135
▁Löcher	-11136
▁Unfall	-11137
▁elimin	-11138
▁golden	-11139
▁realen	-11140
ierungen	-11141
scheidet	-11142
▁burning	-11143
▁cooking	-11144
▁enthält	-11145
▁gewählt	-11146
▁musical	-11147
▁encourage	-11148
▁kostenlos	-11149
▁terrorism	-11150
▁angenommen	-11151
▁bezeichnen	-11152
▁automatisch	-11153
▁destruction	-11154
▁photographs	-11155
▁afrikanischen	-11156
▁unglaublichen	-11157
bir	-11158
ema	-11159
▁3,	-11160
ania	-11161
gibt	-11162
mack	-11163
▁FBI	-11164
▁Que	-11165
▁ere	-11166
belie	-11167
cling	-11168
daten	-11169
fense	-11170
räger	-11171
umble	-11172
vable	-11173
üssen	-11174
▁arme	-11175
▁club	-11176
▁pump	-11177
▁sees	-11178
bücher	-11179
igungs	-11180
kelett	-11181
unting	-11182
▁Einen	-11183
▁Erdbe	-11184
▁Hunde	-11185
▁Parad	-11186
▁Space	-11187
▁blaue	-11188
▁sowas	-11189
▁storm	-11190
▁wofür	-11191
▁Dunkel	-11192
▁Kanada	-11193
▁Nobody	-11194
▁Sobald	-11195
▁anfing	-11196
▁patent	-11197
▁solved	-11198
bewegung	-11199
▁Hindern	-11200
▁actions	-11201
▁convent	-11202
▁dauerte	-11203
▁silence	-11204
▁zeigten	-11205
verhalten	-11206
▁afternoon	-11207
▁marketing	-11208
erechtigkeit	-11209
▁Terrorismus	-11210
▁Fortschritte	-11211
▁Innovationen	-11212
Ex	-11213
ima	-11214
oto	-11215
▁ok	-11216
erte	-11217
iler	-11218
kind	-11219
leib	-11220
ocal	-11221
▁Cop	-11222
▁Fal	-11223
▁Hon	-11224
▁Sup	-11225
▁mad	-11226
eding	-11227
igare	-11228
scale	-11229
▁Dazu	-11230
▁Josh	-11231
▁Mama	-11232
▁Nase	-11233
▁load	-11234
▁silk	-11235
▁trig	-11236
apital	-11237
leitet	-11238
umines	-11239
▁Gemäl	-11240
▁Immer	-11241
▁gewöh	-11242
▁staat	-11243
▁ultra	-11244
▁Anwend	-11245
▁Eigent	-11246
▁Flücht	-11247
▁Mittag	-11248
▁drives	-11249
▁fingen	-11250
▁fisher	-11251
▁formed	-11252
▁hinauf	-11253
▁orange	-11254
▁scared	-11255
▁senden	-11256
▁amounts	-11257
▁führten	-11258
▁records	-11259
▁suppose	-11260
▁unglück	-11261
▁unteren	-11262
▁witness	-11263
▁Russland	-11264
▁Webseite	-11265
▁falschen	-11266
▁leichter	-11267
▁proteins	-11268
▁verdient	-11269
▁zeichnen	-11270
▁Billionen	-11271
▁Gesichter	-11272
▁Kontinent	-11273
▁Marketing	-11274
▁ancestors	-11275
▁bekannten	-11276
▁beobachte	-11277
▁embarrass	-11278
▁pollution	-11279
▁meaningful	-11280
▁personally	-11281
▁Jahrzehnten	-11282
▁participate	-11283
▁überraschend	-11284
▁fundamentally	-11285
▁grundsätzlich	-11286
▁manufacturing	-11287
üf	-11288
hnt	-11289
▁sä	-11290
ency	-11291
etch	-11292
oted	-11293
ouds	-11294
ätzt	-11295
▁Dep	-11296
▁lon	-11297
build	-11298
chest	-11299
menge	-11300
ogram	-11301
opard	-11302
reibe	-11303
unate	-11304
▁Back	-11305
▁Leon	-11306
▁Vort	-11307
▁bell	-11308
▁dogs	-11309
▁joke	-11310
▁Diagn	-11311
▁Ohren	-11312
▁Zweif	-11313
▁polar	-11314
▁tests	-11315
▁änder	-11316
zwungen	-11317
▁Lungen	-11318
▁bestät	-11319
▁survey	-11320
underten	-11321
▁Perhaps	-11322
▁forests	-11323
▁nowhere	-11324
▁visible	-11325
▁Ereignis	-11326
▁Resultat	-11327
▁abstract	-11328
▁dramatic	-11329
▁hinunter	-11330
▁perfekte	-11331
▁verstand	-11332
▁Elefanten	-11333
▁Literatur	-11334
▁Wachstums	-11335
▁awareness	-11336
▁computing	-11337
▁framework	-11338
▁mechanism	-11339
▁schwarzen	-11340
▁überlegen	-11341
▁Regierungs	-11342
▁percentage	-11343
▁processing	-11344
▁gemeinsamen	-11345
▁Präsentation	-11346
▁presentation	-11347
▁verschwunden	-11348
▁Gerechtigkeit	-11349
▁circumstances	-11350
▁psychological	-11351
▁transportation	-11352
CA	-11353
],	-11354
rin	-11355
▁36	-11356
coln	-11357
zipl	-11358
acles	-11359
elson	-11360
gence	-11361
iders	-11362
zepte	-11363
▁1000	-11364
▁2005	-11365
▁Chef	-11366
▁brut	-11367
▁fake	-11368
▁hook	-11369
▁rout	-11370
iertes	-11371
osphor	-11372
quelle	-11373
▁House	-11374
▁Räume	-11375
▁Trick	-11376
▁breit	-11377
▁films	-11378
▁leist	-11379
▁pharm	-11380
▁roads	-11381
▁schwe	-11382
prozess	-11383
▁Neurow	-11384
▁laptop	-11385
▁neuron	-11386
▁option	-11387
▁reisen	-11388
▁verknü	-11389
▁weißen	-11390
▁ökonom	-11391
vermögen	-11392
▁Verwand	-11393
▁Vorhers	-11394
▁Zeitung	-11395
▁glamour	-11396
▁herausf	-11397
▁outcome	-11398
▁tonight	-11399
▁trinken	-11400
▁zweimal	-11401
astrophen	-11402
probieren	-11403
▁Geschenk	-11404
▁bemerkte	-11405
▁required	-11406
▁schlafen	-11407
▁sunlight	-11408
▁Angestell	-11409
▁Geräusche	-11410
▁behaupten	-11411
▁increased	-11412
▁operation	-11413
▁scheinbar	-11414
▁zufrieden	-11415
▁literature	-11416
▁Stammzellen	-11417
▁conservation	-11418
▁menschliches	-11419
▁organisieren	-11420
▁Nachhaltigkeit	-11421
yd	-11422
ato	-11423
beg	-11424
cal	-11425
mot	-11426
osn	-11427
cers	-11428
lief	-11429
very	-11430
▁Alt	-11431
▁DNS	-11432
▁Okt	-11433
▁Son	-11434
▁Wil	-11435
ettet	-11436
itors	-11437
polit	-11438
sters	-11439
▁2010	-11440
▁Coll	-11441
▁Come	-11442
▁Eier	-11443
▁Five	-11444
▁Ohne	-11445
▁baut	-11446
▁flew	-11447
▁tape	-11448
aptops	-11449
friend	-11450
recken	-11451
reiche	-11452
▁Bronx	-11453
▁Stern	-11454
▁cyber	-11455
▁false	-11456
▁humor	-11457
▁repar	-11458
▁score	-11459
▁shame	-11460
▁split	-11461
▁städt	-11462
▁taste	-11463
▁wisst	-11464
inction	-11465
ription	-11466
ultural	-11467
▁Budget	-11468
▁extens	-11469
▁grünen	-11470
▁landen	-11471
ktivität	-11472
leistung	-11473
▁Chancen	-11474
▁Nutzung	-11475
▁bekomme	-11476
▁clothes	-11477
▁diction	-11478
▁drücken	-11479
▁erkannt	-11480
▁largely	-11481
▁solange	-11482
▁tatsäch	-11483
▁Teenager	-11484
▁Versuche	-11485
▁concrete	-11486
▁creature	-11487
▁internal	-11488
▁springen	-11489
oberfläche	-11490
▁betreiben	-11491
▁erwachsen	-11492
▁gebrochen	-11493
▁providing	-11494
▁versteckt	-11495
▁vertrauen	-11496
▁Geburtstag	-11497
▁beibringen	-11498
▁conclusion	-11499
▁democratic	-11500
▁productive	-11501
▁speziellen	-11502
▁Darstellung	-11503
▁durchführen	-11504
▁Untersuchung	-11505
▁applications	-11506
▁unterrichten	-11507
▁Unfortunately	-11508
▁sustainability	-11509
▁:	-11510
las	-11511
rog	-11512
urr	-11513
adic	-11514
atar	-11515
erer	-11516
keys	-11517
ords	-11518
▁bug	-11519
▁kop	-11520
▁spo	-11521
ittel	-11522
iture	-11523
▁Cart	-11524
▁Play	-11525
▁Vari	-11526
▁Voll	-11527
▁cast	-11528
▁hang	-11529
▁horm	-11530
▁kalt	-11531
▁lens	-11532
▁loud	-11533
ducing	-11534
gesamt	-11535
opping	-11536
▁Dafür	-11537
▁Eisen	-11538
▁Henry	-11539
▁Initi	-11540
▁River	-11541
▁Spann	-11542
▁curve	-11543
▁habit	-11544
▁trend	-11545
stimmen	-11546
▁Märkte	-11547
▁Status	-11548
▁Strand	-11549
▁Versch	-11550
▁achten	-11551
▁advice	-11552
▁anhand	-11553
▁critic	-11554
▁flower	-11555
▁trafen	-11556
▁whales	-11557
▁worauf	-11558
aneously	-11559
material	-11560
sprechen	-11561
▁Anstatt	-11562
▁Schaden	-11563
▁Sternen	-11564
▁defined	-11565
▁falling	-11566
▁therapy	-11567
arbeitung	-11568
▁besseres	-11569
▁existing	-11570
▁geholfen	-11571
▁infected	-11572
▁presence	-11573
▁released	-11574
▁threaten	-11575
▁tracking	-11576
▁collected	-11577
▁hospitals	-11578
▁narrative	-11579
▁schwimmen	-11580
▁teilweise	-11581
bevölkerung	-11582
▁physically	-11583
▁sogenannte	-11584
▁appropriate	-11585
▁inspiration	-11586
▁Vorstellungen	-11587
My	-11588
ini	-11589
isl	-11590
kor	-11591
ora	-11592
Amer	-11593
ihad	-11594
izza	-11595
whel	-11596
▁Ray	-11597
▁Sud	-11598
▁toy	-11599
oring	-11600
ormen	-11601
preis	-11602
▁2007	-11603
▁Flie	-11604
▁Gute	-11605
▁Kart	-11606
▁Sant	-11607
▁Send	-11608
▁bicy	-11609
▁furn	-11610
▁grad	-11611
▁hind	-11612
▁milk	-11613
▁plot	-11614
Dollar	-11615
igsten	-11616
iosity	-11617
▁Chaos	-11618
▁Hallo	-11619
▁Saudi	-11620
▁Shang	-11621
▁Teles	-11622
▁White	-11623
▁Woman	-11624
▁immen	-11625
▁lying	-11626
▁proto	-11627
▁resil	-11628
▁ridic	-11629
▁upper	-11630
▁voran	-11631
ahnsinn	-11632
ategien	-11633
chester	-11634
sterben	-11635
▁Abfall	-11636
▁Rechts	-11637
▁Zufall	-11638
▁advent	-11639
▁dunkel	-11640
▁grosse	-11641
▁vieles	-11642
▁Johnson	-11643
▁closely	-11644
▁discipl	-11645
▁einiges	-11646
▁empathy	-11647
▁fingers	-11648
▁flowers	-11649
▁hielten	-11650
▁quarter	-11651
▁Bevölker	-11652
▁Erlebnis	-11653
▁accurate	-11654
▁transfer	-11655
▁villages	-11656
▁berichten	-11657
▁enthalten	-11658
▁gentlemen	-11659
▁protected	-11660
▁Restaurant	-11661
▁Wettbewerb	-11662
▁bezeichnet	-11663
▁moralische	-11664
▁surrounded	-11665
▁explanation	-11666
▁nachgedacht	-11667
▁potentially	-11668
▁irgendjemand	-11669
▁konzentriert	-11670
wissenschaften	-11671
▁medizinischen	-11672
wä	-11673
Ein	-11674
erie	-11675
umer	-11676
▁Hol	-11677
▁Jun	-11678
▁anb	-11679
▁mur	-11680
anche	-11681
linie	-11682
okuss	-11683
retch	-11684
telef	-11685
uther	-11686
▁2050	-11687
▁Cons	-11688
▁Ehem	-11689
▁June	-11690
▁Mosk	-11691
▁Myth	-11692
▁ausw	-11693
▁dens	-11694
▁diam	-11695
▁ears	-11696
▁elev	-11697
▁fein	-11698
▁lebe	-11699
athers	-11700
karten	-11701
ündung	-11702
▁Bevor	-11703
▁Sympt	-11704
▁While	-11705
▁adopt	-11706
▁chose	-11707
▁geste	-11708
▁inten	-11709
▁umher	-11710
▁verhe	-11711
ließend	-11712
▁Mangel	-11713
▁Nelson	-11714
▁Pflege	-11715
▁Welten	-11716
▁border	-11717
▁boring	-11718
▁deaths	-11719
▁handle	-11720
▁lokale	-11721
▁papers	-11722
▁Gericht	-11723
▁Lincoln	-11724
▁circuit	-11725
▁decline	-11726
▁fishing	-11727
▁frequen	-11728
▁instrum	-11729
▁reverse	-11730
▁treiben	-11731
▁unknown	-11732
▁Gesichts	-11733
▁administ	-11734
▁anschaut	-11735
▁combined	-11736
▁horrible	-11737
▁physikal	-11738
▁subjects	-11739
▁wireless	-11740
▁Computern	-11741
▁Computers	-11742
▁algorithm	-11743
▁darstellt	-11744
▁ernsthaft	-11745
▁komplexen	-11746
▁permanent	-11747
▁Gedächtnis	-11748
▁Jahrzehnte	-11749
▁Unterricht	-11750
▁economists	-11751
▁electronic	-11752
▁Schließlich	-11753
▁bemerkenswert	-11754
▁Gemeinschaften	-11755
li	-11756
kul	-11757
▁Kh	-11758
▁LG	-11759
▁Üb	-11760
förm	-11761
jahr	-11762
wald	-11763
zykl	-11764
▁Ann	-11765
▁Ost	-11766
▁Sec	-11767
▁mig	-11768
ahara	-11769
ahnen	-11770
erien	-11771
esome	-11772
rücke	-11773
▁Abra	-11774
▁Time	-11775
▁Tony	-11776
▁Vent	-11777
▁cave	-11778
▁frem	-11779
▁gras	-11780
▁heim	-11781
▁merk	-11782
ansion	-11783
schiff	-11784
zeigen	-11785
ätzung	-11786
▁Liber	-11787
▁Magie	-11788
▁Noten	-11789
▁Optim	-11790
▁Samen	-11791
▁clock	-11792
▁enden	-11793
▁günst	-11794
▁legit	-11795
▁renew	-11796
▁songs	-11797
identen	-11798
▁Alters	-11799
▁Newton	-11800
▁Square	-11801
▁Studio	-11802
▁clouds	-11803
▁europä	-11804
▁hängen	-11805
▁merken	-11806
▁pollen	-11807
▁script	-11808
▁spüren	-11809
▁tiefer	-11810
▁wirken	-11811
wachstum	-11812
▁Kapitel	-11813
▁Quellen	-11814
▁aufgere	-11815
▁gekauft	-11816
▁kreativ	-11817
▁weshalb	-11818
scheinend	-11819
▁Argument	-11820
▁Regionen	-11821
▁allowing	-11822
▁collapse	-11823
▁constant	-11824
▁overwhel	-11825
▁somewhat	-11826
▁stronger	-11827
▁Alexander	-11828
▁Something	-11829
▁	-11830
e	-11831
n	-11832
i	-11833
t	-11834
a	-11835
s	-11836
r	-11837
o	-11838
h	-11839
d	-11840
l	-11841
u	-11842
c	-11843
m	-11844
g	-11845
w	-11846
,	-11847
f	-11848
b	-11849
.	-11850
p	-11851
y	-11852
k	-11853
v	-11854
z	-11855
I	-11856
S	-11857
A	-11858
'	-11859
-	-11860
ü	-11861
W	-11862
ä	-11863
D	-11864
T	-11865
M	-11866
E	-11867
B	-11868
"	-11869
G	-11870
ö	-11871
0	-11872
K	-11873
U	-11874
P	-11875
F	-11876
j	-11877
L	-11878
H	-11879
N	-11880
?	-11881
x	-11882
:	-11883
R	-11884
V	-11885
C	-11886
ß	-11887
J	-11888
O	-11889
1	-11890
Z	-11891
2	-11892
q	-11893
Y	-11894
5	-11895
♫	-11896
9	-11897
–	-11898
3	-11899
4	-11900
;	-11901
8	-11902
6	-11903
7	-11904
!	-11905
Ü	-11906
Q	-11907
♪	-11908
[	-11909
]	-11910
Ä	-11911
Ö	-11912
„	-11913
“	-11914
%	-11915
’	-11916
—	-11917
/	-11918
X	-11919
&	-11920
$	-11921
»	-11922
«	-11923
é	-11924
)	-11925
(	-11926
”	-11927
á	-11928
í	-11929
‘	-11930
‹	-11931
›	-11932
+	-11933
=	-11934
ç	-11935
β	-11936
ó	-11937
°	-11938
è	-11939
⁄	-11940
ã	-11941
́	-11942
#	-11943
‟	-11944
‚	-11945
à	-11946
‒	-11947
@	-11948
^	-11949
ñ	-11950
ø	-11951
­	-11952
â	-11953
ā	-11954
É	-11955
*	-11956
`	-11957
ê	-11958
	-11959
	-11960
ï	-11961
ô	-11962
€	-11963
	-11964
Å	-11965
อ	-11966
_	-11967
	-11968
	-11969
¡	-11970
£	-11971
¥	-11972
×	-11973
ë	-11974
œ	-11975
\	-11976
©	-11977
®	-11978
Ç	-11979
ú	-11980
ý	-11981
ć	-11982
Č	-11983
ī	-11984
š	-11985
ū	-11986
ย	-11987
ร	-11988
่	-11989
你	-11990
葱	-11991
送	-11992
	-11993
ē	-11994
к	-11995
