<unk>	0
<s>	0
</s>	0
<pad>	0
en	-0
er	-1
in	-2
▁a	-3
▁t	-4
▁d	-5
ch	-6
▁,	-7
es	-8
on	-9
▁th	-10
un	-11
▁s	-12
▁.	-13
it	-14
is	-15
▁w	-16
at	-17
ie	-18
or	-19
an	-20
▁the	-21
##	-22
re	-23
▁b	-24
▁o	-25
al	-26
▁in	-27
ar	-28
▁f	-29
▁m	-30
ich	-31
te	-32
ion	-33
▁e	-34
▁an	-35
ur	-36
as	-37
le	-38
▁p	-39
▁c	-40
▁un	-41
▁S	-42
▁h	-43
us	-44
ent	-45
ge	-46
▁of	-47
ro	-48
▁n	-49
▁v	-50
AT	-51
ing	-52
▁A	-53
ung	-54
▁to	-55
▁and	-56
ll	-57
▁die	-58
ed	-59
om	-60
▁der	-61
▁E	-62
▁und	-63
▁I	-64
ig	-65
▁M	-66
ic	-67
st	-68
▁be	-69
▁D	-70
▁T	-71
▁is	-72
▁B	-73
▁P	-74
▁ein	-75
▁z	-76
ir	-77
▁g	-78
im	-79
el	-80
ut	-81
ra	-82
ter	-83
em	-84
▁W	-85
il	-86
ten	-87
▁F	-88
ot	-89
ation	-90
ol	-91
eit	-92
▁l	-93
der	-94
et	-95
am	-96
▁G	-97
▁##	-98
den	-99
▁re	-100
os	-101
##-	-102
##-##	-103
▁K	-104
ies	-105
hr	-106
um	-107
▁H	-108
▁C	-109
▁R	-110
op	-111
ct	-112
▁k	-113
sch	-114
uf	-115
ul	-116
ber	-117
iv	-118
lich	-119
▁&	-120
de	-121
▁V	-122
▁for	-123
ab	-124
ür	-125
isch	-126
icht	-127
▁Th	-128
ier	-129
▁L	-130
gen	-131
▁on	-132
▁das	-133
qu	-134
▁zu	-135
ere	-136
▁den	-137
ly	-138
ess	-139
est	-140
▁that	-141
▁U	-142
and	-143
id	-144
omm	-145
ce	-146
ers	-147
▁pro	-148
ein	-149
▁al	-150
▁r	-151
▁wh	-152
ow	-153
ach	-154
▁von	-155
▁ge	-156
ort	-157
▁st	-158
▁im	-159
uch	-160
▁y	-161
▁In	-162
ith	-163
ap	-164
▁N	-165
▁wir	-166
kt	-167
▁con	-168
if	-169
▁ist	-170
▁ver	-171
▁er	-172
▁with	-173
▁we	-174
▁1	-175
▁auf	-176
ver	-177
▁für	-178
urop	-179
ay	-180
ill	-181
▁des	-182
▁it	-183
▁mit	-184
▁are	-185
▁Z	-186
ve	-187
ad	-188
ts	-189
▁as	-190
▁The	-191
ind	-192
▁de	-193
▁so	-194
ck	-195
▁2	-196
▁St	-197
▁ne	-198
▁yo	-199
▁(	-200
iss	-201
▁)	-202
▁dies	-203
end	-204
▁Europ	-205
af	-206
ate	-207
ment	-208
ik	-209
▁se	-210
up	-211
ist	-212
ungen	-213
▁Un	-214
th	-215
ischen	-216
nen	-217
▁Ver	-218
la	-219
men	-220
ib	-221
▁O	-222
▁als	-223
ust	-224
▁eine	-225
▁ex	-226
ak	-227
pe	-228
ant	-229
▁dem	-230
▁this	-231
ne	-232
for	-233
▁An	-234
ah	-235
ity	-236
▁or	-237
▁Sie	-238
ive	-239
ien	-240
▁j	-241
▁J	-242
ial	-243
▁nicht	-244
▁:	-245
▁co	-246
▁wer	-247
art	-248
quot	-249
ug	-250
▁not	-251
und	-252
▁ha	-253
ann	-254
port	-255
über	-256
▁-	-257
ste	-258
▁le	-259
apos	-260
▁sich	-261
▁all	-262
00	-263
▁Re	-264
än	-265
ub	-266
▁werden	-267
tel	-268
ff	-269
▁by	-270
we	-271
▁have	-272
▁dass	-273
▁at	-274
rom	-275
igen	-276
ag	-277
▁es	-278
igh	-279
▁aus	-280
ens	-281
ass	-282
▁Die	-283
ain	-284
▁you	-285
▁sh	-286
uld	-287
all	-288
▁will	-289
▁com	-290
▁ab	-291
▁uns	-292
od	-293
iel	-294
ern	-295
▁über	-296
▁i	-297
ungs	-298
ions	-299
aus	-300
ure	-301
▁me	-302
▁Pr	-303
ze	-304
ommiss	-305
▁which	-306
▁Sch	-307
age	-308
ted	-309
▁was	-310
▁auch	-311
ran	-312
ben	-313
lie	-314
▁Europe	-315
▁from	-316
▁Pro	-317
▁Be	-318
ahr	-319
hen	-320
hal	-321
du	-322
och	-323
ip	-324
▁um	-325
▁We	-326
ard	-327
▁us	-328
ould	-329
▁sch	-330
▁sind	-331
uss	-332
▁ch	-333
tern	-334
pr	-335
▁pr	-336
ommission	-337
ident	-338
▁En	-339
tr	-340
▁ent	-341
og	-342
▁vor	-343
fer	-344
▁wird	-345
▁has	-346
▁hab	-347
esch	-348
ue	-349
pl	-350
mer	-351
schaf	-352
ft	-353
iz	-354
▁en	-355
▁wor	-356
ss	-357
ön	-358
ine	-359
▁res	-360
gr	-361
▁Er	-362
ud	-363
llen	-364
ang	-365
▁Par	-366
oc	-367
ous	-368
ick	-369
ische	-370
▁wie	-371
ok	-372
▁da	-373
enn	-374
ast	-375
▁he	-376
ät	-377
▁can	-378
▁man	-379
▁am	-380
our	-381
urch	-382
able	-383
etz	-384
ise	-385
form	-386
err	-387
ige	-388
▁Ar	-389
ire	-390
keit	-391
me	-392
▁hat	-393
▁ich	-394
▁oder	-395
▁sein	-396
▁our	-397
ost	-398
ament	-399
otel	-400
ore	-401
ert	-402
erv	-403
cc	-404
ia	-405
▁European	-406
ations	-407
▁Mit	-408
▁zur	-409
▁also	-410
ult	-411
beit	-412
be	-413
▁200	-414
▁haben	-415
▁sie	-416
▁comp	-417
▁ad	-418
ational	-419
ction	-420
ical	-421
heit	-422
▁/	-423
ese	-424
ition	-425
ish	-426
lichen	-427
ice	-428
▁Ein	-429
ated	-430
are	-431
▁do	-432
▁bei	-433
dern	-434
▁kön	-435
out	-436
▁einer	-437
▁!	-438
ome	-439
▁Aus	-440
rit	-441
olit	-442
▁?	-443
▁Wir	-444
aten	-445
▁Ge	-446
tz	-447
▁op	-448
hl	-449
ther	-450
fü	-451
ect	-452
pro	-453
ark	-454
he	-455
ieren	-456
ord	-457
▁unter	-458
se	-459
▁ap	-460
▁Parl	-461
▁3	-462
ru	-463
▁nach	-464
ün	-465
▁qu	-466
▁einen	-467
▁part	-468
▁your	-469
tet	-470
iert	-471
ac	-472
ms	-473
schaft	-474
ign	-475
▁Das	-476
ht	-477
her	-478
är	-479
▁te	-480
▁&#	-481
▁Fra	-482
elt	-483
ight	-484
▁Union	-485
▁its	-486
vel	-487
ates	-488
ake	-489
ob	-490
oun	-491
▁reg	-492
tra	-493
▁Ber	-494
▁gro	-495
gt	-496
ite	-497
▁durch	-498
▁ro	-499
▁Ab	-500
ank	-501
▁It	-502
▁Ich	-503
au	-504
ian	-505
▁go	-506
▁Vor	-507
ger	-508
▁but	-509
fen	-510
yste	-511
▁wur	-512
ember	-513
▁ag	-514
▁können	-515
▁there	-516
ary	-517
ide	-518
cial	-519
▁19	-520
▁sp	-521
oll	-522
liche	-523
▁Mr	-524
▁EU	-525
äs	-526
▁Gr	-527
▁ste	-528
▁tra	-529
▁Commission	-530
ose	-531
hre	-532
▁dar	-533
▁spe	-534
ör	-535
ov	-536
▁war	-537
anz	-538
▁Herr	-539
cht	-540
ear	-541
ual	-542
chen	-543
▁inc	-544
sp	-545
▁would	-546
▁mö	-547
ime	-548
eren	-549
▁more	-550
ail	-551
ance	-552
▁zum	-553
tw	-554
▁..	-555
ile	-556
▁Al	-557
▁–	-558
pt	-559
▁their	-560
▁einem	-561
▁cont	-562
rie	-563
▁gen	-564
▁been	-565
ommen	-566
▁Te	-567
▁bes	-568
▁&#9	-569
amp	-570
▁ar	-571
reat	-572
con	-573
uß	-574
glich	-575
imm	-576
ute	-577
ase	-578
▁Europä	-579
▁Le	-580
▁De	-581
chte	-582
ame	-583
ong	-584
▁This	-585
act	-586
chn	-587
▁fin	-588
▁one	-589
▁kann	-590
utz	-591
▁’	-592
▁acc	-593
ild	-594
▁dis	-595
▁up	-596
▁per	-597
ück	-598
▁diese	-599
▁Ch	-600
oss	-601
gra	-602
üss	-603
▁Sp	-604
▁nur	-605
▁Hotel	-606
ack	-607
▁coun	-608
che	-609
ont	-610
ble	-611
▁Unter	-612
▁...	-613
▁comm	-614
ugh	-615
ents	-616
▁cl	-617
▁Auf	-618
▁pl	-619
one	-620
▁should	-621
sten	-622
▁alle	-623
gan	-624
▁Der	-625
ges	-626
▁work	-627
▁bet	-628
ahl	-629
hn	-630
▁new	-631
▁;	-632
ike	-633
wer	-634
▁Se	-635
ution	-636
▁For	-637
▁sup	-638
▁out	-639
geb	-640
eine	-641
▁Pres	-642
ely	-643
hmen	-644
ree	-645
pos	-646
▁Jahr	-647
▁dieser	-648
äsident	-649
hren	-650
zu	-651
land	-652
auf	-653
▁ob	-654
ierung	-655
ld	-656
igkeit	-657
per	-658
▁jed	-659
▁4	-660
▁Es	-661
olle	-662
▁countr	-663
ner	-664
▁Dies	-665
▁pre	-666
ons	-667
reich	-668
▁very	-669
▁ind	-670
▁must	-671
av	-672
▁inter	-673
▁produ	-674
ings	-675
▁int	-676
▁5	-677
▁ma	-678
▁who	-679
▁noch	-680
▁daß	-681
▁zw	-682
▁other	-683
▁ev	-684
ktion	-685
▁Kommission	-686
ities	-687
bar	-688
formation	-689
ähr	-690
ke	-691
▁pe	-692
▁weit	-693
▁need	-694
▁they	-695
erm	-696
gram	-697
ink	-698
▁year	-699
ces	-700
▁no	-701
▁wurde	-702
▁ber	-703
tell	-704
ors	-705
wo	-706
ments	-707
▁President	-708
mit	-709
▁like	-710
▁only	-711
ater	-712
▁soll	-713
▁intern	-714
mp	-715
▁mehr	-716
▁fe	-717
▁time	-718
▁cons	-719
▁“	-720
schen	-721
▁str	-722
gel	-723
▁aber	-724
▁bec	-725
rans	-726
▁about	-727
oin	-728
▁Präsident	-729
olog	-730
rat	-731
glie	-732
üssen	-733
ystem	-734
▁wenn	-735
▁polit	-736
▁Y	-737
teil	-738
▁Reg	-739
ible	-740
fe	-741
entr	-742
▁any	-743
▁sehr	-744
ious	-745
assen	-746
▁prov	-747
▁ges	-748
ced	-749
uen	-750
lin	-751
▁müssen	-752
ange	-753
leich	-754
velop	-755
xt	-756
▁eff	-757
▁ra	-758
fl	-759
▁unser	-760
▁wo	-761
ally	-762
enz	-763
ject	-764
ry	-765
ität	-766
▁Mitglie	-767
nah	-768
hnen	-769
alt	-770
cess	-771
▁sow	-772
iament	-773
oy	-774
ans	-775
▁Arbeit	-776
arbeit	-777
ubl	-778
▁these	-779
▁serv	-780
ütz	-781
▁Parlament	-782
▁off	-783
onder	-784
▁rec	-785
ient	-786
ammen	-787
▁sol	-788
▁dire	-789
ook	-790
▁So	-791
fahr	-792
▁Member	-793
▁vie	-794
io	-795
fore	-796
ular	-797
atz	-798
ibt	-799
▁import	-800
▁hin	-801
▁20	-802
ied	-803
ility	-804
▁Men	-805
usammen	-806
▁diesem	-807
led	-808
own	-809
▁inst	-810
äl	-811
erson	-812
ider	-813
irst	-814
▁develop	-815
▁if	-816
▁Um	-817
ures	-818
ople	-819
aaten	-820
ßen	-821
igt	-822
ause	-823
ring	-824
▁la	-825
▁gegen	-826
ph	-827
▁such	-828
als	-829
halten	-830
▁report	-831
wn	-832
wend	-833
cy	-834
fol	-835
ism	-836
▁act	-837
▁rel	-838
ays	-839
änd	-840
▁gr	-841
unden	-842
▁ihre	-843
▁Ma	-844
▁Europäischen	-845
itu	-846
▁Ne	-847
▁pol	-848
▁bis	-849
▁ins	-850
▁sub	-851
▁Parliament	-852
etzt	-853
sche	-854
iven	-855
iger	-856
▁my	-857
dition	-858
▁over	-859
▁dec	-860
ative	-861
▁Zeit	-862
▁conc	-863
ateg	-864
▁%	-865
ific	-866
ks	-867
▁Ü	-868
nehmen	-869
▁into	-870
▁people	-871
▁gew	-872
▁were	-873
kte	-874
ale	-875
▁well	-876
▁Mitglied	-877
führ	-878
▁ihr	-879
▁gem	-880
lo	-881
omp	-882
ices	-883
▁best	-884
▁As	-885
▁international	-886
iden	-887
▁Mar	-888
erg	-889
ken	-890
▁some	-891
▁möchte	-892
▁use	-893
▁viel	-894
▁Im	-895
▁Or	-896
ement	-897
ats	-898
bs	-899
▁kn	-900
▁inv	-901
enden	-902
acht	-903
▁mark	-904
isten	-905
▁hier	-906
▁Über	-907
▁dif	-908
▁what	-909
▁bas	-910
▁her	-911
ene	-912
▁States	-913
▁high	-914
▁sa	-915
▁hotel	-916
conom	-917
▁trans	-918
arge	-919
icher	-920
cil	-921
▁bed	-922
▁Me	-923
▁Coun	-924
▁Q	-925
▁eines	-926
▁loc	-927
ickl	-928
▁Kon	-929
▁fre	-930
▁incl	-931
▁first	-932
uropä	-933
ull	-934
very	-935
▁6	-936
▁most	-937
▁hel	-938
ory	-939
▁countries	-940
amen	-941
▁vom	-942
▁Pl	-943
▁tr	-944
ou	-945
▁than	-946
ention	-947
▁wicht	-948
zeit	-949
▁when	-950
ett	-951
wor	-952
▁lie	-953
▁Entw	-954
▁partic	-955
▁his	-956
▁Bericht	-957
▁vers	-958
olitik	-959
fr	-960
itte	-961
▁under	-962
esent	-963
▁He	-964
iet	-965
ards	-966
pect	-967
▁them	-968
1;	-969
▁&#91;	-970
▁how	-971
itz	-972
3;	-973
▁&#93;	-974
ace	-975
▁just	-976
ages	-977
les	-978
ating	-979
▁ele	-980
▁Menschen	-981
inn	-982
▁Council	-983
▁wel	-984
sicht	-985
▁aut	-986
▁dam	-987
▁now	-988
▁sowie	-989
▁europä	-990
▁Fl	-991
▁gu	-992
▁polic	-993
ict	-994
▁support	-995
att	-996
▁again	-997
abe	-998
▁important	-999
▁room	-1000
▁make	-1001
▁fr	-1002
▁dieses	-1003
▁Land	-1004
änder	-1005
äch	-1006
ond	-1007
kl	-1008
ights	-1009
▁pla	-1010
els	-1011
▁gibt	-1012
ween	-1013
▁Comm	-1014
▁sc	-1015
halt	-1016
tre	-1017
▁econom	-1018
▁many	-1019
▁Nach	-1020
▁mo	-1021
ues	-1022
▁ass	-1023
kommen	-1024
▁between	-1025
stütz	-1026
essen	-1027
▁techn	-1028
▁requ	-1029
▁propos	-1030
halb	-1031
fter	-1032
oth	-1033
je	-1034
▁Verb	-1035
▁Mitgliedst	-1036
▁leg	-1037
▁poss	-1038
por	-1039
ware	-1040
any	-1041
ös	-1042
▁Entwickl	-1043
str	-1044
issen	-1045
▁Bed	-1046
ives	-1047
rei	-1048
fin	-1049
▁zwischen	-1050
ließ	-1051
ters	-1052
▁because	-1053
▁min	-1054
▁Intern	-1055
ho	-1056
wir	-1057
ence	-1058
ural	-1059
▁market	-1060
▁take	-1061
▁bereit	-1062
öglich	-1063
red	-1064
▁kon	-1065
legen	-1066
hand	-1067
▁pos	-1068
▁world	-1069
▁em	-1070
zie	-1071
bst	-1072
ote	-1073
▁fo	-1074
ful	-1075
▁Ent	-1076
ublic	-1077
uer	-1078
▁muss	-1079
▁find	-1080
▁All	-1081
ever	-1082
tschaft	-1083
mal	-1084
▁Produ	-1085
oint	-1086
blem	-1087
arm	-1088
rough	-1089
cted	-1090
▁US	-1091
▁par	-1092
▁sel	-1093
▁Ges	-1094
▁7	-1095
▁unsere	-1096
▁national	-1097
▁cle	-1098
▁hand	-1099
zial	-1100
▁0	-1101
▁good	-1102
hör	-1103
▁Min	-1104
▁Art	-1105
▁son	-1106
▁where	-1107
ath	-1108
▁keine	-1109
▁199	-1110
▁Ihre	-1111
dr	-1112
weit	-1113
▁av	-1114
▁8	-1115
▁bie	-1116
igung	-1117
▁made	-1118
ount	-1119
ality	-1120
▁nat	-1121
▁10	-1122
▁Ihnen	-1123
▁great	-1124
▁rem	-1125
▁disc	-1126
▁information	-1127
hm	-1128
▁two	-1129
▁„	-1130
lä	-1131
▁9	-1132
eschä	-1133
▁imp	-1134
nis	-1135
▁end	-1136
rauch	-1137
uring	-1138
▁every	-1139
achen	-1140
▁see	-1141
urn	-1142
eration	-1143
dem	-1144
▁verb	-1145
▁einz	-1146
urs	-1147
vern	-1148
▁Mitgliedstaaten	-1149
öff	-1150
▁Fin	-1151
off	-1152
▁Grund	-1153
rä	-1154
▁years	-1155
ße	-1156
▁If	-1157
▁mein	-1158
▁had	-1159
▁way	-1160
▁even	-1161
amil	-1162
▁anderen	-1163
unkt	-1164
▁product	-1165
ium	-1166
schie	-1167
fort	-1168
▁through	-1169
▁get	-1170
▁Ä	-1171
▁Europa	-1172
laub	-1173
▁system	-1174
rag	-1175
▁iss	-1176
eln	-1177
rol	-1178
▁su	-1179
▁Am	-1180
pen	-1181
geben	-1182
cept	-1183
▁Zusammen	-1184
▁Ex	-1185
▁Seit	-1186
▁those	-1187
chten	-1188
▁Bere	-1189
stand	-1190
ischer	-1191
ession	-1192
gend	-1193
▁Fr	-1194
aut	-1195
ision	-1196
forder	-1197
ER	-1198
▁gl	-1199
▁weiter	-1200
ält	-1201
▁ange	-1202
air	-1203
immer	-1204
stell	-1205
ited	-1206
ws	-1207
▁Wenn	-1208
ister	-1209
▁immer	-1210
lag	-1211
▁tak	-1212
▁order	-1213
ganis	-1214
ows	-1215
trag	-1216
ußer	-1217
▁direct	-1218
ower	-1219
▁being	-1220
weise	-1221
lick	-1222
urr	-1223
▁may	-1224
▁policy	-1225
▁right	-1226
▁ac	-1227
ument	-1228
▁Bes	-1229
▁Vorsch	-1230
erein	-1231
▁dann	-1232
▁ke	-1233
leg	-1234
▁Haus	-1235
uman	-1236
▁cent	-1237
ster	-1238
hne	-1239
▁There	-1240
▁rest	-1241
ina	-1242
▁Wh	-1243
rif	-1244
▁fact	-1245
unity	-1246
ituation	-1247
▁beg	-1248
alls	-1249
▁num	-1250
▁Bereich	-1251
ivers	-1252
▁beste	-1253
▁car	-1254
isen	-1255
▁includ	-1256
▁appro	-1257
chts	-1258
▁”	-1259
▁On	-1260
stit	-1261
▁belie	-1262
ital	-1263
▁wieder	-1264
min	-1265
▁diesen	-1266
▁differ	-1267
day	-1268
▁particular	-1269
▁Des	-1270
▁own	-1271
▁damit	-1272
▁ger	-1273
nahmen	-1274
istr	-1275
gest	-1276
ionen	-1277
▁zwe	-1278
▁gesch	-1279
▁ganz	-1280
▁Welt	-1281
▁wurden	-1282
▁mon	-1283
▁process	-1284
ior	-1285
▁fü	-1286
aur	-1287
▁Gro	-1288
lex	-1289
eins	-1290
▁resp	-1291
▁Frau	-1292
adt	-1293
▁sm	-1294
isse	-1295
nung	-1296
icherheit	-1297
▁know	-1298
ough	-1299
▁del	-1300
▁Ihr	-1301
▁At	-1302
itt	-1303
vor	-1304
iness	-1305
▁bus	-1306
▁bu	-1307
zeich	-1308
▁ph	-1309
▁Diese	-1310
sel	-1311
atter	-1312
▁area	-1313
▁Hand	-1314
gramm	-1315
get	-1316
ys	-1317
▁main	-1318
read	-1319
innen	-1320
▁Con	-1321
ouse	-1322
▁Geb	-1323
▁quest	-1324
alen	-1325
ändern	-1326
▁cre	-1327
elle	-1328
▁kein	-1329
▁unserer	-1330
schieden	-1331
par	-1332
zen	-1333
▁stand	-1334
alk	-1335
▁Rat	-1336
ool	-1337
▁agre	-1338
itä	-1339
itions	-1340
▁deb	-1341
▁You	-1342
rechen	-1343
▁help	-1344
▁Inter	-1345
▁here	-1346
▁habe	-1347
▁Zu	-1348
▁Her	-1349
▁cour	-1350
▁Gem	-1351
000	-1352
▁after	-1353
hin	-1354
ade	-1355
az	-1356
ix	-1357
▁real	-1358
round	-1359
▁form	-1360
▁sondern	-1361
▁Man	-1362
old	-1363
com	-1364
▁Str	-1365
▁Bür	-1366
▁Bar	-1367
▁jedoch	-1368
schafts	-1369
▁Br	-1370
▁seine	-1371
▁gut	-1372
▁Europäische	-1373
▁political	-1374
▁15	-1375
▁public	-1376
▁Information	-1377
▁place	-1378
▁prote	-1379
ests	-1380
▁ide	-1381
eth	-1382
ler	-1383
ince	-1384
ruck	-1385
▁possible	-1386
gesch	-1387
▁concern	-1388
tegr	-1389
▁dr	-1390
piel	-1391
▁ser	-1392
ently	-1393
▁Ind	-1394
▁Ste	-1395
▁sim	-1396
▁same	-1397
eld	-1398
mittel	-1399
▁clear	-1400
▁etw	-1401
ende	-1402
▁ausge	-1403
ved	-1404
▁est	-1405
▁Fre	-1406
öglichkeit	-1407
ktiv	-1408
iron	-1409
▁human	-1410
ply	-1411
▁neue	-1412
schließ	-1413
bens	-1414
▁heute	-1415
ata	-1416
▁wür	-1417
ierte	-1418
▁bef	-1419
▁want	-1420
▁could	-1421
▁person	-1422
▁economic	-1423
ines	-1424
▁contin	-1425
▁Unternehmen	-1426
▁effect	-1427
▁number	-1428
plic	-1429
tens	-1430
▁Än	-1431
▁offer	-1432
fach	-1433
▁incre	-1434
▁say	-1435
lagen	-1436
▁curr	-1437
▁Teil	-1438
eral	-1439
▁development	-1440
ock	-1441
▁within	-1442
▁does	-1443
▁gleich	-1444
▁Schl	-1445
▁Vers	-1446
▁then	-1447
▁level	-1448
▁Kolle	-1449
lement	-1450
▁Fran	-1451
gung	-1452
▁Germ	-1453
▁Pre	-1454
ertain	-1455
▁sec	-1456
▁Bet	-1457
lish	-1458
▁wen	-1459
line	-1460
▁avail	-1461
ax	-1462
tellt	-1463
▁Änder	-1464
ants	-1465
▁prof	-1466
osten	-1467
▁bereits	-1468
iti	-1469
▁rights	-1470
ßnahmen	-1471
▁How	-1472
isk	-1473
▁12	-1474
▁ohne	-1475
ustr	-1476
▁val	-1477
▁fest	-1478
raft	-1479
12	-1480
▁mich	-1481
▁vis	-1482
▁equ	-1483
aup	-1484
▁fund	-1485
▁selbst	-1486
▁Richt	-1487
▁used	-1488
▁Arbeits	-1489
▁both	-1490
ics	-1491
▁18	-1492
▁much	-1493
uro	-1494
ähl	-1495
▁against	-1496
▁therefore	-1497
▁lang	-1498
▁free	-1499
▁sur	-1500
▁Gen	-1501
use	-1502
▁med	-1503
▁Kl	-1504
▁mak	-1505
▁country	-1506
lage	-1507
hip	-1508
icult	-1509
▁wichtig	-1510
▁Is	-1511
▁Wer	-1512
▁hist	-1513
▁var	-1514
▁sollte	-1515
ustom	-1516
▁sign	-1517
entlich	-1518
▁fun	-1519
utions	-1520
fern	-1521
AR	-1522
▁Hin	-1523
▁Wie	-1524
▁region	-1525
ftware	-1526
▁neuen	-1527
▁europäischen	-1528
▁play	-1529
ander	-1530
▁pra	-1531
▁ihrer	-1532
äre	-1533
▁bo	-1534
bes	-1535
setz	-1536
ierten	-1537
▁full	-1538
viron	-1539
▁bring	-1540
que	-1541
▁cr	-1542
ivid	-1543
ife	-1544
ux	-1545
▁Jahren	-1546
ploy	-1547
ständ	-1548
▁bre	-1549
ulation	-1550
ma	-1551
▁provid	-1552
its	-1553
10	-1554
satz	-1555
▁social	-1556
aff	-1557
▁Fe	-1558
▁andere	-1559
▁point	-1560
reichen	-1561
ven	-1562
▁eigen	-1563
▁view	-1564
▁think	-1565
ically	-1566
▁zwei	-1567
kun	-1568
urg	-1569
agement	-1570
▁finan	-1571
▁Sicherheit	-1572
▁group	-1573
fahren	-1574
erung	-1575
wert	-1576
▁last	-1577
eut	-1578
br	-1579
▁Part	-1580
▁exper	-1581
▁without	-1582
▁exp	-1583
öß	-1584
▁denn	-1585
▁Entwicklung	-1586
▁Mon	-1587
▁still	-1588
ittee	-1589
▁opt	-1590
ets	-1591
▁meas	-1592
▁letz	-1593
▁spec	-1594
▁long	-1595
▁Frage	-1596
▁Daten	-1597
ichte	-1598
▁Ap	-1599
immt	-1600
▁priv	-1601
▁ens	-1602
vironment	-1603
licher	-1604
▁sollten	-1605
yp	-1606
▁Tra	-1607
▁mod	-1608
▁finden	-1609
▁adv	-1610
äng	-1611
esse	-1612
▁access	-1613
▁different	-1614
▁denen	-1615
▁consider	-1616
way	-1617
net	-1618
eng	-1619
▁services	-1620
▁down	-1621
kehr	-1622
iver	-1623
▁gemeins	-1624
▁möglich	-1625
▁Kommiss	-1626
▁Bürger	-1627
work	-1628
ffen	-1629
▁cap	-1630
▁Person	-1631
▁verschieden	-1632
▁govern	-1633
gar	-1634
under	-1635
▁ers	-1636
nahme	-1637
▁prin	-1638
▁gel	-1639
▁back	-1640
esen	-1641
wort	-1642
▁Kont	-1643
▁available	-1644
ohl	-1645
▁att	-1646
ST	-1647
entral	-1648
ists	-1649
ondere	-1650
ize	-1651
ritt	-1652
fra	-1653
zeug	-1654
▁unterstütz	-1655
ationen	-1656
▁require	-1657
▁bietet	-1658
ährend	-1659
▁Aut	-1660
over	-1661
ness	-1662
▁kle	-1663
ollow	-1664
ope	-1665
▁Mittel	-1666
▁look	-1667
ret	-1668
richt	-1669
▁able	-1670
uture	-1671
obal	-1672
ds	-1673
▁business	-1674
ude	-1675
▁Stand	-1676
hor	-1677
ars	-1678
▁special	-1679
akt	-1680
ibility	-1681
let	-1682
pf	-1683
iß	-1684
▁air	-1685
ep	-1686
urther	-1687
zahl	-1688
▁custom	-1689
ised	-1690
▁Wor	-1691
ready	-1692
ruct	-1693
▁small	-1694
ability	-1695
press	-1696
ience	-1697
hol	-1698
atur	-1699
OR	-1700
▁before	-1701
tem	-1702
▁liegt	-1703
▁Dem	-1704
▁dazu	-1705
▁ben	-1706
ystems	-1707
afür	-1708
war	-1709
▁allen	-1710
▁cor	-1711
▁gest	-1712
▁machen	-1713
▁viele	-1714
ator	-1715
▁future	-1716
▁open	-1717
▁pers	-1718
ispiel	-1719
alth	-1720
ienst	-1721
▁already	-1722
▁ze	-1723
▁aller	-1724
▁believe	-1725
▁design	-1726
▁Ro	-1727
▁weil	-1728
▁bek	-1729
▁et	-1730
▁fl	-1731
ilt	-1732
ahmen	-1733
vers	-1734
▁service	-1735
▁course	-1736
▁som	-1737
aben	-1738
ders	-1739
ward	-1740
yn	-1741
▁hal	-1742
▁project	-1743
▁Med	-1744
▁set	-1745
▁That	-1746
cond	-1747
▁Ziel	-1748
ahre	-1749
▁today	-1750
cl	-1751
▁Möglichkeit	-1752
▁products	-1753
gem	-1754
ktur	-1755
▁too	-1756
▁jetzt	-1757
schl	-1758
▁darauf	-1759
annt	-1760
gramme	-1761
ante	-1762
▁To	-1763
▁seiner	-1764
▁Them	-1765
kten	-1766
▁30	-1767
▁cann	-1768
zug	-1769
agen	-1770
▁könn	-1771
politik	-1772
▁But	-1773
▁Finanz	-1774
aher	-1775
▁art	-1776
ves	-1777
▁quality	-1778
welt	-1779
▁Serv	-1780
jor	-1781
esell	-1782
stitution	-1783
äh	-1784
une	-1785
ismus	-1786
▁eing	-1787
▁environment	-1788
▁größ	-1789
urity	-1790
ving	-1791
äß	-1792
man	-1793
▁fac	-1794
▁day	-1795
▁respons	-1796
▁cannot	-1797
ossen	-1798
ctor	-1799
imin	-1800
▁Sh	-1801
hält	-1802
▁Rahmen	-1803
▁data	-1804
▁Informationen	-1805
ron	-1806
itiz	-1807
lease	-1808
▁geb	-1809
▁Lage	-1810
▁certain	-1811
ting	-1812
ins	-1813
▁geht	-1814
▁kl	-1815
▁Maßnahmen	-1816
nisse	-1817
los	-1818
▁einfach	-1819
▁mir	-1820
omen	-1821
▁bin	-1822
▁Mein	-1823
▁fra	-1824
▁seit	-1825
▁prev	-1826
▁Internet	-1827
▁bro	-1828
tend	-1829
zus	-1830
▁schon	-1831
ample	-1832
▁follow	-1833
▁Rechts	-1834
▁individ	-1835
▁eas	-1836
▁case	-1837
▁And	-1838
ately	-1839
▁redu	-1840
lemen	-1841
▁Energ	-1842
▁offers	-1843
öl	-1844
▁instit	-1845
▁2009	-1846
ica	-1847
aterial	-1848
other	-1849
olution	-1850
▁Verein	-1851
iving	-1852
chie	-1853
▁Zimmer	-1854
▁neg	-1855
▁Pol	-1856
▁Gemein	-1857
▁dafür	-1858
res	-1859
▁einige	-1860
▁cal	-1861
▁impro	-1862
okrat	-1863
▁Russ	-1864
▁regard	-1865
ichten	-1866
▁put	-1867
▁Stadt	-1868
▁Commissioner	-1869
▁question	-1870
abei	-1871
ungsant	-1872
▁city	-1873
klär	-1874
▁voll	-1875
▁je	-1876
▁ter	-1877
olid	-1878
▁Amer	-1879
ätz	-1880
raph	-1881
ually	-1882
▁emp	-1883
ified	-1884
affen	-1885
iber	-1886
▁integr	-1887
folg	-1888
▁rev	-1889
▁change	-1890
▁repr	-1891
ential	-1892
ND	-1893
ctions	-1894
ren	-1895
▁oper	-1896
▁Herrn	-1897
ccess	-1898
▁financial	-1899
tain	-1900
▁during	-1901
▁Spe	-1902
cr	-1903
▁Uns	-1904
eich	-1905
▁reas	-1906
orn	-1907
▁öff	-1908
124	-1909
▁citiz	-1910
utes	-1911
imes	-1912
▁Ad	-1913
mb	-1914
▁far	-1915
grund	-1916
▁problem	-1917
▁deut	-1918
▁activ	-1919
üh	-1920
124;	-1921
▁&#124;	-1922
▁zurück	-1923
▁Ö	-1924
ilit	-1925
llt	-1926
ahn	-1927
anden	-1928
allen	-1929
▁prom	-1930
▁said	-1931
operation	-1932
amm	-1933
▁Jahre	-1934
▁energ	-1935
▁cost	-1936
▁saf	-1937
ünd	-1938
▁el	-1939
▁ihren	-1940
▁Bei	-1941
▁allem	-1942
▁nun	-1943
ucht	-1944
▁modern	-1945
▁Aussch	-1946
ove	-1947
▁fol	-1948
▁debate	-1949
▁invest	-1950
itive	-1951
itor	-1952
ichter	-1953
▁achie	-1954
▁issue	-1955
▁large	-1956
▁stat	-1957
▁Go	-1958
▁Pal	-1959
uchen	-1960
▁means	-1961
kunft	-1962
inen	-1963
▁Für	-1964
handl	-1965
▁ask	-1966
iele	-1967
punkt	-1968
cing	-1969
▁member	-1970
▁meine	-1971
▁entw	-1972
▁Form	-1973
▁rooms	-1974
▁proposal	-1975
▁famil	-1976
SC	-1977
▁Kin	-1978
bsite	-1979
äm	-1980
ily	-1981
isierung	-1982
co	-1983
▁applic	-1984
▁example	-1985
ather	-1986
▁zusammen	-1987
▁major	-1988
▁Ph	-1989
nov	-1990
▁Als	-1991
aum	-1992
▁Best	-1993
isl	-1994
reib	-1995
ways	-1996
▁eng	-1997
▁Bo	-1998
▁conf	-1999
▁present	-2000
▁meet	-2001
▁besonder	-2002
▁However	-2003
▁including	-2004
lichkeit	-2005
▁since	-2006
scheid	-2007
ites	-2008
▁Ger	-2009
▁rap	-2010
▁Our	-2011
iend	-2012
▁besch	-2013
▁comple	-2014
▁Eine	-2015
▁Eng	-2016
heiten	-2017
▁strateg	-2018
udget	-2019
▁unseren	-2020
▁che	-2021
halts	-2022
▁necess	-2023
besondere	-2024
aupt	-2025
▁technolog	-2026
▁verfü	-2027
▁situation	-2028
▁sicher	-2029
gress	-2030
▁wollen	-2031
▁Gew	-2032
illion	-2033
▁gef	-2034
mar	-2035
ether	-2036
spr	-2037
▁With	-2038
spar	-2039
führt	-2040
▁Politik	-2041
antwort	-2042
▁pass	-2043
▁Res	-2044
▁einge	-2045
▁Kommissar	-2046
ilities	-2047
▁entsp	-2048
ized	-2049
erk	-2050
▁child	-2051
▁based	-2052
▁common	-2053
▁gar	-2054
▁amend	-2055
fts	-2056
▁each	-2057
▁Gesch	-2058
ktionen	-2059
▁contr	-2060
blems	-2061
▁Auss	-2062
leist	-2063
ird	-2064
▁power	-2065
etzen	-2066
angen	-2067
org	-2068
eschäft	-2069
▁adop	-2070
▁würde	-2071
▁compet	-2072
▁Ur	-2073
unter	-2074
fass	-2075
ash	-2076
▁Bild	-2077
▁ref	-2078
▁colle	-2079
aat	-2080
▁citizens	-2081
omat	-2082
▁stay	-2083
haf	-2084
oren	-2085
▁16	-2086
▁Proje	-2087
▁Techn	-2088
immung	-2089
ule	-2090
▁found	-2091
▁Parlaments	-2092
▁cult	-2093
▁Lös	-2094
aurant	-2095
ache	-2096
reit	-2097
▁stehen	-2098
▁Committee	-2099
▁etwas	-2100
▁three	-2101
bed	-2102
genommen	-2103
▁Qu	-2104
tellen	-2105
▁Tr	-2106
▁br	-2107
▁Länder	-2108
stru	-2109
▁während	-2110
▁stud	-2111
▁allow	-2112
▁author	-2113
ased	-2114
▁object	-2115
cip	-2116
come	-2117
▁sagen	-2118
▁Euro	-2119
▁organis	-2120
▁areas	-2121
▁25	-2122
▁Deut	-2123
ott	-2124
gew	-2125
▁next	-2126
▁fil	-2127
▁measures	-2128
▁Vorschlag	-2129
▁14	-2130
▁Und	-2131
▁democ	-2132
▁respect	-2133
▁employ	-2134
ains	-2135
ablish	-2136
▁build	-2137
▁11	-2138
▁doch	-2139
iff	-2140
▁star	-2141
▁thank	-2142
gangen	-2143
▁sozial	-2144
▁give	-2145
▁rece	-2146
▁komm	-2147
▁few	-2148
vention	-2149
▁Bl	-2150
▁pres	-2151
zept	-2152
orth	-2153
▁energy	-2154
▁X	-2155
ands	-2156
▁histor	-2157
▁Rest	-2158
▁System	-2159
▁Cl	-2160
▁discuss	-2161
▁ensure	-2162
rache	-2163
amer	-2164
▁control	-2165
oten	-2166
uge	-2167
ürlich	-2168
▁provide	-2169
▁tun	-2170
▁mus	-2171
pre	-2172
▁Qual	-2173
▁dra	-2174
linie	-2175
ugen	-2176
▁Durch	-2177
▁wissen	-2178
▁erm	-2179
▁result	-2180
▁Unterstütz	-2181
▁further	-2182
ining	-2183
zw	-2184
▁erhalten	-2185
▁taken	-2186
▁insbesondere	-2187
▁Mill	-2188
▁success	-2189
▁erst	-2190
ught	-2191
asch	-2192
▁establish	-2193
▁Mo	-2194
▁agreement	-2195
▁sk	-2196
joy	-2197
schaften	-2198
▁addition	-2199
▁Kunden	-2200
falls	-2201
unde	-2202
▁Mus	-2203
▁bl	-2204
ination	-2205
gleich	-2206
▁pay	-2207
▁Markt	-2208
▁read	-2209
▁Zug	-2210
▁einmal	-2211
▁außer	-2212
▁Verfü	-2213
anken	-2214
ordnung	-2215
indet	-2216
▁Problem	-2217
pend	-2218
▁Spiel	-2219
▁Ital	-2220
▁det	-2221
iate	-2222
agt	-2223
ller	-2224
▁La	-2225
▁grow	-2226
▁inde	-2227
▁link	-2228
stellung	-2229
▁waren	-2230
▁Fall	-2231
▁position	-2232
rop	-2233
arn	-2234
opp	-2235
ziel	-2236
trä	-2237
▁law	-2238
▁17	-2239
▁vo	-2240
▁abs	-2241
legt	-2242
▁verw	-2243
▁kommen	-2244
▁Ser	-2245
▁ho	-2246
ilfe	-2247
igin	-2248
ald	-2249
▁du	-2250
▁beim	-2251
itäten	-2252
uff	-2253
ases	-2254
gang	-2255
cken	-2256
ierungs	-2257
▁come	-2258
▁company	-2259
▁pop	-2260
▁terr	-2261
▁Schw	-2262
▁opport	-2263
▁Stra	-2264
igten	-2265
▁China	-2266
▁ersten	-2267
▁problems	-2268
▁key	-2269
▁Zusammenarbeit	-2270
ules	-2271
▁Unterstützung	-2272
▁Ko	-2273
▁legisl	-2274
ditions	-2275
▁shall	-2276
ums	-2277
▁did	-2278
▁necessary	-2279
▁Group	-2280
▁Port	-2281
ements	-2282
▁schw	-2283
ek	-2284
▁begr	-2285
▁princip	-2286
▁Mad	-2287
utzen	-2288
igkeiten	-2289
ty	-2290
▁ä	-2291
▁lassen	-2292
▁security	-2293
▁Gl	-2294
▁pract	-2295
▁budget	-2296
▁Dienst	-2297
▁drei	-2298
esser	-2299
▁inform	-2300
▁groß	-2301
▁given	-2302
▁2010	-2303
▁Tag	-2304
ross	-2305
ohn	-2306
uten	-2307
▁health	-2308
▁lead	-2309
▁Änderungsant	-2310
unic	-2311
fang	-2312
▁Ländern	-2313
gre	-2314
▁Umwelt	-2315
umen	-2316
▁gra	-2317
▁why	-2318
▁hope	-2319
▁13	-2320
▁global	-2321
▁ret	-2322
▁Recht	-2323
ises	-2324
▁geben	-2325
bau	-2326
▁however	-2327
▁imm	-2328
elf	-2329
▁Proble	-2330
▁start	-2331
▁wirk	-2332
glichen	-2333
▁Sw	-2334
▁vote	-2335
▁verl	-2336
ogen	-2337
▁invol	-2338
ury	-2339
▁char	-2340
iter	-2341
▁life	-2342
▁2008	-2343
orgen	-2344
▁located	-2345
▁second	-2346
▁Deb	-2347
wards	-2348
esellschaft	-2349
▁cooperation	-2350
tschafts	-2351
burg	-2352
fung	-2353
isation	-2354
bewer	-2355
▁Da	-2356
▁tradition	-2357
▁besteht	-2358
örder	-2359
ively	-2360
▁wish	-2361
▁Geschä	-2362
öt	-2363
iety	-2364
gether	-2365
ared	-2366
app	-2367
▁Namen	-2368
ising	-2369
▁protection	-2370
▁writ	-2371
ichts	-2372
urz	-2373
asse	-2374
lossen	-2375
▁entwick	-2376
fte	-2377
▁complete	-2378
▁Sk	-2379
▁refer	-2380
▁ir	-2381
▁Red	-2382
▁implement	-2383
▁while	-2384
fre	-2385
▁wirtschaft	-2386
▁always	-2387
▁Beit	-2388
schied	-2389
▁ander	-2390
▁sehen	-2391
porte	-2392
▁needs	-2393
▁Kr	-2394
▁Fragen	-2395
führung	-2396
▁Besch	-2397
▁steht	-2398
ches	-2399
▁führen	-2400
▁sens	-2401
ried	-2402
▁Bel	-2403
▁They	-2404
▁Vol	-2405
ling	-2406
▁Ob	-2407
▁add	-2408
▁50	-2409
▁comb	-2410
▁Dar	-2411
▁seinen	-2412
lect	-2413
▁statt	-2414
▁term	-2415
licht	-2416
▁reach	-2417
ipp	-2418
earch	-2419
▁mult	-2420
irm	-2421
▁akt	-2422
wendung	-2423
▁tre	-2424
text	-2425
▁24	-2426
▁nor	-2427
▁Kar	-2428
altung	-2429
ique	-2430
▁beh	-2431
ave	-2432
▁account	-2433
EN	-2434
▁House	-2435
▁defin	-2436
▁Seite	-2437
▁diff	-2438
▁net	-2439
zieh	-2440
▁better	-2441
▁wäre	-2442
▁schne	-2443
▁Lebens	-2444
▁Service	-2445
▁War	-2446
ichterst	-2447
häng	-2448
▁interest	-2449
▁Ben	-2450
cell	-2451
▁Rom	-2452
▁Kollegen	-2453
▁using	-2454
stellen	-2455
▁dabei	-2456
zess	-2457
ätze	-2458
▁Not	-2459
▁United	-2460
▁action	-2461
ustrie	-2462
▁friend	-2463
äd	-2464
dress	-2465
▁100	-2466
▁Energie	-2467
▁fiel	-2468
ettbewer	-2469
▁legal	-2470
ranspar	-2471
▁Vertrag	-2472
▁Community	-2473
▁gehör	-2474
▁Regierung	-2475
zü	-2476
▁fav	-2477
▁men	-2478
▁glaub	-2479
ialog	-2480
▁Was	-2481
reen	-2482
schein	-2483
gaben	-2484
▁cho	-2485
▁consum	-2486
▁What	-2487
uft	-2488
▁met	-2489
▁conne	-2490
▁hö	-2491
ivil	-2492
kon	-2493
iation	-2494
bereich	-2495
▁sing	-2496
▁worden	-2497
iste	-2498
▁around	-2499
▁unt	-2500
▁muß	-2501
▁letzten	-2502
▁Gu	-2503
▁enjoy	-2504
isher	-2505
▁Famil	-2506
▁Bus	-2507
▁Lin	-2508
▁Bedeut	-2509
von	-2510
▁ble	-2511
▁mov	-2512
ämp	-2513
rechte	-2514
cher	-2515
enten	-2516
▁Comp	-2517
▁USA	-2518
iod	-2519
▁sl	-2520
ustry	-2521
▁transport	-2522
ingungen	-2523
sequ	-2524
▁Region	-2525
blick	-2526
▁working	-2527
▁Trans	-2528
▁Verfügung	-2529
undheit	-2530
obil	-2531
rän	-2532
▁großen	-2533
▁production	-2534
ikan	-2535
▁2007	-2536
▁When	-2537
gehen	-2538
▁Programm	-2539
gabe	-2540
▁große	-2541
gestellt	-2542
bo	-2543
iges	-2544
▁Hier	-2545
▁non	-2546
asser	-2547
▁crit	-2548
▁old	-2549
less	-2550
▁welche	-2551
▁Regel	-2552
▁International	-2553
▁bel	-2554
▁Bedeutung	-2555
genden	-2556
▁deren	-2557
▁short	-2558
▁centre	-2559
▁current	-2560
ervor	-2561
▁Entscheid	-2562
ölk	-2563
▁inner	-2564
markt	-2565
▁run	-2566
ify	-2567
▁Ergeb	-2568
abil	-2569
▁Mrs	-2570
▁state	-2571
▁specific	-2572
▁Kinder	-2573
▁1.	-2574
▁step	-2575
▁dist	-2576
▁particularly	-2577
▁near	-2578
▁terms	-2579
▁These	-2580
▁making	-2581
▁Air	-2582
▁become	-2583
ged	-2584
ros	-2585
▁def	-2586
▁whether	-2587
▁Gar	-2588
cially	-2589
racht	-2590
STAR	-2591
uments	-2592
▁trade	-2593
▁Fraktion	-2594
▁extre	-2595
▁less	-2596
▁individual	-2597
AN	-2598
▁Stud	-2599
▁Mal	-2600
▁appe	-2601
▁Schutz	-2602
▁water	-2603
▁Fol	-2604
▁together	-2605
▁visit	-2606
▁lim	-2607
▁exist	-2608
lev	-2609
kauf	-2610
arch	-2611
▁difficult	-2612
▁care	-2613
▁Tur	-2614
▁rapporte	-2615
▁clos	-2616
eder	-2617
uter	-2618
▁another	-2619
▁Auch	-2620
▁2000	-2621
▁Berichterst	-2622
▁Aber	-2623
hof	-2624
▁tour	-2625
immen	-2626
ünst	-2627
▁German	-2628
▁zahl	-2629
ferenz	-2630
▁beach	-2631
üt	-2632
▁Staaten	-2633
▁research	-2634
offe	-2635
▁bene	-2636
▁ear	-2637
bild	-2638
eite	-2639
▁Fun	-2640
▁Mark	-2641
▁break	-2642
▁El	-2643
▁local	-2644
▁km	-2645
ell	-2646
▁Beispiel	-2647
▁bieten	-2648
▁Zahl	-2649
druck	-2650
▁children	-2651
▁Fahr	-2652
anies	-2653
▁whole	-2654
▁issues	-2655
▁No	-2656
▁notwend	-2657
▁contrib	-2658
▁call	-2659
▁hervor	-2660
▁him	-2661
ORE	-2662
▁book	-2663
▁jeder	-2664
entrum	-2665
▁entfern	-2666
pecially	-2667
alle	-2668
xim	-2669
▁Lie	-2670
▁San	-2671
▁Thema	-2672
▁EUR	-2673
▁ann	-2674
▁show	-2675
▁bar	-2676
tellung	-2677
ished	-2678
ners	-2679
▁öffent	-2680
▁davon	-2681
▁Gä	-2682
▁richt	-2683
▁New	-2684
▁conditions	-2685
▁aff	-2686
▁darüber	-2687
arante	-2688
tract	-2689
by	-2690
▁eben	-2691
▁Co	-2692
IN	-2693
▁page	-2694
leit	-2695
▁address	-2696
▁reason	-2697
ots	-2698
astr	-2699
▁daher	-2700
▁Strateg	-2701
iar	-2702
bene	-2703
ckt	-2704
▁col	-2705
atte	-2706
▁subject	-2707
▁erforder	-2708
▁speak	-2709
▁Wirtschafts	-2710
▁systems	-2711
▁stellen	-2712
▁bew	-2713
▁Haushalts	-2714
▁alles	-2715
adies	-2716
ipt	-2717
▁Chr	-2718
▁sector	-2719
ategor	-2720
▁Produkt	-2721
▁pack	-2722
ording	-2723
▁Viel	-2724
▁Probleme	-2725
ultur	-2726
ames	-2727
▁organ	-2728
▁Fort	-2729
load	-2730
▁various	-2731
▁Weg	-2732
▁gegenüber	-2733
rieden	-2734
▁experience	-2735
▁tax	-2736
▁top	-2737
▁brauch	-2738
ufen	-2739
ody	-2740
ails	-2741
▁eigenen	-2742
▁site	-2743
kungen	-2744
ennt	-2745
▁Frauen	-2746
▁Software	-2747
▁month	-2748
▁Wahl	-2749
▁role	-2750
▁industry	-2751
▁befindet	-2752
▁pat	-2753
ours	-2754
▁sowohl	-2755
▁gesam	-2756
NDER	-2757
▁Weise	-2758
▁Ihrer	-2759
▁profession	-2760
▁guarante	-2761
▁benef	-2762
▁comfort	-2763
bt	-2764
iew	-2765
▁weitere	-2766
▁government	-2767
hö	-2768
▁mar	-2769
▁aim	-2770
oms	-2771
▁origin	-2772
ength	-2773
▁companies	-2774
▁occ	-2775
schutz	-2776
isions	-2777
ikel	-2778
▁basis	-2779
▁näch	-2780
veral	-2781
ika	-2782
▁women	-2783
▁beaut	-2784
aster	-2785
▁Seiten	-2786
▁Haupt	-2787
▁typ	-2788
▁natürlich	-2789
rodu	-2790
▁Ende	-2791
▁especially	-2792
isches	-2793
▁Geschäfts	-2794
fäh	-2795
esehen	-2796
▁meiner	-2797
▁really	-2798
▁deal	-2799
wirtschaft	-2800
▁doc	-2801
▁distr	-2802
▁gent	-2803
▁matter	-2804
▁dort	-2805
▁erreichen	-2806
▁perform	-2807
thing	-2808
vest	-2809
▁besonders	-2810
▁politischen	-2811
▁Deutsch	-2812
cle	-2813
oney	-2814
▁staff	-2815
▁wirklich	-2816
itiative	-2817
▁Alle	-2818
rift	-2819
▁close	-2820
hang	-2821
▁tot	-2822
▁hatte	-2823
▁00	-2824
▁third	-2825
▁arbeit	-2826
▁könnte	-2827
▁Forsch	-2828
▁Park	-2829
▁called	-2830
▁Grup	-2831
▁innov	-2832
▁Ausschuss	-2833
imate	-2834
▁food	-2835
sen	-2836
▁nie	-2837
▁commit	-2838
▁klar	-2839
▁Mehr	-2840
▁UN	-2841
ton	-2842
▁members	-2843
▁Zukunft	-2844
chan	-2845
riften	-2846
▁Komp	-2847
reaty	-2848
gemein	-2849
▁effort	-2850
neten	-2851
▁prior	-2852
ritte	-2853
cellent	-2854
▁done	-2855
UNDER	-2856
▁verschiedenen	-2857
gende	-2858
▁entfernt	-2859
geord	-2860
▁unterstützen	-2861
▁di	-2862
plan	-2863
part	-2864
ived	-2865
▁private	-2866
▁Hotels	-2867
▁ihnen	-2868
▁Gegen	-2869
ably	-2870
▁komp	-2871
▁period	-2872
▁+	-2873
ifiz	-2874
▁line	-2875
▁Richtlinie	-2876
UNDERSC	-2877
▁personal	-2878
UNDERSCORE	-2879
▁location	-2880
▁turn	-2881
ances	-2882
▁Tour	-2883
▁proced	-2884
▁feat	-2885
finden	-2886
▁hoch	-2887
▁lo	-2888
▁innerhalb	-2889
dings	-2890
ünft	-2891
▁Abst	-2892
▁create	-2893
▁Fest	-2894
treten	-2895
▁Zwe	-2896
ino	-2897
▁sum	-2898
ety	-2899
▁teil	-2900
▁press	-2901
▁vielen	-2902
ething	-2903
▁Situation	-2904
▁gener	-2905
zuf	-2906
▁enter	-2907
prü	-2908
▁Jan	-2909
▁ple	-2910
▁negot	-2911
werk	-2912
ograph	-2913
ima	-2914
▁Wettbewer	-2915
▁Afr	-2916
ides	-2917
ober	-2918
▁represent	-2919
▁Terr	-2920
▁install	-2921
▁Kom	-2922
ival	-2923
icient	-2924
▁prop	-2925
amt	-2926
▁2006	-2927
ican	-2928
row	-2929
▁betr	-2930
▁Rolle	-2931
ization	-2932
▁mot	-2933
duc	-2934
▁single	-2935
▁langu	-2936
ichtet	-2937
neh	-2938
▁Germany	-2939
ON	-2940
ences	-2941
▁approach	-2942
scheiden	-2943
lands	-2944
▁she	-2945
▁event	-2946
asing	-2947
▁bor	-2948
▁million	-2949
▁poin	-2950
▁Off	-2951
▁soc	-2952
▁Wind	-2953
▁home	-2954
▁decision	-2955
▁internationalen	-2956
▁reform	-2957
▁list	-2958
▁Dire	-2959
▁welt	-2960
▁Sc	-2961
▁möchten	-2962
ktor	-2963
üd	-2964
▁Woch	-2965
weisen	-2966
oment	-2967
kung	-2968
▁something	-2969
▁among	-2970
ension	-2971
▁Disk	-2972
▁job	-2973
20	-2974
▁port	-2975
▁zwar	-2976
zip	-2977
raum	-2978
▁struct	-2979
▁itself	-2980
▁town	-2981
▁general	-2982
▁rapporteur	-2983
ults	-2984
▁Nutz	-2985
▁resolution	-2986
▁direkt	-2987
▁bestimm	-2988
▁My	-2989
▁several	-2990
▁Ihren	-2991
olf	-2992
indung	-2993
fast	-2994
▁favour	-2995
▁let	-2996
▁resour	-2997
▁Kü	-2998
▁material	-2999
▁automat	-3000
▁Met	-3001
uellen	-3002
tember	-3003
▁dür	-3004
ittle	-3005
▁Verbrauch	-3006
ühr	-3007
eign	-3008
▁programme	-3009
▁Univers	-3010
iol	-3011
▁continue	-3012
ände	-3013
▁Nor	-3014
▁enc	-3015
ordin	-3016
▁hinaus	-3017
pla	-3018
ift	-3019
▁text	-3020
onds	-3021
▁aufge	-3022
mos	-3023
uth	-3024
ians	-3025
▁198	-3026
▁excellent	-3027
ai	-3028
▁Berlin	-3029
▁gentlemen	-3030
▁going	-3031
▁Technolog	-3032
ple	-3033
▁plan	-3034
isis	-3035
aps	-3036
▁introdu	-3037
▁class	-3038
▁name	-3039
▁Can	-3040
▁management	-3041
▁away	-3042
▁accept	-3043
▁ve	-3044
mework	-3045
atch	-3046
▁family	-3047
wär	-3048
▁Rück	-3049
▁progress	-3050
▁tro	-3051
▁least	-3052
ification	-3053
▁Komm	-3054
cel	-3055
▁Uhr	-3056
▁peace	-3057
▁erste	-3058
▁often	-3059
iations	-3060
▁doub	-3061
▁following	-3062
▁etc	-3063
▁contact	-3064
▁Em	-3065
hens	-3066
▁opin	-3067
rael	-3068
▁Frank	-3069
▁kind	-3070
▁europäische	-3071
ype	-3072
▁serious	-3073
▁directive	-3074
▁bal	-3075
▁range	-3076
▁understand	-3077
▁offen	-3078
gricult	-3079
▁software	-3080
▁ans	-3081
ifen	-3082
▁Pe	-3083
▁konn	-3084
▁relations	-3085
iere	-3086
ativen	-3087
▁Partner	-3088
oto	-3089
erien	-3090
▁crisis	-3091
wä	-3092
auer	-3093
▁sett	-3094
atives	-3095
nehmer	-3096
▁Fil	-3097
▁regul	-3098
▁Gra	-3099
▁Artikel	-3100
redit	-3101
▁particip	-3102
▁Do	-3103
▁World	-3104
▁rules	-3105
eiten	-3106
▁anal	-3107
räge	-3108
▁online	-3109
lock	-3110
▁apart	-3111
▁price	-3112
fehl	-3113
▁Entwicklungs	-3114
▁money	-3115
▁mach	-3116
iken	-3117
▁feel	-3118
fect	-3119
▁forward	-3120
▁Gesundheit	-3121
▁post	-3122
▁towards	-3123
▁fast	-3124
▁Meinung	-3125
▁once	-3126
▁welcome	-3127
of	-3128
▁concl	-3129
▁mention	-3130
▁express	-3131
ksam	-3132
▁Car	-3133
▁Nov	-3134
though	-3135
▁einzel	-3136
▁extrem	-3137
weg	-3138
▁ant	-3139
▁dest	-3140
reg	-3141
▁stark	-3142
ully	-3143
▁little	-3144
ec	-3145
▁Natur	-3146
▁Gäste	-3147
stück	-3148
▁Fisch	-3149
oor	-3150
icial	-3151
▁ident	-3152
ierungen	-3153
▁Projekt	-3154
icle	-3155
leistungen	-3156
produ	-3157
▁National	-3158
▁mind	-3159
▁21	-3160
▁absol	-3161
▁optim	-3162
▁Gleich	-3163
▁recog	-3164
▁communic	-3165
▁things	-3166
▁walk	-3167
▁until	-3168
▁Hilfe	-3169
sk	-3170
▁Cent	-3171
▁situ	-3172
zogen	-3173
▁customers	-3174
▁Span	-3175
roll	-3176
yl	-3177
▁Invest	-3178
voll	-3179
▁days	-3180
▁zus	-3181
▁unserem	-3182
▁Abgeord	-3183
pekt	-3184
▁Zusammenhang	-3185
ifft	-3186
▁Madam	-3187
weis	-3188
▁milit	-3189
▁Sep	-3190
▁hät	-3191
wach	-3192
met	-3193
etzung	-3194
▁kommt	-3195
airs	-3196
teilung	-3197
asst	-3198
▁institutions	-3199
▁Personen	-3200
▁beiden	-3201
haus	-3202
ference	-3203
anges	-3204
unds	-3205
ony	-3206
▁Lösung	-3207
▁Sup	-3208
itäts	-3209
▁Organis	-3210
▁schnell	-3211
▁keep	-3212
▁aid	-3213
wand	-3214
▁Jul	-3215
inter	-3216
istic	-3217
ußen	-3218
▁Bas	-3219
▁Entschließ	-3220
▁TV	-3221
ennen	-3222
▁Schluss	-3223
▁strong	-3224
enzen	-3225
esten	-3226
▁known	-3227
▁Treaty	-3228
▁ess	-3229
thers	-3230
▁Rep	-3231
▁function	-3232
▁23	-3233
bei	-3234
▁®	-3235
▁entsprechen	-3236
▁agree	-3237
gän	-3238
ured	-3239
▁Pat	-3240
▁finanz	-3241
zimmer	-3242
▁2.	-3243
▁Weit	-3244
▁Bank	-3245
▁il	-3246
platz	-3247
mat	-3248
läge	-3249
▁Kultur	-3250
▁Dieses	-3251
▁Ums	-3252
▁dev	-3253
▁hard	-3254
▁ren	-3255
ächst	-3256
▁elect	-3257
▁Produkte	-3258
▁increase	-3259
▁opportunity	-3260
ume	-3261
ieten	-3262
▁check	-3263
▁Verantwort	-3264
▁2005	-3265
▁sw	-3266
outh	-3267
50	-3268
▁big	-3269
▁Members	-3270
▁bestehen	-3271
iesen	-3272
▁weltweit	-3273
▁activities	-3274
▁40	-3275
idency	-3276
ommend	-3277
usion	-3278
leicht	-3279
▁quite	-3280
▁ja	-3281
idence	-3282
▁Char	-3283
ison	-3284
rech	-3285
▁Ass	-3286
▁bzw	-3287
▁positive	-3288
▁rather	-3289
ocus	-3290
ission	-3291
vent	-3292
aden	-3293
▁begrü	-3294
fassung	-3295
▁qual	-3296
▁stellt	-3297
▁Präsidentin	-3298
bet	-3299
▁tas	-3300
▁land	-3301
▁mean	-3302
▁Demokrat	-3303
prochen	-3304
▁provided	-3305
▁bringen	-3306
vorsch	-3307
ließen	-3308
ales	-3309
äuf	-3310
▁partners	-3311
mäß	-3312
weil	-3313
▁Preis	-3314
▁seem	-3315
▁treat	-3316
▁fully	-3317
eu	-3318
▁Minister	-3319
▁value	-3320
▁resources	-3321
▁try	-3322
▁Leben	-3323
▁Per	-3324
▁Christ	-3325
▁etwa	-3326
▁führ	-3327
baren	-3328
ency	-3329
▁Deshalb	-3330
▁bitte	-3331
▁gilt	-3332
▁growth	-3333
▁sug	-3334
▁mag	-3335
annten	-3336
▁four	-3337
stra	-3338
reiche	-3339
▁might	-3340
mosph	-3341
ären	-3342
forderungen	-3343
ports	-3344
▁stär	-3345
▁gewähr	-3346
▁weniger	-3347
▁park	-3348
▁Ort	-3349
▁daran	-3350
▁gesagt	-3351
uh	-3352
▁lab	-3353
eits	-3354
▁technology	-3355
ideo	-3356
rolle	-3357
▁Emp	-3358
▁indem	-3359
▁persön	-3360
ücksicht	-3361
▁jeden	-3362
▁spiel	-3363
yr	-3364
▁gute	-3365
iful	-3366
legenheit	-3367
▁log	-3368
▁ideal	-3369
ählen	-3370
▁Erfahr	-3371
▁Kosten	-3372
▁State	-3373
▁September	-3374
▁include	-3375
stadt	-3376
▁Date	-3377
▁After	-3378
hnt	-3379
▁Text	-3380
zeitig	-3381
ona	-3382
präsident	-3383
ämlich	-3384
▁ladies	-3385
▁yet	-3386
▁left	-3387
▁field	-3388
▁Aussp	-3389
▁admin	-3390
▁umf	-3391
side	-3392
einander	-3393
▁content	-3394
▁signific	-3395
▁sogar	-3396
kre	-3397
▁Sozial	-3398
fert	-3399
▁nämlich	-3400
frage	-3401
▁Austr	-3402
▁tem	-3403
▁genau	-3404
▁educ	-3405
alität	-3406
▁Priv	-3407
abhäng	-3408
na	-3409
letz	-3410
▁having	-3411
▁entscheiden	-3412
▁kosten	-3413
▁2004	-3414
▁light	-3415
onger	-3416
▁along	-3417
ühren	-3418
ops	-3419
▁Millionen	-3420
▁app	-3421
igungs	-3422
han	-3423
▁Web	-3424
telle	-3425
amental	-3426
▁arch	-3427
ception	-3428
▁amendments	-3429
▁proposals	-3430
liches	-3431
▁solution	-3432
wohl	-3433
▁pur	-3434
ingen	-3435
▁Rates	-3436
▁kurz	-3437
▁recht	-3438
▁week	-3439
ager	-3440
wendet	-3441
IC	-3442
bon	-3443
▁One	-3444
▁bekannt	-3445
▁Jahres	-3446
▁taking	-3447
▁Punkt	-3448
▁minutes	-3449
▁nehmen	-3450
iten	-3451
▁Geld	-3452
▁Grün	-3453
▁easy	-3454
▁erfolg	-3455
▁times	-3456
▁Zugang	-3457
▁Europas	-3458
▁Tod	-3459
▁safety	-3460
roffen	-3461
illa	-3462
▁gerade	-3463
ij	-3464
apan	-3465
▁pa	-3466
orm	-3467
▁erwar	-3468
ächlich	-3469
fully	-3470
hunder	-3471
anst	-3472
▁remain	-3473
▁flo	-3474
▁bit	-3475
▁framework	-3476
▁recommend	-3477
setzung	-3478
cript	-3479
▁costs	-3480
völk	-3481
ratic	-3482
▁creat	-3483
tragen	-3484
▁building	-3485
▁Dank	-3486
▁led	-3487
erecht	-3488
armon	-3489
▁Tür	-3490
ca	-3491
▁above	-3492
▁Institution	-3493
komm	-3494
▁ebenfalls	-3495
self	-3496
▁Israel	-3497
racy	-3498
▁tool	-3499
▁Dieser	-3500
▁excl	-3501
half	-3502
ha	-3503
▁essential	-3504
▁unterschied	-3505
stant	-3506
▁Unsere	-3507
▁adopted	-3508
▁ihn	-3509
▁Kap	-3510
verb	-3511
▁bath	-3512
▁meisten	-3513
▁gemacht	-3514
▁ü	-3515
ined	-3516
▁strength	-3517
▁Sa	-3518
▁Sta	-3519
lei	-3520
▁makes	-3521
▁Deutschland	-3522
▁Cont	-3523
wahl	-3524
▁Janu	-3525
▁Wirtschaft	-3526
iberal	-3527
▁viol	-3528
▁Angeb	-3529
▁seinem	-3530
▁freed	-3531
▁Buch	-3532
▁transpar	-3533
ethod	-3534
▁standard	-3535
ativ	-3536
ctive	-3537
▁agricult	-3538
▁Ange	-3539
▁stre	-3540
▁Ebene	-3541
▁entire	-3542
▁politische	-3543
handlungen	-3544
▁Leist	-3545
inge	-3546
▁besser	-3547
▁opinion	-3548
▁darf	-3549
▁Website	-3550
alten	-3551
ledge	-3552
▁ihm	-3553
chs	-3554
▁behalf	-3555
atten	-3556
▁Plan	-3557
▁website	-3558
▁Ins	-3559
▁Aussprache	-3560
ruktur	-3561
▁focus	-3562
nete	-3563
za	-3564
▁flex	-3565
▁Bezug	-3566
▁ak	-3567
▁charac	-3568
▁verbunden	-3569
▁economy	-3570
rimin	-3571
recht	-3572
aurants	-3573
▁Restaurant	-3574
oph	-3575
iers	-3576
ES	-3577
▁Den	-3578
▁EC	-3579
▁gehen	-3580
▁dessen	-3581
▁Qualität	-3582
▁22	-3583
▁application	-3584
iben	-3585
go	-3586
▁Tats	-3587
reicht	-3588
▁2003	-3589
▁wesent	-3590
▁legislation	-3591
bare	-3592
igital	-3593
▁points	-3594
▁unterstützt	-3595
▁Zust	-3596
ysteme	-3597
▁projects	-3598
unst	-3599
▁never	-3600
▁instr	-3601
ostel	-3602
▁Prof	-3603
▁verst	-3604
▁others	-3605
▁Antw	-3606
▁fair	-3607
▁Design	-3608
▁programm	-3609
▁provides	-3610
▁results	-3611
▁anges	-3612
▁Instr	-3613
▁sure	-3614
ested	-3615
▁deliver	-3616
▁house	-3617
▁nah	-3618
▁Flug	-3619
atis	-3620
▁effective	-3621
▁Sel	-3622
achten	-3623
ana	-3624
fs	-3625
▁due	-3626
▁return	-3627
OM	-3628
most	-3629
▁Sub	-3630
here	-3631
▁Wasser	-3632
▁bank	-3633
▁Op	-3634
▁heart	-3635
erst	-3636
▁beginn	-3637
ünf	-3638
▁Rats	-3639
igr	-3640
iled	-3641
▁attention	-3642
▁team	-3643
▁cover	-3644
▁Sol	-3645
appen	-3646
▁Ide	-3647
ishing	-3648
▁concerned	-3649
▁wahr	-3650
lung	-3651
iting	-3652
▁darin	-3653
uz	-3654
▁risk	-3655
▁Rechte	-3656
word	-3657
▁perfect	-3658
▁responsibility	-3659
aussch	-3660
▁Nicht	-3661
▁beautiful	-3662
▁dürfen	-3663
▁Fir	-3664
▁Früh	-3665
▁Verkehr	-3666
▁pot	-3667
▁glaube	-3668
gebung	-3669
▁Gemeinschaft	-3670
▁head	-3671
sweise	-3672
▁Rei	-3673
aged	-3674
tag	-3675
▁Mär	-3676
benso	-3677
▁Frei	-3678
▁Pra	-3679
▁rela	-3680
▁past	-3681
pflicht	-3682
▁Meer	-3683
mitted	-3684
▁Hö	-3685
ül	-3686
▁sty	-3687
arian	-3688
▁derzeit	-3689
ufact	-3690
▁simply	-3691
▁nichts	-3692
▁öffentlichen	-3693
▁dom	-3694
▁Just	-3695
▁appropr	-3696
hing	-3697
▁Sal	-3698
▁Ag	-3699
▁Verw	-3700
▁young	-3701
afen	-3702
▁questions	-3703
▁mass	-3704
▁moder	-3705
▁Nä	-3706
reiben	-3707
▁einigen	-3708
▁Benutz	-3709
▁schaffen	-3710
▁groups	-3711
▁policies	-3712
▁Tre	-3713
▁Abstimmung	-3714
▁importance	-3715
IT	-3716
ric	-3717
ators	-3718
itionen	-3719
ients	-3720
▁sea	-3721
▁road	-3722
▁II	-3723
schluss	-3724
oting	-3725
▁Beschäft	-3726
▁Cas	-3727
bour	-3728
▁Dr	-3729
kar	-3730
▁industr	-3731
▁Sitz	-3732
▁brauchen	-3733
▁Dok	-3734
▁sollen	-3735
▁keinen	-3736
▁society	-3737
▁total	-3738
▁context	-3739
ding	-3740
▁Groß	-3741
▁continu	-3742
berg	-3743
unkte	-3744
▁holid	-3745
▁nationalen	-3746
▁ihrem	-3747
▁version	-3748
▁2001	-3749
▁table	-3750
▁Verbraucher	-3751
▁natural	-3752
iner	-3753
▁environmental	-3754
amb	-3755
▁Kolleg	-3756
▁arr	-3757
gesehen	-3758
IS	-3759
ceed	-3760
▁Far	-3761
arbeiten	-3762
zentr	-3763
▁method	-3764
▁reserv	-3765
wür	-3766
ustain	-3767
schließlich	-3768
▁verbess	-3769
▁rad	-3770
▁Jahrhunder	-3771
▁zusätz	-3772
▁user	-3773
▁greater	-3774
zustellen	-3775
▁talk	-3776
▁Gesetz	-3777
ender	-3778
▁handelt	-3779
▁Son	-3780
äus	-3781
▁Prot	-3782
▁principle	-3783
▁strategy	-3784
wärt	-3785
▁standards	-3786
▁infl	-3787
▁increasing	-3788
▁send	-3789
verkehr	-3790
unächst	-3791
utzt	-3792
▁000	-3793
▁Mod	-3794
▁verste	-3795
▁expl	-3796
▁ed	-3797
ada	-3798
leben	-3799
ziehen	-3800
▁abge	-3801
ampf	-3802
▁weiterhin	-3803
▁Akt	-3804
▁required	-3805
hib	-3806
▁betrifft	-3807
▁views	-3808
iqu	-3809
▁Apr	-3810
▁sour	-3811
▁words	-3812
▁Zus	-3813
▁institution	-3814
uell	-3815
▁manufact	-3816
eutet	-3817
uelle	-3818
now	-3819
▁Strategie	-3820
▁Bem	-3821
▁central	-3822
ported	-3823
▁cir	-3824
▁Fortsch	-3825
unehmen	-3826
▁Windows	-3827
▁Sl	-3828
▁night	-3829
▁training	-3830
istan	-3831
▁learn	-3832
▁breakfast	-3833
zeichnet	-3834
äter	-3835
▁ur	-3836
▁music	-3837
ette	-3838
▁benöt	-3839
bereit	-3840
▁Wohn	-3841
▁Bro	-3842
rup	-3843
▁kom	-3844
▁side	-3845
astru	-3846
▁Raum	-3847
▁challen	-3848
▁deshalb	-3849
isiert	-3850
unities	-3851
▁network	-3852
rieg	-3853
▁parl	-3854
▁clean	-3855
▁moment	-3856
▁May	-3857
▁quick	-3858
▁Betrie	-3859
▁Gesellschaft	-3860
useum	-3861
▁relax	-3862
▁heraus	-3863
▁Govern	-3864
▁don	-3865
▁Pos	-3866
▁Mitarbeit	-3867
▁significant	-3868
.0	-3869
▁IT	-3870
▁lea	-3871
▁besten	-3872
▁wenig	-3873
▁bedeutet	-3874
▁wide	-3875
▁erklär	-3876
▁unver	-3877
▁deter	-3878
▁via	-3879
frastru	-3880
▁deutlich	-3881
▁regional	-3882
▁Wach	-3883
▁Kunst	-3884
▁macht	-3885
▁€	-3886
▁fa	-3887
ided	-3888
acy	-3889
ellen	-3890
▁clearly	-3891
▁u	-3892
▁Ju	-3893
▁sei	-3894
ban	-3895
haltung	-3896
▁authorities	-3897
▁solche	-3898
▁interess	-3899
▁meeting	-3900
▁technical	-3901
onen	-3902
▁demand	-3903
▁lar	-3904
▁extra	-3905
▁Besuch	-3906
▁century	-3907
▁works	-3908
▁November	-3909
AS	-3910
cen	-3911
igent	-3912
stoff	-3913
▁vol	-3914
ringen	-3915
▁pages	-3916
▁share	-3917
▁distrib	-3918
rach	-3919
▁Klima	-3920
AD	-3921
anze	-3922
▁wichtige	-3923
läss	-3924
äsent	-3925
züglich	-3926
ims	-3927
▁achieve	-3928
▁Will	-3929
atal	-3930
▁prec	-3931
▁Bezieh	-3932
▁Industrie	-3933
▁Schul	-3934
▁recent	-3935
änger	-3936
▁oft	-3937
mals	-3938
ning	-3939
ulture	-3940
▁Bü	-3941
▁aufgrund	-3942
▁cla	-3943
▁Stat	-3944
▁capital	-3945
▁cultural	-3946
▁2002	-3947
ape	-3948
▁mat	-3949
▁according	-3950
▁aspect	-3951
▁solutions	-3952
▁terror	-3953
genda	-3954
▁Such	-3955
▁Von	-3956
▁beispiel	-3957
▁nature	-3958
▁197	-3959
▁First	-3960
▁internal	-3961
▁facilities	-3962
▁though	-3963
▁directly	-3964
▁subs	-3965
▁Mail	-3966
▁findet	-3967
▁würden	-3968
▁Netz	-3969
▁months	-3970
▁test	-3971
room	-3972
erous	-3973
fall	-3974
gelegt	-3975
▁Menschenrechte	-3976
▁Ansicht	-3977
▁April	-3978
▁Fern	-3979
ritten	-3980
gesetzt	-3981
▁Richtung	-3982
▁proposed	-3983
aging	-3984
▁Prozess	-3985
▁guests	-3986
hörden	-3987
▁employment	-3988
▁verein	-3989
▁web	-3990
▁currently	-3991
▁versch	-3992
▁Demokratie	-3993
▁General	-3994
ffe	-3995
▁nächsten	-3996
▁obl	-3997
▁longer	-3998
▁responsible	-3999
▁fundamental	-4000
▁Ha	-4001
▁Bevölk	-4002
▁enough	-4003
tt	-4004
wohn	-4005
▁Japan	-4006
ser	-4007
bung	-4008
▁ern	-4009
▁Musik	-4010
▁Umsetzung	-4011
▁gewährle	-4012
▁vorgesch	-4013
▁Förder	-4014
jen	-4015
▁nutzen	-4016
▁maintain	-4017
▁history	-4018
▁Fehl	-4019
▁mount	-4020
▁Brit	-4021
elves	-4022
▁Nähe	-4023
▁erne	-4024
▁lange	-4025
▁requirements	-4026
▁Opt	-4027
▁From	-4028
▁Herren	-4029
ither	-4030
ube	-4031
▁Please	-4032
▁needed	-4033
gency	-4034
▁‘	-4035
▁sele	-4036
▁AG	-4037
▁Nord	-4038
kämp	-4039
▁Ir	-4040
▁Pf	-4041
unch	-4042
▁Wert	-4043
▁live	-4044
▁Druck	-4045
▁assist	-4046
ones	-4047
▁character	-4048
▁anim	-4049
▁events	-4050
▁interests	-4051
▁Ira	-4052
▁sy	-4053
▁betre	-4054
▁Struktur	-4055
ief	-4056
▁disk	-4057
ari	-4058
▁Verfahren	-4059
▁allerdings	-4060
▁Stre	-4061
▁vier	-4062
▁regions	-4063
▁language	-4064
vo	-4065
ables	-4066
▁Gebiet	-4067
▁Selbst	-4068
ker	-4069
▁prevent	-4070
▁developed	-4071
▁sustain	-4072
▁involved	-4073
▁Ziele	-4074
▁civil	-4075
▁Bil	-4076
▁Bau	-4077
ench	-4078
▁apply	-4079
▁station	-4080
umente	-4081
▁Verantwortung	-4082
▁Tele	-4083
drück	-4084
▁Kons	-4085
▁illeg	-4086
▁extremely	-4087
verständ	-4088
▁thems	-4089
▁voted	-4090
▁Anwendung	-4091
▁60	-4092
change	-4093
▁Bedingungen	-4094
▁themselves	-4095
▁request	-4096
▁Tro	-4097
▁Jun	-4098
▁parties	-4099
▁recogn	-4100
▁camp	-4101
llig	-4102
▁hoffe	-4103
▁democracy	-4104
entw	-4105
ean	-4106
▁implementation	-4107
▁gegeben	-4108
▁Tages	-4109
▁related	-4110
▁Eur	-4111
▁See	-4112
▁wind	-4113
aper	-4114
▁regulation	-4115
▁Prin	-4116
lauf	-4117
▁pool	-4118
▁competition	-4119
▁beispielsweise	-4120
teile	-4121
stehen	-4122
▁Außen	-4123
▁DE	-4124
äche	-4125
▁please	-4126
▁Soc	-4127
▁force	-4128
▁zie	-4129
▁Version	-4130
▁freedom	-4131
▁kont	-4132
esented	-4133
mbH	-4134
▁guarantee	-4135
▁Su	-4136
▁happen	-4137
ließlich	-4138
▁fight	-4139
▁Sicherheits	-4140
frist	-4141
irt	-4142
▁Parte	-4143
▁gemeinsamen	-4144
▁bil	-4145
▁jeweil	-4146
istischen	-4147
▁ö	-4148
▁Aug	-4149
.00	-4150
▁upon	-4151
▁Paris	-4152
▁date	-4153
▁prep	-4154
▁contain	-4155
folgt	-4156
wirkungen	-4157
▁Vorschläge	-4158
heim	-4159
▁dank	-4160
▁Einz	-4161
▁notwendig	-4162
▁Dam	-4163
üssel	-4164
▁gehört	-4165
▁Krit	-4166
▁Team	-4167
▁Wel	-4168
▁GmbH	-4169
▁Erweit	-4170
▁item	-4171
AP	-4172
ommod	-4173
▁efforts	-4174
▁Erfolg	-4175
richtung	-4176
▁Interesse	-4177
grup	-4178
▁fam	-4179
▁foreign	-4180
AL	-4181
▁nu	-4182
▁=	-4183
▁Wachst	-4184
▁Reihe	-4185
▁changes	-4186
▁vielleicht	-4187
▁kleinen	-4188
▁farm	-4189
▁wohl	-4190
ürz	-4191
peten	-4192
▁charge	-4193
obile	-4194
▁Russia	-4195
▁bedeut	-4196
▁Inst	-4197
linien	-4198
▁Einsatz	-4199
▁Aktiv	-4200
ri	-4201
ired	-4202
▁ago	-4203
igur	-4204
ienen	-4205
▁enthalten	-4206
▁Ihrem	-4207
▁Grundlage	-4208
▁comfortable	-4209
▁27	-4210
▁erziel	-4211
▁Book	-4212
▁demokrat	-4213
▁neu	-4214
gliche	-4215
cke	-4216
▁low	-4217
cies	-4218
▁Cor	-4219
▁caus	-4220
ublik	-4221
▁Wieder	-4222
▁verwendet	-4223
▁By	-4224
▁Du	-4225
▁restaurant	-4226
▁friendly	-4227
▁safe	-4228
haft	-4229
▁expect	-4230
▁sprechen	-4231
ynam	-4232
▁South	-4233
▁corre	-4234
usive	-4235
▁bevor	-4236
▁oppos	-4237
▁maxim	-4238
▁Hoch	-4239
▁Frieden	-4240
▁separ	-4241
▁protect	-4242
▁lot	-4243
▁Wort	-4244
▁zust	-4245
▁sozialen	-4246
atory	-4247
▁erreicht	-4248
▁Möglichkeiten	-4249
lied	-4250
▁situated	-4251
▁Arch	-4252
▁Geschichte	-4253
▁Kön	-4254
▁Daher	-4255
▁ermöglich	-4256
▁soon	-4257
istration	-4258
▁targe	-4259
▁Außer	-4260
lling	-4261
andid	-4262
dam	-4263
▁$	-4264
▁either	-4265
▁comes	-4266
ragen	-4267
grif	-4268
nehm	-4269
▁More	-4270
has	-4271
vert	-4272
▁minim	-4273
▁werde	-4274
urf	-4275
▁mess	-4276
ips	-4277
▁previous	-4278
▁Cour	-4279
ipped	-4280
▁France	-4281
sichtlich	-4282
onstr	-4283
▁Dis	-4284
urt	-4285
▁nam	-4286
▁cases	-4287
▁Steuer	-4288
teilt	-4289
▁cut	-4290
▁Schwe	-4291
▁berücksicht	-4292
▁Platz	-4293
hem	-4294
▁Sport	-4295
▁everything	-4296
EC	-4297
immungen	-4298
▁publ	-4299
ano	-4300
▁Blick	-4301
▁Öff	-4302
▁Mont	-4303
würd	-4304
▁Ant	-4305
▁ausgest	-4306
▁erfü	-4307
▁halten	-4308
▁Erklär	-4309
bank	-4310
arf	-4311
schn	-4312
▁Sec	-4313
tended	-4314
▁negotiations	-4315
▁unique	-4316
▁pict	-4317
▁Debatte	-4318
▁201	-4319
▁final	-4320
▁ww	-4321
▁{	-4322
merksam	-4323
▁Heraus	-4324
crib	-4325
teilen	-4326
▁einges	-4327
▁Apart	-4328
bel	-4329
▁www	-4330
▁übern	-4331
▁created	-4332
▁West	-4333
▁Integr	-4334
▁CD	-4335
▁Damen	-4336
▁Institutionen	-4337
rank	-4338
▁file	-4339
▁Kle	-4340
AC	-4341
▁markets	-4342
▁amb	-4343
gern	-4344
▁surround	-4345
ätzen	-4346
hend	-4347
geln	-4348
ichen	-4349
▁circ	-4350
auen	-4351
▁mer	-4352
▁1999	-4353
▁indic	-4354
▁Wissen	-4355
▁developing	-4356
▁höch	-4357
▁arbeiten	-4358
▁verschiedene	-4359
estern	-4360
orge	-4361
▁democratic	-4362
aring	-4363
.1	-4364
▁true	-4365
istet	-4366
▁accommod	-4367
attet	-4368
ense	-4369
▁states	-4370
zeigt	-4371
▁mail	-4372
hes	-4373
▁Webs	-4374
▁living	-4375
▁type	-4376
▁Rechn	-4377
tion	-4378
▁Funktion	-4379
▁immed	-4380
abel	-4381
▁exam	-4382
▁Unser	-4383
aler	-4384
▁French	-4385
▁Presidency	-4386
ka	-4387
▁improve	-4388
▁later	-4389
arbeitung	-4390
▁stor	-4391
▁vorgeschlagen	-4392
▁Entscheidung	-4393
▁looking	-4394
ane	-4395
▁Minuten	-4396
key	-4397
ingt	-4398
▁education	-4399
▁American	-4400
▁fünf	-4401
▁Kraft	-4402
▁monitor	-4403
rieben	-4404
▁Rad	-4405
▁additional	-4406
▁altern	-4407
inner	-4408
▁Kir	-4409
iable	-4410
▁prices	-4411
▁Adr	-4412
▁rate	-4413
best	-4414
trie	-4415
TO	-4416
▁Lis	-4417
deut	-4418
▁Mitglieder	-4419
30	-4420
▁almost	-4421
.2	-4422
cent	-4423
▁document	-4424
▁könnten	-4425
▁schwier	-4426
anten	-4427
▁included	-4428
▁verfügt	-4429
▁climate	-4430
unik	-4431
▁Frühstück	-4432
▁Pak	-4433
▁actually	-4434
▁schrift	-4435
haps	-4436
▁contract	-4437
▁travel	-4438
mut	-4439
erseits	-4440
ama	-4441
pression	-4442
▁Diskuss	-4443
▁program	-4444
▁Hers	-4445
▁famous	-4446
▁analys	-4447
prise	-4448
▁Hinblick	-4449
▁bleiben	-4450
eless	-4451
▁Änderungsantrag	-4452
ibr	-4453
▁fort	-4454
▁designed	-4455
▁gemeinsame	-4456
ipment	-4457
▁ermöglicht	-4458
bahn	-4459
ulate	-4460
▁Abkommen	-4461
▁ca	-4462
▁idea	-4463
▁join	-4464
▁seen	-4465
▁thus	-4466
pendent	-4467
▁Aff	-4468
▁196	-4469
▁hold	-4470
▁Nie	-4471
▁receive	-4472
ißt	-4473
play	-4474
techn	-4475
▁held	-4476
▁tats	-4477
▁akzept	-4478
spruch	-4479
ester	-4480
bl	-4481
ko	-4482
ental	-4483
▁»	-4484
ielle	-4485
igte	-4486
dle	-4487
▁knowledge	-4488
▁zeigt	-4489
▁hatten	-4490
kra	-4491
▁Auswirkungen	-4492
▁Mot	-4493
▁five	-4494
to	-4495
val	-4496
▁Fo	-4497
lack	-4498
▁official	-4499
▁vollständ	-4500
▁outside	-4501
▁Programme	-4502
▁Beg	-4503
▁dialog	-4504
▁Office	-4505
▁}	-4506
▁lack	-4507
▁appropriate	-4508
▁Acc	-4509
rachten	-4510
roso	-4511
laden	-4512
▁Regionen	-4513
▁ce	-4514
wegen	-4515
▁PC	-4516
▁vill	-4517
▁assoc	-4518
▁encour	-4519
▁school	-4520
▁funds	-4521
barkeit	-4522
▁führt	-4523
ogra	-4524
▁Vertre	-4525
jenigen	-4526
▁bisher	-4527
ikt	-4528
fel	-4529
auber	-4530
▁normal	-4531
▁enl	-4532
▁erforderlich	-4533
hinder	-4534
▁happ	-4535
▁que	-4536
ilar	-4537
ios	-4538
▁gesamten	-4539
put	-4540
▁hon	-4541
rechts	-4542
▁Süd	-4543
▁Lond	-4544
adurch	-4545
vin	-4546
▁Verhandlungen	-4547
▁Tatsache	-4548
usst	-4549
ires	-4550
▁Ausdruck	-4551
▁Ergebnis	-4552
bildung	-4553
▁professional	-4554
▁Che	-4555
▁Portug	-4556
folgen	-4557
▁thing	-4558
▁danken	-4559
▁procedure	-4560
▁angeb	-4561
▁funktion	-4562
ählt	-4563
▁Schritt	-4564
▁Werk	-4565
▁relev	-4566
▁Dec	-4567
▁Mil	-4568
▁Handels	-4569
SE	-4570
setzen	-4571
▁einzelnen	-4572
▁Erst	-4573
▁euro	-4574
▁Landes	-4575
▁80	-4576
▁Familien	-4577
▁workers	-4578
atisf	-4579
▁schein	-4580
▁Kolleginnen	-4581
▁Inform	-4582
handlung	-4583
feld	-4584
ungsver	-4585
ießen	-4586
▁erwä	-4587
▁Doch	-4588
gu	-4589
▁customer	-4590
▁Zentrum	-4591
▁allgemein	-4592
▁stop	-4593
▁Zur	-4594
▁propert	-4595
▁Binnen	-4596
cer	-4597
▁majority	-4598
▁ebenso	-4599
struction	-4600
▁features	-4601
frei	-4602
otos	-4603
▁Liste	-4604
▁cop	-4605
▁links	-4606
▁Abgeordneten	-4607
gegen	-4608
▁download	-4609
▁Bre	-4610
iellen	-4611
iews	-4612
öglichen	-4613
▁space	-4614
▁darum	-4615
fragen	-4616
▁suggest	-4617
▁August	-4618
öffentlich	-4619
▁commer	-4620
▁später	-4621
▁throughout	-4622
▁transl	-4623
▁eth	-4624
▁communication	-4625
▁hours	-4626
▁users	-4627
▁entwickelt	-4628
▁answer	-4629
▁Dialog	-4630
▁Antwort	-4631
▁weiß	-4632
stead	-4633
▁draw	-4634
iance	-4635
▁denke	-4636
▁Gruppe	-4637
▁enable	-4638
orf	-4639
pose	-4640
plätze	-4641
▁Up	-4642
▁Nat	-4643
.000	-4644
▁Staats	-4645
▁Luft	-4646
▁Außerdem	-4647
lle	-4648
▁early	-4649
▁Währ	-4650
isieren	-4651
▁emphas	-4652
▁Fund	-4653
imme	-4654
▁angenommen	-4655
▁Zum	-4656
▁doing	-4657
▁impact	-4658
änden	-4659
zer	-4660
▁Kre	-4661
▁aud	-4662
anced	-4663
ändert	-4664
▁traditional	-4665
▁takes	-4666
▁Ster	-4667
▁Denn	-4668
▁Leit	-4669
▁across	-4670
▁univers	-4671
cep	-4672
▁North	-4673
▁London	-4674
ging	-4675
unt	-4676
mitteln	-4677
▁behand	-4678
▁jedem	-4679
ässt	-4680
arbeitet	-4681
▁parts	-4682
▁High	-4683
▁Hol	-4684
▁ever	-4685
▁colleag	-4686
▁mentioned	-4687
▁betra	-4688
fähigkeit	-4689
programm	-4690
indest	-4691
▁guest	-4692
▁gemeinsam	-4693
oid	-4694
▁Bereichen	-4695
ült	-4696
mm	-4697
▁certainly	-4698
▁strengthen	-4699
▁Ris	-4700
▁Let	-4701
enken	-4702
▁Gemeinschafts	-4703
▁condition	-4704
liegen	-4705
▁Führ	-4706
ternal	-4707
▁intens	-4708
ländern	-4709
▁Online	-4710
ico	-4711
▁solid	-4712
▁Terror	-4713
▁internationale	-4714
▁Konferenz	-4715
▁konnte	-4716
▁befinden	-4717
▁wider	-4718
oper	-4719
▁mechan	-4720
▁proper	-4721
▁cross	-4722
zif	-4723
▁neues	-4724
▁äußer	-4725
▁lat	-4726
▁potential	-4727
kämpfung	-4728
▁setzen	-4729
ump	-4730
▁divers	-4731
▁existing	-4732
▁Mag	-4733
▁Vertra	-4734
▁card	-4735
onom	-4736
▁Sy	-4737
▁original	-4738
▁record	-4739
▁built	-4740
▁Feb	-4741
dell	-4742
▁consequ	-4743
▁Kos	-4744
▁relig	-4745
▁hinter	-4746
▁hätte	-4747
▁English	-4748
▁Kop	-4749
iens	-4750
issions	-4751
▁vorh	-4752
▁performance	-4753
▁although	-4754
ipl	-4755
▁took	-4756
ügen	-4757
uren	-4758
▁Flugh	-4759
▁Play	-4760
▁Iran	-4761
▁Pass	-4762
▁Beziehungen	-4763
▁leading	-4764
▁lux	-4765
ösen	-4766
▁posit	-4767
▁concerns	-4768
ällen	-4769
erei	-4770
EL	-4771
▁Bahn	-4772
▁gleichzeitig	-4773
äss	-4774
▁weiteren	-4775
▁neben	-4776
▁programmes	-4777
▁Pa	-4778
▁profit	-4779
va	-4780
▁investment	-4781
ork	-4782
▁tele	-4783
▁Government	-4784
▁party	-4785
▁resol	-4786
▁Bevölkerung	-4787
▁complex	-4788
este	-4789
▁zuf	-4790
▁connection	-4791
▁Proz	-4792
▁umfassen	-4793
▁Vereinigten	-4794
▁amount	-4795
igration	-4796
▁Turkey	-4797
▁aktiv	-4798
▁heißt	-4799
üsse	-4800
▁parliament	-4801
halte	-4802
▁writing	-4803
▁erhö	-4804
▁game	-4805
hab	-4806
ava	-4807
▁Verbindung	-4808
▁Ed	-4809
fortun	-4810
ctors	-4811
▁Fuß	-4812
erc	-4813
▁Mor	-4814
kr	-4815
,000	-4816
▁Aufgabe	-4817
▁jede	-4818
▁digital	-4819
▁erhe	-4820
teid	-4821
▁helfen	-4822
▁kleine	-4823
▁Interessen	-4824
▁Vis	-4825
▁Forschung	-4826
▁Schlussel	-4827
▁vö	-4828
▁Themen	-4829
▁confl	-4830
▁Court	-4831
▁absolute	-4832
kei	-4833
rad	-4834
▁aware	-4835
▁model	-4836
▁Verordnung	-4837
▁upd	-4838
▁concerning	-4839
▁Beitrag	-4840
▁completely	-4841
▁extens	-4842
▁Wettbewerbs	-4843
▁nothing	-4844
▁front	-4845
▁Com	-4846
griff	-4847
▁equipped	-4848
▁established	-4849
▁decisions	-4850
ias	-4851
▁Einzel	-4852
▁empf	-4853
▁committee	-4854
alter	-4855
richtungen	-4856
▁demonstr	-4857
▁internet	-4858
▁Rel	-4859
▁beit	-4860
IP	-4861
▁half	-4862
▁media	-4863
▁rund	-4864
▁includes	-4865
▁culture	-4866
▁assess	-4867
▁spr	-4868
ole	-4869
▁reasons	-4870
▁Barcel	-4871
▁gelten	-4872
länder	-4873
▁community	-4874
sehen	-4875
ological	-4876
▁Verpflicht	-4877
▁IS	-4878
▁Kontrolle	-4879
▁gestellt	-4880
esh	-4881
▁prakt	-4882
OS	-4883
▁Krise	-4884
▁Türkei	-4885
▁Febru	-4886
amera	-4887
▁joint	-4888
▁practice	-4889
▁28	-4890
▁mid	-4891
fon	-4892
▁meinen	-4893
▁Reform	-4894
▁holiday	-4895
▁gegenwärt	-4896
▁wichtigen	-4897
orre	-4898
aly	-4899
▁unseres	-4900
▁Förderung	-4901
▁consult	-4902
▁err	-4903
▁26	-4904
ille	-4905
▁basic	-4906
ball	-4907
affung	-4908
▁military	-4909
▁Stabil	-4910
ande	-4911
▁enlarge	-4912
▁allows	-4913
▁search	-4914
zös	-4915
mark	-4916
▁Ober	-4917
hung	-4918
▁America	-4919
ID	-4920
▁body	-4921
iterran	-4922
▁click	-4923
▁speed	-4924
ini	-4925
clear	-4926
▁spezie	-4927
▁population	-4928
int	-4929
▁gestimmt	-4930
▁Thank	-4931
▁schwer	-4932
grat	-4933
orten	-4934
licken	-4935
▁Handel	-4936
▁warm	-4937
▁verd	-4938
▁Home	-4939
▁agreements	-4940
▁Link	-4941
▁une	-4942
esserung	-4943
face	-4944
una	-4945
arity	-4946
▁wa	-4947
quis	-4948
▁Lux	-4949
▁Since	-4950
▁Management	-4951
gangenen	-4952
führen	-4953
▁oblig	-4954
▁choice	-4955
▁Standard	-4956
stre	-4957
hlen	-4958
nissen	-4959
▁files	-4960
▁red	-4961
fluss	-4962
utt	-4963
uffer	-4964
▁Kampf	-4965
▁Ru	-4966
▁Imm	-4967
▁liegen	-4968
▁becom	-4969
serv	-4970
inden	-4971
▁center	-4972
▁Mitarbeiter	-4973
formen	-4974
▁initiative	-4975
▁computer	-4976
▁jedes	-4977
▁bekommen	-4978
▁gab	-4979
▁advant	-4980
ills	-4981
▁Now	-4982
▁style	-4983
bedingungen	-4984
▁objectives	-4985
ba	-4986
▁Entschließung	-4987
▁bleibt	-4988
▁Lisbon	-4989
▁Dokument	-4990
▁transfer	-4991
▁satisf	-4992
range	-4993
istrat	-4994
▁package	-4995
ovo	-4996
▁capac	-4997
▁image	-4998
▁plann	-4999
▁Behörden	-5000
▁Strand	-5001
▁wün	-5002
▁Urlaub	-5003
▁wegen	-5004
sitz	-5005
zeugen	-5006
fil	-5007
▁prim	-5008
AM	-5009
itness	-5010
▁Reise	-5011
▁received	-5012
▁Erweiterung	-5013
▁values	-5014
▁erinn	-5015
▁nahe	-5016
zunehmen	-5017
▁jobs	-5018
rachen	-5019
▁simple	-5020
▁wunder	-5021
▁Club	-5022
▁Ausschusses	-5023
▁amer	-5024
▁Lösungen	-5025
▁Aufent	-5026
▁applications	-5027
▁Cons	-5028
abon	-5029
▁border	-5030
annte	-5031
ush	-5032
gl	-5033
▁sound	-5034
▁Bad	-5035
älle	-5036
▁poor	-5037
iated	-5038
▁fail	-5039
▁Liss	-5040
▁emer	-5041
vement	-5042
▁Damit	-5043
▁gerne	-5044
▁harmon	-5045
ying	-5046
▁Nutzung	-5047
▁face	-5048
▁pleas	-5049
▁glob	-5050
▁regarding	-5051
▁equipment	-5052
geschlossen	-5053
▁East	-5054
▁richtig	-5055
▁efficient	-5056
▁Ze	-5057
▁agricultural	-5058
▁Wochen	-5059
▁Veranst	-5060
▁lok	-5061
▁durchge	-5062
▁sag	-5063
▁Here	-5064
▁industrial	-5065
▁Prior	-5066
▁bess	-5067
▁erlaub	-5068
▁unabhäng	-5069
ologie	-5070
▁fran	-5071
▁Bitte	-5072
▁angem	-5073
▁500	-5074
▁Volk	-5075
▁verantwort	-5076
▁move	-5077
jahr	-5078
▁option	-5079
▁Stunden	-5080
öst	-5081
▁City	-5082
ördern	-5083
osen	-5084
▁benefit	-5085
▁jud	-5086
▁Augen	-5087
▁Ho	-5088
▁Auswahl	-5089
len	-5090
tes	-5091
▁Star	-5092
pected	-5093
▁broad	-5094
▁keyword	-5095
▁purch	-5096
▁wonder	-5097
▁Sim	-5098
▁Sant	-5099
▁initi	-5100
▁objective	-5101
▁Volks	-5102
▁Frankreich	-5103
▁mehrere	-5104
ology	-5105
▁sun	-5106
▁wichtigsten	-5107
▁south	-5108
▁Pan	-5109
▁herr	-5110
▁below	-5111
▁Angebot	-5112
▁reports	-5113
ourn	-5114
ET	-5115
eden	-5116
▁quickly	-5117
pite	-5118
▁attra	-5119
mbol	-5120
▁Lissabon	-5121
gesamt	-5122
ikanischen	-5123
▁engine	-5124
▁self	-5125
more	-5126
▁cru	-5127
▁Ukra	-5128
▁ganzen	-5129
▁schön	-5130
▁attack	-5131
▁code	-5132
ED	-5133
▁experien	-5134
stellungen	-5135
▁spend	-5136
jähr	-5137
uted	-5138
imension	-5139
▁Tem	-5140
lang	-5141
▁ganze	-5142
öhn	-5143
▁Zw	-5144
icles	-5145
essour	-5146
alien	-5147
▁Gebä	-5148
▁treatment	-5149
▁enthält	-5150
▁Kern	-5151
▁hinsichtlich	-5152
▁Fach	-5153
▁contains	-5154
▁floor	-5155
▁einger	-5156
▁CO	-5157
▁Forder	-5158
ason	-5159
▁Program	-5160
ernen	-5161
statt	-5162
vious	-5163
▁note	-5164
▁huge	-5165
teller	-5166
▁«	-5167
▁Innov	-5168
▁Business	-5169
ennung	-5170
▁Binnenmarkt	-5171
▁Amend	-5172
▁Notwend	-5173
▁nachhalt	-5174
▁ermöglichen	-5175
▁goods	-5176
schließend	-5177
ón	-5178
erve	-5179
▁spac	-5180
▁achieved	-5181
▁Enter	-5182
▁Les	-5183
▁rail	-5184
▁passen	-5185
inne	-5186
nern	-5187
▁Anfang	-5188
▁Verbesserung	-5189
▁wobei	-5190
undes	-5191
onnen	-5192
▁Insel	-5193
▁Post	-5194
plies	-5195
▁indeed	-5196
▁Gree	-5197
ery	-5198
brigen	-5199
▁leben	-5200
▁seems	-5201
▁popular	-5202
▁ill	-5203
▁Log	-5204
mann	-5205
▁Bra	-5206
▁trotz	-5207
ften	-5208
▁sense	-5209
▁zeigen	-5210
▁Affairs	-5211
▁Personal	-5212
▁Barcelona	-5213
fahrt	-5214
▁garant	-5215
▁Benutzer	-5216
▁double	-5217
äum	-5218
chter	-5219
▁Mic	-5220
oo	-5221
▁recently	-5222
cks	-5223
▁ut	-5224
▁Server	-5225
▁nice	-5226
▁Gelegenheit	-5227
▁Install	-5228
▁EN	-5229
▁Tage	-5230
möglichkeit	-5231
gelt	-5232
▁verg	-5233
▁leaders	-5234
▁Lauf	-5235
▁block	-5236
▁active	-5237
▁x	-5238
sterreich	-5239
▁ruh	-5240
▁Somm	-5241
▁Material	-5242
▁veh	-5243
▁beein	-5244
▁correct	-5245
▁congrat	-5246
wertungen	-5247
▁Finally	-5248
▁frü	-5249
opping	-5250
▁stage	-5251
▁garden	-5252
▁Ke	-5253
▁Some	-5254
▁June	-5255
assung	-5256
fonds	-5257
▁highly	-5258
▁mittel	-5259
wander	-5260
▁series	-5261
▁furn	-5262
▁super	-5263
ostels	-5264
erweise	-5265
▁FR	-5266
▁Mich	-5267
iveness	-5268
emb	-5269
▁Bef	-5270
itect	-5271
▁beginning	-5272
lla	-5273
▁Liefer	-5274
▁Sm	-5275
▁office	-5276
▁spielen	-5277
oppel	-5278
▁carry	-5279
▁Schaffung	-5280
rab	-5281
▁à	-5282
▁Amster	-5283
▁tw	-5284
prozess	-5285
▁vict	-5286
▁age	-5287
aving	-5288
▁oil	-5289
ering	-5290
seit	-5291
▁Jugend	-5292
▁Social	-5293
▁scient	-5294
istische	-5295
itel	-5296
▁everyone	-5297
▁Ergebnisse	-5298
▁Bud	-5299
▁einzig	-5300
▁Darüber	-5301
▁dialogue	-5302
▁kulture	-5303
ienste	-5304
▁presented	-5305
▁Global	-5306
haupt	-5307
▁Verwendung	-5308
▁völlig	-5309
▁grund	-5310
▁Central	-5311
▁exchange	-5312
▁los	-5313
▁size	-5314
vorschriften	-5315
▁Voraus	-5316
▁Roman	-5317
alu	-5318
▁levels	-5319
lassen	-5320
fortunately	-5321
▁successful	-5322
▁comprom	-5323
mor	-5324
itable	-5325
▁Woche	-5326
▁Lu	-5327
▁heut	-5328
▁verbessern	-5329
▁Anzahl	-5330
▁Krieg	-5331
▁news	-5332
▁Wachstum	-5333
▁Berg	-5334
▁31	-5335
▁Mac	-5336
▁carried	-5337
▁direction	-5338
▁Second	-5339
▁Leg	-5340
▁sent	-5341
lam	-5342
▁Linux	-5343
ßt	-5344
kennen	-5345
▁Zweit	-5346
fo	-5347
iment	-5348
▁added	-5349
▁Macht	-5350
▁Russland	-5351
temp	-5352
▁Initiative	-5353
▁Wein	-5354
▁Gewalt	-5355
▁seek	-5356
▁integration	-5357
gef	-5358
▁90	-5359
▁mal	-5360
▁konkre	-5361
▁guten	-5362
stances	-5363
icien	-5364
▁Sil	-5365
otion	-5366
▁Chin	-5367
▁traff	-5368
RO	-5369
▁reviews	-5370
▁consumers	-5371
▁stra	-5372
▁Ferien	-5373
▁lässt	-5374
▁exc	-5375
▁DV	-5376
▁eigene	-5377
▁überw	-5378
xis	-5379
ätigkeit	-5380
▁dre	-5381
▁Rot	-5382
▁Further	-5383
▁increased	-5384
▁frei	-5385
▁Golf	-5386
▁Hinter	-5387
▁Dan	-5388
▁Solid	-5389
▁principles	-5390
▁subsid	-5391
▁six	-5392
▁verwenden	-5393
anzen	-5394
▁confirm	-5395
▁Informations	-5396
▁amendment	-5397
▁Col	-5398
ara	-5399
▁sex	-5400
▁agreed	-5401
onse	-5402
▁rat	-5403
▁former	-5404
▁300	-5405
▁Don	-5406
▁Get	-5407
▁Ham	-5408
örper	-5409
imming	-5410
▁29	-5411
▁commercial	-5412
izien	-5413
▁schö	-5414
▁governments	-5415
ps	-5416
atell	-5417
ützen	-5418
▁whose	-5419
isted	-5420
▁soziale	-5421
abor	-5422
▁coll	-5423
▁har	-5424
▁Eigen	-5425
▁pan	-5426
▁verfügen	-5427
▁grundlegen	-5428
▁großer	-5429
▁Familie	-5430
hoben	-5431
fordert	-5432
▁higher	-5433
▁dang	-5434
buch	-5435
▁perhaps	-5436
▁—	-5437
▁pain	-5438
▁shows	-5439
▁asked	-5440
▁choose	-5441
▁Zeitpunkt	-5442
▁bi	-5443
▁70	-5444
▁supply	-5445
▁häuf	-5446
▁stress	-5447
▁Gip	-5448
▁gefähr	-5449
▁Vertrags	-5450
▁Aud	-5451
anner	-5452
▁atmosph	-5453
▁similar	-5454
▁Debian	-5455
aschinen	-5456
▁verfüg	-5457
träge	-5458
▁künft	-5459
▁Organisation	-5460
▁tell	-5461
▁Notwendigkeit	-5462
ams	-5463
▁diskut	-5464
▁meinem	-5465
▁Änderungen	-5466
ature	-5467
▁shown	-5468
▁Therefore	-5469
▁thanks	-5470
griffen	-5471
▁zunächst	-5472
ändig	-5473
▁anzu	-5474
pflich	-5475
▁commitment	-5476
dom	-5477
lant	-5478
ungss	-5479
bie	-5480
▁Maß	-5481
▁Män	-5482
▁ten	-5483
▁Well	-5484
▁fördern	-5485
▁obtain	-5486
atic	-5487
▁categor	-5488
ley	-5489
fält	-5490
▁hotels	-5491
▁influen	-5492
▁innovative	-5493
scht	-5494
verständlich	-5495
▁Umgebung	-5496
iko	-5497
▁Pers	-5498
▁Alt	-5499
▁Cap	-5500
▁gelegen	-5501
▁considered	-5502
▁Juni	-5503
atast	-5504
▁rein	-5505
▁gehören	-5506
▁gesamte	-5507
▁operation	-5508
▁Je	-5509
▁aspects	-5510
▁Of	-5511
▁Mai	-5512
ufficient	-5513
iglich	-5514
▁Lat	-5515
▁Erfahrung	-5516
▁Überein	-5517
▁avoid	-5518
▁Develop	-5519
ängt	-5520
▁Inde	-5521
▁effects	-5522
▁schriftlich	-5523
▁matters	-5524
▁tatsächlich	-5525
greifen	-5526
▁Nieder	-5527
inger	-5528
▁nuclear	-5529
▁Sum	-5530
▁gleichen	-5531
osp	-5532
action	-5533
▁latest	-5534
▁Beschl	-5535
standen	-5536
▁depend	-5537
▁setting	-5538
med	-5539
▁dynam	-5540
▁Weiter	-5541
▁Dez	-5542
▁Pla	-5543
▁Anwend	-5544
PE	-5545
schw	-5546
▁Herzen	-5547
▁Stellung	-5548
▁came	-5549
▁Mehrheit	-5550
▁sorgen	-5551
▁vorhanden	-5552
wise	-5553
mehr	-5554
▁Open	-5555
äst	-5556
ption	-5557
▁Balk	-5558
▁opportunities	-5559
▁Wahr	-5560
▁promote	-5561
▁phys	-5562
▁Museum	-5563
staat	-5564
▁Article	-5565
▁sofort	-5566
such	-5567
▁behind	-5568
▁accommodation	-5569
lös	-5570
organis	-5571
▁Transport	-5572
ployment	-5573
▁Tat	-5574
▁Cal	-5575
▁Kontakt	-5576
▁video	-5577
▁summer	-5578
▁eig	-5579
irit	-5580
▁Regierungen	-5581
akter	-5582
▁Loc	-5583
▁possibility	-5584
▁rates	-5585
▁review	-5586
▁komplet	-5587
▁Kommunik	-5588
▁Einführung	-5589
▁Oct	-5590
okoll	-5591
▁arg	-5592
▁Spain	-5593
▁exhib	-5594
minister	-5595
▁eindeut	-5596
▁prepared	-5597
ausch	-5598
▁atmosphere	-5599
leb	-5600
artige	-5601
▁relevant	-5602
mitt	-5603
ilen	-5604
▁lay	-5605
▁miss	-5606
astic	-5607
aufen	-5608
▁geführt	-5609
▁König	-5610
▁Amsterdam	-5611
agn	-5612
▁Dabei	-5613
▁verstär	-5614
▁terra	-5615
▁elekt	-5616
gene	-5617
▁lik	-5618
▁easily	-5619
▁Agr	-5620
essourcen	-5621
▁capacity	-5622
▁materials	-5623
▁Position	-5624
▁reached	-5625
▁response	-5626
ausschuss	-5627
▁entwickeln	-5628
▁äußerst	-5629
▁Konfl	-5630
ored	-5631
▁ernst	-5632
ously	-5633
▁Während	-5634
ühm	-5635
▁pressure	-5636
▁verstehen	-5637
itzen	-5638
itting	-5639
▁Arg	-5640
▁schle	-5641
gn	-5642
IL	-5643
▁providing	-5644
▁Italy	-5645
owers	-5646
uffet	-5647
▁Sprache	-5648
▁Dom	-5649
▁leicht	-5650
▁deta	-5651
▁Vereinbar	-5652
▁draft	-5653
ends	-5654
▁creation	-5655
▁green	-5656
▁hoff	-5657
ierenden	-5658
▁größten	-5659
▁Ratspräsident	-5660
ahren	-5661
▁decided	-5662
▁Rev	-5663
umb	-5664
iction	-5665
unsch	-5666
▁death	-5667
icherung	-5668
▁geschlossen	-5669
arily	-5670
▁external	-5671
quare	-5672
idel	-5673
▁criter	-5674
▁fal	-5675
des	-5676
▁submitted	-5677
▁Convention	-5678
aren	-5679
▁gewährleisten	-5680
▁dring	-5681
rechend	-5682
▁sustainable	-5683
▁Aktivitäten	-5684
▁Eing	-5685
▁somit	-5686
▁af	-5687
▁prob	-5688
▁prepar	-5689
▁Africa	-5690
zub	-5691
▁Camp	-5692
ächt	-5693
▁hohen	-5694
▁Market	-5695
▁coming	-5696
just	-5697
▁sites	-5698
▁condu	-5699
zeugt	-5700
▁gross	-5701
▁details	-5702
▁Höhe	-5703
▁ord	-5704
▁closed	-5705
▁lediglich	-5706
▁reduce	-5707
▁gives	-5708
▁Stad	-5709
istics	-5710
▁Republic	-5711
will	-5712
▁concept	-5713
rid	-5714
▁Produktion	-5715
▁erfolgreich	-5716
rang	-5717
▁Neben	-5718
iately	-5719
▁regular	-5720
kraft	-5721
▁Bu	-5722
▁beteil	-5723
▁neigh	-5724
▁register	-5725
▁places	-5726
▁gebracht	-5727
▁ausgestattet	-5728
▁verpflich	-5729
▁Wettbewerb	-5730
▁35	-5731
▁1998	-5732
▁Ents	-5733
ibilities	-5734
▁Fehler	-5735
▁Integration	-5736
ja	-5737
▁Net	-5738
▁WTO	-5739
▁Sicht	-5740
▁Gemeins	-5741
▁display	-5742
ierter	-5743
▁employe	-5744
és	-5745
bert	-5746
ounts	-5747
iles	-5748
uern	-5749
▁property	-5750
▁train	-5751
estens	-5752
▁announ	-5753
▁board	-5754
ulgar	-5755
▁Har	-5756
▁Komprom	-5757
jekt	-5758
▁Film	-5759
▁Western	-5760
▁erschein	-5761
▁March	-5762
▁British	-5763
▁Down	-5764
▁Systems	-5765
▁Also	-5766
▁wirtschaftliche	-5767
▁island	-5768
▁Kommissarin	-5769
▁actions	-5770
▁determin	-5771
▁cause	-5772
volle	-5773
▁December	-5774
▁suffer	-5775
iture	-5776
▁zweite	-5777
▁Di	-5778
▁enlargement	-5779
▁virt	-5780
▁meines	-5781
▁bestimmte	-5782
▁adap	-5783
▁Erachten	-5784
▁leave	-5785
▁vern	-5786
▁Erachtens	-5787
▁architect	-5788
▁Spa	-5789
roat	-5790
▁priority	-5791
▁anderer	-5792
▁Kosovo	-5793
▁Kan	-5794
OL	-5795
ki	-5796
▁Bekämpfung	-5797
uel	-5798
▁Ukraine	-5799
▁Instrument	-5800
▁Booking	-5801
▁partner	-5802
▁independent	-5803
▁consumer	-5804
▁Okt	-5805
▁obwohl	-5806
▁credit	-5807
▁Italien	-5808
▁Dinge	-5809
maßnahmen	-5810
▁Freiheit	-5811
▁zahlreiche	-5812
ney	-5813
▁sport	-5814
▁Jed	-5815
▁balance	-5816
▁ground	-5817
▁Standpunkt	-5818
stellt	-5819
industrie	-5820
▁schl	-5821
▁repla	-5822
▁discover	-5823
▁Aspe	-5824
rehens	-5825
▁limited	-5826
▁remains	-5827
ado	-5828
▁Oper	-5829
▁funding	-5830
▁supported	-5831
▁01	-5832
▁ähn	-5833
rief	-5834
IM	-5835
emin	-5836
zeuge	-5837
▁bestimmten	-5838
▁vorgesehen	-5839
▁hy	-5840
,5	-5841
▁Medien	-5842
▁assistance	-5843
▁erhält	-5844
mo	-5845
▁rep	-5846
▁York	-5847
altungs	-5848
▁Folgen	-5849
▁Jo	-5850
cker	-5851
▁purpose	-5852
▁foot	-5853
▁movement	-5854
▁Transpar	-5855
▁Mediterran	-5856
▁Exper	-5857
▁Party	-5858
▁mobile	-5859
▁Punkte	-5860
▁Gruppen	-5861
▁Services	-5862
selves	-5863
ündet	-5864
▁liberal	-5865
ilos	-5866
kommens	-5867
▁administrat	-5868
▁appear	-5869
▁hor	-5870
▁Nur	-5871
▁highl	-5872
▁entde	-5873
setzungen	-5874
adem	-5875
▁französ	-5876
▁Bestimmungen	-5877
▁tragen	-5878
▁describ	-5879
zy	-5880
▁vorlie	-5881
▁Instit	-5882
▁woll	-5883
posed	-5884
▁einschließlich	-5885
▁regulations	-5886
▁neuer	-5887
▁prot	-5888
▁restaurants	-5889
▁Basis	-5890
icy	-5891
▁quiet	-5892
▁erweit	-5893
ugs	-5894
▁billion	-5895
▁lic	-5896
▁Fortschritte	-5897
▁erk	-5898
▁Verkehrs	-5899
▁IN	-5900
▁Wohl	-5901
otes	-5902
▁Italian	-5903
▁Stelle	-5904
▁brought	-5905
legenheiten	-5906
▁January	-5907
▁rich	-5908
atastrop	-5909
itzer	-5910
▁Preise	-5911
▁unterst	-5912
▁ko	-5913
▁construction	-5914
▁Dezember	-5915
▁Erklärung	-5916
mäßig	-5917
▁sagte	-5918
▁Pap	-5919
uert	-5920
▁Site	-5921
▁pleased	-5922
where	-5923
▁fix	-5924
▁October	-5925
▁Last	-5926
▁north	-5927
▁forms	-5928
iedr	-5929
▁PL	-5930
▁limit	-5931
iciency	-5932
▁creating	-5933
▁bestät	-5934
▁Ter	-5935
▁exec	-5936
▁dadurch	-5937
▁solchen	-5938
▁scheint	-5939
inal	-5940
▁außerdem	-5941
▁categories	-5942
▁produced	-5943
▁apartment	-5944
▁rule	-5945
lav	-5946
▁gewor	-5947
▁largest	-5948
▁Zeich	-5949
▁allein	-5950
▁source	-5951
▁airport	-5952
▁fig	-5953
geber	-5954
ena	-5955
▁else	-5956
▁gemäß	-5957
▁insgesamt	-5958
▁Schweiz	-5959
ieg	-5960
ournal	-5961
▁Berichts	-5962
spiel	-5963
schnitt	-5964
ehen	-5965
wertung	-5966
hindern	-5967
▁erster	-5968
▁friends	-5969
etimes	-5970
▁Gal	-5971
▁Prü	-5972
▁wid	-5973
resp	-5974
▁versuchen	-5975
▁DVD	-5976
lemented	-5977
▁Organ	-5978
▁Vorschriften	-5979
▁Fed	-5980
▁Af	-5981
ategorien	-5982
.5	-5983
▁Gefahr	-5984
▁Det	-5985
▁Bundes	-5986
▁effe	-5987
▁discussion	-5988
ero	-5989
▁Ged	-5990
ghan	-5991
▁host	-5992
▁conference	-5993
▁Free	-5994
▁distance	-5995
▁Forschungs	-5996
▁renov	-5997
▁repe	-5998
ützt	-5999
▁aufgenommen	-6000
▁instead	-6001
▁thous	-6002
stein	-6003
▁west	-6004
▁variety	-6005
▁Neu	-6006
▁alten	-6007
▁zweiten	-6008
möglichkeiten	-6009
bewertungen	-6010
▁chem	-6011
▁einzige	-6012
▁Privat	-6013
▁Unterk	-6014
▁sus	-6015
▁expla	-6016
▁measure	-6017
▁Mart	-6018
▁hohe	-6019
stag	-6020
iot	-6021
ritts	-6022
isc	-6023
gesellschaft	-6024
▁Mediterranean	-6025
▁message	-6026
merksamkeit	-6027
reibung	-6028
sy	-6029
▁King	-6030
▁Flughafen	-6031
▁Jahrhundert	-6032
▁tä	-6033
▁Wo	-6034
▁Every	-6035
▁bein	-6036
▁Anforderungen	-6037
▁interesting	-6038
▁Aufmerksamkeit	-6039
▁steps	-6040
▁Bilder	-6041
▁fishing	-6042
▁Unternehmens	-6043
▁vergangenen	-6044
▁dat	-6045
endes	-6046
porate	-6047
▁study	-6048
▁Gesundheits	-6049
hil	-6050
▁gee	-6051
▁became	-6052
legung	-6053
▁legislative	-6054
▁ways	-6055
anischen	-6056
isters	-6057
▁Mos	-6058
▁ext	-6059
lekt	-6060
▁März	-6061
unternehmen	-6062
▁erheb	-6063
▁Entscheidungen	-6064
aft	-6065
▁dut	-6066
▁Projekte	-6067
▁Öffentlich	-6068
▁genießen	-6069
▁obvious	-6070
ächen	-6071
igungen	-6072
▁started	-6073
▁Mult	-6074
chsel	-6075
▁ändern	-6076
▁Today	-6077
▁Technologie	-6078
parte	-6079
ader	-6080
▁Küche	-6081
▁194	-6082
kn	-6083
▁regards	-6084
▁Abend	-6085
▁Oktober	-6086
bre	-6087
▁accord	-6088
▁hous	-6089
▁compon	-6090
falt	-6091
▁relationship	-6092
▁fisher	-6093
oking	-6094
▁allowed	-6095
▁task	-6096
▁stability	-6097
cement	-6098
▁round	-6099
▁Computer	-6100
▁Sign	-6101
▁instrument	-6102
anging	-6103
▁hervorra	-6104
besch	-6105
ürf	-6106
▁medium	-6107
▁Protokoll	-6108
lines	-6109
▁Ost	-6110
▁Prinzip	-6111
ämt	-6112
polit	-6113
▁Imp	-6114
▁keiner	-6115
▁Tex	-6116
▁kit	-6117
▁Metho	-6118
angt	-6119
▁Villa	-6120
▁vertreten	-6121
▁eigentlich	-6122
▁Hung	-6123
utter	-6124
altet	-6125
▁Bon	-6126
▁mor	-6127
▁procedures	-6128
▁produce	-6129
▁morgen	-6130
▁Städ	-6131
mission	-6132
▁Landwirtschaft	-6133
anlage	-6134
▁san	-6135
ronic	-6136
yond	-6137
▁exact	-6138
▁status	-6139
▁Öffentlichkeit	-6140
kont	-6141
▁Staat	-6142
▁word	-6143
▁compromise	-6144
▁div	-6145
▁Spanish	-6146
▁written	-6147
▁Erzeug	-6148
▁Ansatz	-6149
▁konzentr	-6150
▁giving	-6151
▁Test	-6152
▁betroffen	-6153
▁evalu	-6154
ägt	-6155
▁film	-6156
▁Bereiche	-6157
▁Beschäftigung	-6158
iker	-6159
▁activity	-6160
▁She	-6161
▁Anfrage	-6162
▁Rights	-6163
▁Grenzen	-6164
▁pal	-6165
▁damage	-6166
▁Juli	-6167
▁jün	-6168
▁beschäft	-6169
▁contribution	-6170
▁forder	-6171
▁Real	-6172
▁base	-6173
▁fall	-6174
son	-6175
▁village	-6176
▁conven	-6177
▁leider	-6178
page	-6179
▁accep	-6180
annen	-6181
▁labour	-6182
▁Belg	-6183
▁ourselves	-6184
itude	-6185
▁cy	-6186
▁provisions	-6187
▁cu	-6188
▁wenige	-6189
▁Hel	-6190
▁Transparenz	-6191
oker	-6192
▁purs	-6193
▁Term	-6194
aking	-6195
▁Inn	-6196
▁minor	-6197
▁Cost	-6198
▁July	-6199
▁historical	-6200
▁Präsidenten	-6201
prises	-6202
▁instruments	-6203
▁erwarten	-6204
▁mountain	-6205
▁depart	-6206
▁During	-6207
kle	-6208
▁relation	-6209
▁Stär	-6210
▁Wider	-6211
▁konnten	-6212
▁Kur	-6213
▁dise	-6214
▁schließlich	-6215
ibil	-6216
letzt	-6217
▁fehl	-6218
ugg	-6219
▁got	-6220
räfte	-6221
▁gain	-6222
overty	-6223
▁klein	-6224
▁documents	-6225
▁Sommer	-6226
▁Development	-6227
▁Gast	-6228
▁eleg	-6229
ienten	-6230
▁häufig	-6231
▁Arbeitnehmer	-6232
▁section	-6233
▁statement	-6234
ued	-6235
ades	-6236
▁Portugal	-6237
▁zentr	-6238
▁Ist	-6239
▁Empfehl	-6240
▁prefer	-6241
▁verm	-6242
▁regel	-6243
prün	-6244
▁const	-6245
lichkeiten	-6246
▁Vorsitz	-6247
▁bra	-6248
▁eingesetzt	-6249
▁criteria	-6250
▁jähr	-6251
▁genommen	-6252
▁wine	-6253
▁Meine	-6254
▁freund	-6255
▁durchgeführt	-6256
▁types	-6257
▁Auftrag	-6258
▁Ta	-6259
▁leisten	-6260
▁ine	-6261
ühungen	-6262
öffnet	-6263
▁Java	-6264
enntnis	-6265
▁Auto	-6266
▁Many	-6267
▁Ol	-6268
wide	-6269
▁Ere	-6270
▁comprehens	-6271
länd	-6272
In	-6273
dienst	-6274
▁path	-6275
▁Democ	-6276
▁mem	-6277
▁Firma	-6278
▁Diskussion	-6279
ifik	-6280
▁won	-6281
▁launch	-6282
▁violence	-6283
▁Bildung	-6284
▁firm	-6285
▁immediately	-6286
▁Bulgar	-6287
▁unmittel	-6288
▁Center	-6289
▁pen	-6290
▁urs	-6291
▁fell	-6292
▁Verl	-6293
▁stock	-6294
▁structure	-6295
▁gran	-6296
▁loss	-6297
ivity	-6298
▁geworden	-6299
▁highest	-6300
ford	-6301
▁conflict	-6302
rats	-6303
▁perfe	-6304
▁select	-6305
▁University	-6306
▁Untersuch	-6307
▁Flor	-6308
▁constant	-6309
iete	-6310
▁tran	-6311
▁benötigen	-6312
▁Et	-6313
EM	-6314
▁Januar	-6315
▁ski	-6316
ech	-6317
▁grat	-6318
▁Tradition	-6319
▁distribution	-6320
▁Regeln	-6321
▁Hy	-6322
▁Your	-6323
itial	-6324
▁worth	-6325
ato	-6326
etary	-6327
▁berühm	-6328
▁Spezial	-6329
▁drive	-6330
▁1997	-6331
▁Mann	-6332
▁suchen	-6333
ograf	-6334
▁Innen	-6335
isp	-6336
▁europäischer	-6337
zt	-6338
pret	-6339
orgt	-6340
cia	-6341
▁Linie	-6342
lare	-6343
ateral	-6344
▁observ	-6345
icklung	-6346
▁aktuellen	-6347
▁AL	-6348
▁Aufenthalt	-6349
uls	-6350
ira	-6351
▁gas	-6352
▁Nationen	-6353
▁Ba	-6354
▁benefits	-6355
kosten	-6356
▁Centre	-6357
▁brit	-6358
drücklich	-6359
▁kannst	-6360
▁dein	-6361
▁Schwier	-6362
ground	-6363
▁ult	-6364
▁wichtiger	-6365
▁rene	-6366
▁payment	-6367
▁Mobil	-6368
▁gre	-6369
▁Sinne	-6370
▁parking	-6371
wesen	-6372
▁dep	-6373
▁Although	-6374
▁Veränder	-6375
▁integrated	-6376
▁elements	-6377
▁helpful	-6378
ierende	-6379
▁End	-6380
▁Agent	-6381
▁employees	-6382
▁Video	-6383
▁transparency	-6384
▁Investitionen	-6385
▁ursprün	-6386
▁Gründen	-6387
freund	-6388
▁ihres	-6389
▁Afghan	-6390
▁­	-6391
▁Auffassung	-6392
▁Iraq	-6393
▁ey	-6394
▁tim	-6395
▁gefunden	-6396
▁reading	-6397
▁Furthermore	-6398
▁bad	-6399
▁kennen	-6400
▁höher	-6401
▁useful	-6402
EP	-6403
fordern	-6404
▁equal	-6405
cription	-6406
▁Lebensmittel	-6407
▁zeit	-6408
▁gele	-6409
▁paid	-6410
dra	-6411
ört	-6412
leitet	-6413
▁bezüglich	-6414
▁lower	-6415
▁threat	-6416
▁TM	-6417
▁Solidar	-6418
▁Mid	-6419
▁late	-6420
works	-6421
mosphäre	-6422
forderung	-6423
▁Las	-6424
▁alternative	-6425
▁phot	-6426
▁drink	-6427
▁sonst	-6428
▁applied	-6429
idge	-6430
wortern	-6431
ought	-6432
urance	-6433
▁Nr	-6434
▁Are	-6435
▁finally	-6436
▁Präsidentschaft	-6437
▁halte	-6438
▁growing	-6439
▁occas	-6440
ichert	-6441
▁hom	-6442
▁tools	-6443
▁weder	-6444
▁affect	-6445
nungs	-6446
▁hear	-6447
▁wan	-6448
▁apartments	-6449
▁Rede	-6450
orgung	-6451
ücken	-6452
▁begrüße	-6453
frastruct	-6454
▁Ess	-6455
▁Gott	-6456
ängen	-6457
▁numerous	-6458
eks	-6459
▁Koh	-6460
▁Val	-6461
▁bathroom	-6462
orning	-6463
▁daily	-6464
engen	-6465
▁überprü	-6466
▁Heute	-6467
zeichnung	-6468
▁angesichts	-6469
▁vorge	-6470
rosoft	-6471
▁Bürgern	-6472
äte	-6473
▁agenda	-6474
▁Ven	-6475
▁mis	-6476
uche	-6477
▁elections	-6478
▁sufficient	-6479
▁Gas	-6480
zusch	-6481
▁geschaffen	-6482
▁coast	-6483
ieht	-6484
aign	-6485
legation	-6486
▁offering	-6487
▁reality	-6488
▁niedr	-6489
▁teach	-6490
▁Betrieb	-6491
ummer	-6492
▁unem	-6493
▁erneut	-6494
sh	-6495
▁processes	-6496
▁eher	-6497
▁Aufgaben	-6498
wh	-6499
▁Sache	-6500
park	-6501
▁Straßen	-6502
ammlung	-6503
▁van	-6504
▁Beginn	-6505
wa	-6506
▁ign	-6507
▁kur	-6508
vors	-6509
▁poverty	-6510
bezogen	-6511
▁treffen	-6512
▁übrigen	-6513
▁analysis	-6514
▁Kor	-6515
▁welcom	-6516
▁consist	-6517
▁Ereign	-6518
▁challenges	-6519
▁veröffentlich	-6520
obby	-6521
ören	-6522
▁saying	-6523
▁erfahren	-6524
▁Restaurants	-6525
▁sieht	-6526
▁früher	-6527
ogle	-6528
▁pie	-6529
▁humanit	-6530
zone	-6531
ais	-6532
▁diejenigen	-6533
▁perman	-6534
▁spirit	-6535
▁Mass	-6536
▁bringt	-6537
rooms	-6538
ral	-6539
▁Tagesordnung	-6540
▁32	-6541
▁beyond	-6542
▁wissenschaft	-6543
▁practical	-6544
▁bem	-6545
▁colleagues	-6546
▁happy	-6547
▁Beteil	-6548
▁solidarity	-6549
▁Kn	-6550
▁Palest	-6551
▁frequ	-6552
uck	-6553
▁Ak	-6554
schlag	-6555
▁Vertreter	-6556
▁entsprechend	-6557
izin	-6558
▁beitragen	-6559
▁entsprechenden	-6560
ufe	-6561
▁syn	-6562
▁ol	-6563
zuführen	-6564
▁Datei	-6565
ichern	-6566
▁attract	-6567
▁kil	-6568
richten	-6569
▁Fällen	-6570
▁goes	-6571
▁vergessen	-6572
▁Agrar	-6573
▁plant	-6574
▁undert	-6575
▁offered	-6576
▁Microsoft	-6577
▁öffentliche	-6578
▁ausgezeich	-6579
ünde	-6580
▁las	-6581
▁persons	-6582
ilosoph	-6583
▁ban	-6584
▁consequences	-6585
▁Bal	-6586
▁illegal	-6587
▁hil	-6588
OT	-6589
▁Human	-6590
ünstler	-6591
▁sales	-6592
▁minimum	-6593
▁AC	-6594
elten	-6595
▁Monaten	-6596
mö	-6597
▁Armut	-6598
▁mut	-6599
ffizien	-6600
▁45	-6601
▁Room	-6602
phone	-6603
wser	-6604
▁krit	-6605
zwe	-6606
▁Econom	-6607
▁ziehen	-6608
▁thought	-6609
▁exception	-6610
▁hinzu	-6611
zehn	-6612
▁Folge	-6613
▁Änderung	-6614
▁Bemühungen	-6615
▁Nachbar	-6616
▁Gel	-6617
▁Hal	-6618
▁organisations	-6619
prec	-6620
spricht	-6621
▁historic	-6622
UR	-6623
▁Bot	-6624
▁Dateien	-6625
folge	-6626
hesion	-6627
▁Gebäude	-6628
▁implemented	-6629
▁legit	-6630
▁ideas	-6631
▁Flü	-6632
▁Cop	-6633
▁Grö	-6634
▁Ressourcen	-6635
▁server	-6636
wind	-6637
losen	-6638
hilfe	-6639
▁Werte	-6640
▁modified	-6641
fühl	-6642
▁präsent	-6643
achtung	-6644
▁Produktions	-6645
▁waste	-6646
▁SM	-6647
schließen	-6648
heben	-6649
▁Public	-6650
iability	-6651
▁requires	-6652
▁behandelt	-6653
▁Bedürf	-6654
▁Security	-6655
▁Wunsch	-6656
▁shopping	-6657
▁Grand	-6658
▁Del	-6659
▁tomor	-6660
▁getan	-6661
▁Enterprise	-6662
▁verhindern	-6663
▁Est	-6664
▁meaning	-6665
scheinlich	-6666
▁zehn	-6667
▁tomorrow	-6668
▁starting	-6669
▁genannten	-6670
▁advantage	-6671
▁Tagen	-6672
▁Dritt	-6673
▁terrorism	-6674
▁unbe	-6675
tellten	-6676
iveau	-6677
▁ready	-6678
▁Saf	-6679
▁Nacht	-6680
ares	-6681
▁congratulate	-6682
▁forces	-6683
▁renew	-6684
▁operating	-6685
▁Austria	-6686
▁clients	-6687
▁weeks	-6688
▁vorher	-6689
▁Start	-6690
▁efficiency	-6691
▁infrastruct	-6692
▁monitoring	-6693
▁Bürgerinnen	-6694
▁erfolgt	-6695
▁langfrist	-6696
▁secure	-6697
▁weak	-6698
▁besondere	-6699
▁nimmt	-6700
front	-6701
▁IP	-6702
▁Zentral	-6703
▁published	-6704
angeb	-6705
vere	-6706
▁buy	-6707
▁Inhalt	-6708
▁Stock	-6709
DF	-6710
ya	-6711
▁Atmosphäre	-6712
▁hätten	-6713
▁Ac	-6714
ocol	-6715
ione	-6716
ula	-6717
bin	-6718
▁Gef	-6719
wart	-6720
▁sal	-6721
▁Even	-6722
▁crucial	-6723
▁Menschenrechts	-6724
ischem	-6725
▁sports	-6726
▁maximum	-6727
▁Völk	-6728
▁doubt	-6729
▁partnership	-6730
▁Tor	-6731
craft	-6732
itors	-6733
▁anderem	-6734
▁Id	-6735
▁discrimin	-6736
▁36	-6737
▁reference	-6738
▁....	-6739
▁Republik	-6740
▁reduction	-6741
icken	-6742
▁Behandlung	-6743
lose	-6744
▁beant	-6745
▁ful	-6746
▁paar	-6747
head	-6748
▁morning	-6749
ibe	-6750
sych	-6751
gewiesen	-6752
▁Minder	-6753
▁reich	-6754
▁lines	-6755
▁restr	-6756
▁Amendment	-6757
▁comprehensive	-6758
▁anti	-6759
▁Spieler	-6760
▁Aller	-6761
▁ausreich	-6762
▁Pet	-6763
▁machine	-6764
▁cert	-6765
▁Green	-6766
änge	-6767
▁Gest	-6768
enk	-6769
▁Initi	-6770
▁street	-6771
ifel	-6772
cape	-6773
▁jüng	-6774
▁sometimes	-6775
▁Erfahrungen	-6776
▁wr	-6777
▁options	-6778
lungs	-6779
▁Kredit	-6780
esellschaften	-6781
▁Dat	-6782
▁Download	-6783
▁ES	-6784
▁versucht	-6785
▁Altern	-6786
▁Herz	-6787
▁export	-6788
▁Gerichts	-6789
▁po	-6790
▁Directive	-6791
▁Kommissions	-6792
▁pictures	-6793
▁Doppel	-6794
aktion	-6795
theless	-6796
▁Mand	-6797
▁relating	-6798
wün	-6799
▁uner	-6800
▁Natürlich	-6801
▁Modell	-6802
reiten	-6803
▁günst	-6804
▁Regierungs	-6805
irl	-6806
▁überhaupt	-6807
▁les	-6808
▁recon	-6809
▁caused	-6810
▁fordern	-6811
▁lives	-6812
▁Airport	-6813
pective	-6814
▁Lassen	-6815
üst	-6816
▁campaign	-6817
▁begin	-6818
▁circum	-6819
aint	-6820
▁1996	-6821
▁Vergangen	-6822
leistung	-6823
schö	-6824
gruppe	-6825
▁unbed	-6826
▁offiz	-6827
IA	-6828
▁sechs	-6829
▁Anstr	-6830
atform	-6831
▁Analy	-6832
▁email	-6833
▁Frankf	-6834
▁ded	-6835
▁gewesen	-6836
▁gerecht	-6837
▁größer	-6838
▁Praxis	-6839
▁anything	-6840
▁Miss	-6841
▁mü	-6842
▁Gran	-6843
▁Verhält	-6844
▁erfüllen	-6845
bus	-6846
estic	-6847
▁zahlreichen	-6848
▁́	-6849
▁Fäh	-6850
lass	-6851
▁usw	-6852
▁accordance	-6853
▁mitt	-6854
▁technologies	-6855
▁Mess	-6856
▁Verteid	-6857
zielle	-6858
gy	-6859
fläche	-6860
nungen	-6861
▁counter	-6862
▁swimming	-6863
▁berücksichtigt	-6864
hafte	-6865
▁charm	-6866
verfahren	-6867
frastruktur	-6868
▁bur	-6869
▁decor	-6870
▁Dav	-6871
▁Milliar	-6872
▁chance	-6873
▁folgen	-6874
▁News	-6875
▁players	-6876
ordination	-6877
hold	-6878
▁erklärt	-6879
atterin	-6880
▁warum	-6881
▁mensch	-6882
▁urg	-6883
▁sav	-6884
orte	-6885
pp	-6886
▁richtige	-6887
▁languages	-6888
▁Eas	-6889
teuer	-6890
▁PH	-6891
▁tourist	-6892
▁interested	-6893
▁cast	-6894
ded	-6895
▁advert	-6896
▁critic	-6897
▁probably	-6898
altungen	-6899
▁farmers	-6900
urb	-6901
▁Google	-6902
itch	-6903
▁transparent	-6904
fun	-6905
▁remov	-6906
▁Aspekte	-6907
▁Spanien	-6908
▁stimmen	-6909
▁Adresse	-6910
iant	-6911
iding	-6912
▁rapid	-6913
▁sämt	-6914
▁Erd	-6915
▁Berat	-6916
ola	-6917
itation	-6918
▁initial	-6919
▁Lang	-6920
▁Terrorismus	-6921
▁Hil	-6922
▁Firmen	-6923
▁voting	-6924
▁welches	-6925
▁worldwide	-6926
▁Finanzierung	-6927
▁Conference	-6928
poses	-6929
▁games	-6930
▁Beruf	-6931
▁Swiss	-6932
▁eingeb	-6933
ga	-6934
uded	-6935
▁accession	-6936
▁jen	-6937
▁began	-6938
▁ones	-6939
igation	-6940
▁TH	-6941
▁Tal	-6942
▁methods	-6943
▁Sterne	-6944
▁While	-6945
ius	-6946
utive	-6947
position	-6948
legten	-6949
▁Viele	-6950
▁disp	-6951
▁wach	-6952
LA	-6953
▁lands	-6954
▁Winter	-6955
US	-6956
▁Gre	-6957
▁Gene	-6958
zeiten	-6959
PS	-6960
▁scientific	-6961
▁release	-6962
▁extent	-6963
▁fine	-6964
▁compl	-6965
▁Vergangenheit	-6966
▁valid	-6967
▁jeweiligen	-6968
▁150	-6969
▁rele	-6970
▁candid	-6971
▁adopt	-6972
oke	-6973
sto	-6974
izes	-6975
ffizienz	-6976
▁ehem	-6977
▁stets	-6978
▁images	-6979
▁walking	-6980
ta	-6981
enze	-6982
ulated	-6983
▁bill	-6984
▁Schritte	-6985
▁Garten	-6986
▁Telefon	-6987
▁wählen	-6988
▁fire	-6989
▁modernen	-6990
▁Out	-6991
▁track	-6992
▁größte	-6993
▁außerhalb	-6994
ällt	-6995
▁historischen	-6996
▁tick	-6997
▁Vergleich	-6998
▁einheit	-6999
▁symbol	-7000
▁respond	-7001
▁Ord	-7002
▁selection	-7003
▁betreff	-7004
ples	-7005
▁Sonder	-7006
▁Hoff	-7007
▁staat	-7008
▁apprec	-7009
▁NAT	-7010
▁sort	-7011
▁blo	-7012
▁verpflichtet	-7013
▁sectors	-7014
▁wanted	-7015
▁arrange	-7016
▁Zweitens	-7017
▁195	-7018
itten	-7019
karte	-7020
▁challenge	-7021
▁motor	-7022
▁Code	-7023
▁bald	-7024
▁insp	-7025
▁beträ	-7026
wie	-7027
▁screen	-7028
▁zumindest	-7029
▁spezif	-7030
▁Opfer	-7031
ifically	-7032
▁°	-7033
grenz	-7034
▁John	-7035
figur	-7036
▁minute	-7037
stitutional	-7038
▁expert	-7039
▁gemein	-7040
▁seines	-7041
wan	-7042
▁coup	-7043
▁verantwortlich	-7044
omb	-7045
▁visitors	-7046
▁Prem	-7047
▁Chinese	-7048
▁businesses	-7049
asc	-7050
▁Doll	-7051
abkommen	-7052
▁technischen	-7053
▁UK	-7054
▁Ire	-7055
▁Angelegenheit	-7056
▁Tier	-7057
▁Gold	-7058
▁Vertrauen	-7059
▁exerc	-7060
▁tät	-7061
▁Mc	-7062
vollen	-7063
▁Dann	-7064
▁lies	-7065
ränkt	-7066
▁Sen	-7067
▁sil	-7068
▁Flex	-7069
ago	-7070
ichtlich	-7071
zi	-7072
▁remember	-7073
▁club	-7074
▁fant	-7075
iell	-7076
▁Konzept	-7077
▁Zivil	-7078
▁reflect	-7079
izing	-7080
▁Cy	-7081
▁Islam	-7082
▁befür	-7083
▁accepted	-7084
▁Parteien	-7085
▁Voll	-7086
atalog	-7087
▁Nun	-7088
fence	-7089
view	-7090
ktive	-7091
▁heav	-7092
▁Ireland	-7093
▁elegant	-7094
▁hour	-7095
kret	-7096
▁vollständig	-7097
hilfen	-7098
▁persönlichen	-7099
▁verkauf	-7100
▁Mün	-7101
▁player	-7102
▁despite	-7103
▁influence	-7104
▁Dazu	-7105
▁Gespr	-7106
▁unten	-7107
▁Angelegenheiten	-7108
▁kam	-7109
▁genu	-7110
mand	-7111
enh	-7112
▁ausschließlich	-7113
▁Distr	-7114
▁affe	-7115
losigkeit	-7116
▁deutschen	-7117
pool	-7118
▁Chance	-7119
meer	-7120
▁Allerdings	-7121
▁absolutely	-7122
▁enorm	-7123
sätze	-7124
▁trip	-7125
▁schützen	-7126
barer	-7127
▁crimin	-7128
date	-7129
▁powers	-7130
▁lost	-7131
▁genug	-7132
▁hot	-7133
▁ethn	-7134
▁fields	-7135
▁heutigen	-7136
▁prü	-7137
▁folgt	-7138
▁Schne	-7139
▁Landwir	-7140
quem	-7141
tempt	-7142
▁Einrichtung	-7143
▁Stellen	-7144
▁raised	-7145
▁processing	-7146
▁manufactur	-7147
akte	-7148
▁annual	-7149
zul	-7150
▁trying	-7151
▁erwartet	-7152
▁Einige	-7153
▁Bur	-7154
▁honour	-7155
▁listen	-7156
▁erlaubt	-7157
▁kitchen	-7158
▁Hinsicht	-7159
▁Falls	-7160
▁effiz	-7161
ym	-7162
▁anerk	-7163
▁Russian	-7164
▁Generation	-7165
ämpfen	-7166
▁Ihres	-7167
▁verab	-7168
ückt	-7169
▁Schwierigkeiten	-7170
▁Only	-7171
▁substant	-7172
▁demands	-7173
ziert	-7174
▁Soll	-7175
▁resort	-7176
ML	-7177
▁Mitte	-7178
verage	-7179
▁Einwander	-7180
▁Secondly	-7181
▁Österreich	-7182
▁Prä	-7183
künft	-7184
▁Amb	-7185
▁strategic	-7186
▁bessere	-7187
▁separate	-7188
▁cell	-7189
sam	-7190
▁season	-7191
▁borders	-7192
▁Krank	-7193
▁scale	-7194
▁italien	-7195
affe	-7196
kaufs	-7197
▁vital	-7198
▁anders	-7199
zusetzen	-7200
▁innovation	-7201
.3	-7202
▁Drit	-7203
▁cred	-7204
lemente	-7205
RE	-7206
▁dan	-7207
erkennung	-7208
▁menu	-7209
▁ris	-7210
gere	-7211
raten	-7212
▁Vier	-7213
▁übernehmen	-7214
▁stärker	-7215
▁alone	-7216
▁Annahme	-7217
handel	-7218
▁yourself	-7219
▁erinnern	-7220
▁getroffen	-7221
back	-7222
gesetz	-7223
▁privaten	-7224
akes	-7225
▁Eigent	-7226
▁overall	-7227
▁folgenden	-7228
▁Liberal	-7229
▁claim	-7230
▁falls	-7231
chtet	-7232
hers	-7233
▁representatives	-7234
▁gesetz	-7235
werte	-7236
▁changed	-7237
mel	-7238
gehend	-7239
▁worked	-7240
▁Mer	-7241
▁negative	-7242
▁angemessen	-7243
▁rom	-7244
vorsitz	-7245
▁verurs	-7246
▁fish	-7247
▁Christian	-7248
▁namely	-7249
▁Moreover	-7250
▁hol	-7251
▁Card	-7252
▁vertra	-7253
aters	-7254
pack	-7255
▁slow	-7256
▁photo	-7257
engungen	-7258
▁calls	-7259
indungen	-7260
▁Ausgang	-7261
book	-7262
immern	-7263
▁award	-7264
ente	-7265
▁running	-7266
▁begrüßen	-7267
gült	-7268
▁natür	-7269
▁box	-7270
▁Heim	-7271
▁beginnen	-7272
zulegen	-7273
▁expressed	-7274
▁gesehen	-7275
▁target	-7276
▁talking	-7277
ighted	-7278
anda	-7279
attle	-7280
▁zukünft	-7281
abr	-7282
ids	-7283
▁Erk	-7284
ätzlich	-7285
▁Bran	-7286
look	-7287
▁proceed	-7288
▁earl	-7289
▁Georg	-7290
▁bir	-7291
▁Bay	-7292
▁initiatives	-7293
▁bitten	-7294
▁occup	-7295
▁Arbeitsplätze	-7296
ulations	-7297
▁Prozent	-7298
▁plans	-7299
▁allgemeinen	-7300
bum	-7301
▁traffic	-7302
▁Verfassung	-7303
▁automatisch	-7304
▁Stil	-7305
▁placed	-7306
▁Solidarität	-7307
sprechen	-7308
ielt	-7309
▁brand	-7310
▁Sam	-7311
▁goal	-7312
krise	-7313
▁angene	-7314
▁NATO	-7315
▁datab	-7316
mus	-7317
konom	-7318
▁Dre	-7319
▁terrace	-7320
eignet	-7321
▁love	-7322
▁evening	-7323
▁Karte	-7324
▁spect	-7325
▁Archite	-7326
▁wiederhol	-7327
▁wrong	-7328
▁white	-7329
▁Its	-7330
▁Reserv	-7331
rogen	-7332
QL	-7333
▁intended	-7334
enty	-7335
▁zudem	-7336
▁Hostels	-7337
▁compos	-7338
vis	-7339
▁Sü	-7340
▁flexible	-7341
▁angeboten	-7342
gruppen	-7343
▁Öl	-7344
▁Antrag	-7345
▁fresh	-7346
▁setzt	-7347
▁Eind	-7348
tert	-7349
▁anc	-7350
ruption	-7351
IV	-7352
wes	-7353
▁simpl	-7354
▁feed	-7355
▁autom	-7356
▁Afghanistan	-7357
itts	-7358
lymp	-7359
bezieh	-7360
wel	-7361
▁mainly	-7362
▁zweit	-7363
▁Agre	-7364
▁Anges	-7365
▁endlich	-7366
▁Freiz	-7367
▁Erstens	-7368
▁Mex	-7369
▁restrict	-7370
inens	-7371
▁bestimmt	-7372
▁deine	-7373
▁Organisationen	-7374
▁heard	-7375
▁offens	-7376
ildet	-7377
▁Sitzung	-7378
isely	-7379
▁ability	-7380
▁committed	-7381
▁cities	-7382
▁tal	-7383
▁darstellt	-7384
aries	-7385
▁ehemal	-7386
erap	-7387
ystemen	-7388
▁planning	-7389
▁Wissenschaft	-7390
▁länd	-7391
▁letzte	-7392
▁Glaub	-7393
▁approved	-7394
▁Trotz	-7395
▁beide	-7396
▁improved	-7397
▁Roma	-7398
▁Leute	-7399
▁Überwach	-7400
iente	-7401
▁Schwer	-7402
▁Licht	-7403
▁tit	-7404
bringen	-7405
▁Gipfel	-7406
▁jem	-7407
▁Hause	-7408
▁Acht	-7409
▁Einfluss	-7410
▁Dub	-7411
▁Kauf	-7412
▁black	-7413
nel	-7414
▁Bade	-7415
▁opening	-7416
▁IM	-7417
amin	-7418
▁#	-7419
▁element	-7420
uses	-7421
▁confidence	-7422
▁Kapital	-7423
▁Ausschuß	-7424
▁komfort	-7425
▁Rh	-7426
eg	-7427
▁touch	-7428
▁Haushalt	-7429
ita	-7430
▁Verpflichtungen	-7431
▁gere	-7432
▁students	-7433
ördert	-7434
▁Obwohl	-7435
▁People	-7436
standing	-7437
▁affected	-7438
▁eindeutig	-7439
▁bemü	-7440
stoffe	-7441
▁concentr	-7442
▁Qualitäts	-7443
house	-7444
ruit	-7445
ustausch	-7446
▁dringend	-7447
▁Ev	-7448
idelines	-7449
▁Nachfol	-7450
▁Ja	-7451
▁Agenda	-7452
▁Ang	-7453
▁1990	-7454
▁Gesamt	-7455
▁Kriterien	-7456
▁suitable	-7457
▁Ra	-7458
▁Falle	-7459
sb	-7460
itzt	-7461
▁God	-7462
▁Verwaltung	-7463
▁dipl	-7464
ibl	-7465
80	-7466
▁Kompromiss	-7467
▁cos	-7468
▁plus	-7469
▁Autom	-7470
▁entgegen	-7471
▁comments	-7472
▁currency	-7473
▁Verhalten	-7474
▁Systeme	-7475
▁größere	-7476
▁intell	-7477
zeigen	-7478
▁bege	-7479
▁reag	-7480
▁Anstrengungen	-7481
▁administrative	-7482
▁Cr	-7483
▁umfang	-7484
▁sinn	-7485
▁benutzt	-7486
▁Arab	-7487
▁feature	-7488
▁Milliarden	-7489
▁Elekt	-7490
▁phone	-7491
▁Schiff	-7492
▁02	-7493
zeichen	-7494
▁Costa	-7495
▁cohesion	-7496
ores	-7497
▁inn	-7498
auern	-7499
▁cas	-7500
älter	-7501
▁jun	-7502
▁families	-7503
ories	-7504
▁automatically	-7505
▁belieb	-7506
▁decide	-7507
▁delivery	-7508
▁emb	-7509
▁justice	-7510
▁Grie	-7511
hrte	-7512
gebiet	-7513
▁Tätigkeit	-7514
▁laws	-7515
schlossen	-7516
▁mill	-7517
angs	-7518
board	-7519
pliz	-7520
▁Funktionen	-7521
▁genannt	-7522
▁moderne	-7523
▁collection	-7524
▁unbedingt	-7525
undred	-7526
▁Garant	-7527
▁länger	-7528
ibly	-7529
bourg	-7530
▁Holz	-7531
▁Idee	-7532
▁remind	-7533
▁verme	-7534
▁usually	-7535
▁Lab	-7536
▁kaum	-7537
tritt	-7538
▁gegr	-7539
▁Boden	-7540
▁Zustimmung	-7541
rete	-7542
ändigen	-7543
▁chann	-7544
▁IC	-7545
▁Waren	-7546
▁Abschluss	-7547
▁conclusion	-7548
agraph	-7549
▁banks	-7550
hood	-7551
▁elektron	-7552
▁oben	-7553
▁zusätzliche	-7554
▁fear	-7555
▁Friedens	-7556
▁provision	-7557
▁vorgelegt	-7558
▁eingehen	-7559
▁genutzt	-7560
▁circumstances	-7561
▁critical	-7562
▁irgend	-7563
▁Liz	-7564
itory	-7565
▁increasingly	-7566
▁entspricht	-7567
ión	-7568
▁stabil	-7569
uk	-7570
▁Wann	-7571
quate	-7572
▁Partei	-7573
ifying	-7574
▁Wik	-7575
▁gek	-7576
grams	-7577
▁reduced	-7578
▁Vereinbarung	-7579
▁says	-7580
▁bilden	-7581
▁constit	-7582
▁whom	-7583
ION	-7584
▁reforms	-7585
▁bezahl	-7586
gers	-7587
▁entschieden	-7588
▁extensive	-7589
▁administration	-7590
▁priorities	-7591
▁kürz	-7592
▁extend	-7593
▁attempt	-7594
▁supports	-7595
anc	-7596
▁gesetzt	-7597
▁2020	-7598
▁Sing	-7599
▁Cze	-7600
▁herz	-7601
▁überzeugt	-7602
▁Inhalte	-7603
▁é	-7604
▁emissions	-7605
ounge	-7606
▁platform	-7607
▁Anerkennung	-7608
▁ec	-7609
▁Glück	-7610
▁Palestin	-7611
▁speziell	-7612
▁entstehen	-7613
▁Ident	-7614
▁Tab	-7615
fu	-7616
▁protected	-7617
laufen	-7618
▁Immobil	-7619
aschine	-7620
▁contribute	-7621
▁Besonder	-7622
▁Dol	-7623
▁structural	-7624
alled	-7625
▁Prov	-7626
▁mindestens	-7627
▁competitive	-7628
▁400	-7629
▁Frankfurt	-7630
▁Nations	-7631
▁electronic	-7632
▁His	-7633
▁regime	-7634
▁Wahlen	-7635
▁Us	-7636
igran	-7637
▁vorsch	-7638
DE	-7639
▁Körper	-7640
▁unterb	-7641
▁zufrieden	-7642
▁Produkten	-7643
▁wesentlich	-7644
rieb	-7645
▁poll	-7646
verläss	-7647
▁militär	-7648
▁Sea	-7649
▁Haft	-7650
▁coordin	-7651
RA	-7652
▁angegeben	-7653
▁Bemerk	-7654
▁Ern	-7655
▁speaking	-7656
etten	-7657
wenden	-7658
▁Waffen	-7659
▁client	-7660
▁sources	-7661
▁unemployment	-7662
▁Tool	-7663
endence	-7664
zentrum	-7665
▁Bos	-7666
▁htt	-7667
▁medic	-7668
▁fellow	-7669
▁herunter	-7670
▁Zeichen	-7671
▁Fot	-7672
▁ensuring	-7673
reise	-7674
▁scope	-7675
▁Hintergrund	-7676
▁Any	-7677
▁Cle	-7678
▁Koordin	-7679
▁infrastructure	-7680
▁Schn	-7681
▁erkennen	-7682
▁encourage	-7683
▁tabled	-7684
▁Zwischen	-7685
▁mm	-7686
▁berücksichtigen	-7687
▁Sand	-7688
▁agriculture	-7689
▁Bi	-7690
used	-7691
▁Bestand	-7692
▁Ann	-7693
▁wonderful	-7694
IF	-7695
staaten	-7696
▁installation	-7697
▁Board	-7698
▁Ander	-7699
▁danke	-7700
▁manner	-7701
▁mic	-7702
▁Straße	-7703
prin	-7704
iums	-7705
▁Tun	-7706
▁Assoc	-7707
▁powerful	-7708
▁functions	-7709
▁Schlaf	-7710
▁SP	-7711
▁crime	-7712
SS	-7713
endet	-7714
▁Each	-7715
ürger	-7716
uly	-7717
▁played	-7718
▁anz	-7719
▁Anspruch	-7720
▁Netzwerk	-7721
▁voraus	-7722
▁EG	-7723
▁Richtlinien	-7724
▁Most	-7725
▁auszu	-7726
▁verfügbar	-7727
afft	-7728
iler	-7729
▁demokratischen	-7730
▁Besucher	-7731
▁rise	-7732
haften	-7733
▁introduced	-7734
üge	-7735
▁Aktions	-7736
▁Abs	-7737
ästinens	-7738
▁Lo	-7739
▁ship	-7740
▁Nutzen	-7741
▁Mitteilung	-7742
daten	-7743
▁Olymp	-7744
▁Sprachen	-7745
▁aktuelle	-7746
▁Durchführung	-7747
omet	-7748
artigen	-7749
▁effectively	-7750
40	-7751
di	-7752
äne	-7753
ideos	-7754
▁Tar	-7755
▁entsprechende	-7756
▁Sektor	-7757
▁gezeigt	-7758
▁gesprochen	-7759
▁Salz	-7760
▁victims	-7761
▁motion	-7762
▁getting	-7763
fälle	-7764
▁temper	-7765
▁luxur	-7766
▁Serb	-7767
▁detailed	-7768
▁specifically	-7769
elte	-7770
benen	-7771
▁animals	-7772
▁1995	-7773
▁prem	-7774
▁mehreren	-7775
iano	-7776
▁bewusst	-7777
▁sitting	-7778
▁larger	-7779
▁Verfass	-7780
▁covered	-7781
▁Mio	-7782
▁pleasant	-7783
▁Mensch	-7784
▁served	-7785
▁Schaden	-7786
▁Homepage	-7787
ifizierung	-7788
▁Beitritts	-7789
▁hochwert	-7790
▁auth	-7791
ils	-7792
▁Spr	-7793
gewöhn	-7794
▁Regional	-7795
ongs	-7796
▁church	-7797
▁Power	-7798
tete	-7799
struktur	-7800
▁wert	-7801
▁participation	-7802
▁erreich	-7803
▁fert	-7804
▁Czech	-7805
▁exactly	-7806
▁Einsch	-7807
▁Standards	-7808
▁institutional	-7809
▁Konflikt	-7810
entwicklung	-7811
▁wood	-7812
ologischen	-7813
▁--	-7814
▁rechts	-7815
▁zentral	-7816
▁mix	-7817
▁referred	-7818
▁dead	-7819
▁beschlossen	-7820
▁nachdem	-7821
ampag	-7822
odies	-7823
▁Fischerei	-7824
▁Som	-7825
▁serve	-7826
▁summit	-7827
▁hinweisen	-7828
▁harm	-7829
▁Osten	-7830
▁quant	-7831
▁purposes	-7832
arten	-7833
last	-7834
▁construct	-7835
án	-7836
ündung	-7837
▁spacious	-7838
▁Technologien	-7839
▁managed	-7840
▁session	-7841
▁Nah	-7842
▁nöt	-7843
▁Fakt	-7844
mack	-7845
▁supp	-7846
▁rural	-7847
reiber	-7848
wirken	-7849
▁India	-7850
▁Station	-7851
▁iP	-7852
▁Komfort	-7853
▁Schlüssel	-7854
▁hundred	-7855
äden	-7856
▁Pack	-7857
▁nationale	-7858
zeichnen	-7859
arus	-7860
amber	-7861
▁competen	-7862
nes	-7863
▁angesprochen	-7864
▁Stabilität	-7865
▁Vorteile	-7866
pass	-7867
öm	-7868
ingu	-7869
▁siehe	-7870
▁camera	-7871
▁dedic	-7872
▁reception	-7873
▁Cast	-7874
▁Paul	-7875
ras	-7876
▁aimed	-7877
▁Wellness	-7878
▁geeignet	-7879
▁entry	-7880
▁ged	-7881
▁Agreement	-7882
punkte	-7883
gerungen	-7884
▁glauben	-7885
▁Apartments	-7886
▁3.	-7887
▁erwähnt	-7888
kom	-7889
hotel	-7890
▁Kind	-7891
▁budgetary	-7892
▁kontroll	-7893
▁discussed	-7894
urses	-7895
▁deg	-7896
▁mand	-7897
letter	-7898
oted	-7899
itzerland	-7900
ode	-7901
▁police	-7902
▁besonderen	-7903
▁mil	-7904
▁Nahr	-7905
▁According	-7906
aktiv	-7907
▁February	-7908
▁Kommunikation	-7909
▁Great	-7910
▁Aufnahme	-7911
▁occur	-7912
▁domin	-7913
anlagen	-7914
▁vac	-7915
▁Turk	-7916
esents	-7917
▁Paket	-7918
▁Indeed	-7919
▁Zunächst	-7920
hle	-7921
▁selected	-7922
▁Top	-7923
▁Infrastruktur	-7924
▁Slov	-7925
äher	-7926
▁paper	-7927
▁conver	-7928
▁watch	-7929
▁Irak	-7930
▁radio	-7931
▁eingerichtet	-7932
idential	-7933
ael	-7934
oon	-7935
zieht	-7936
▁akzeptieren	-7937
▁discussions	-7938
führer	-7939
cers	-7940
▁Schengen	-7941
▁interpret	-7942
▁http	-7943
ads	-7944
▁Why	-7945
▁becoming	-7946
▁developments	-7947
▁Then	-7948
▁Other	-7949
▁forget	-7950
▁precisely	-7951
▁euch	-7952
▁remark	-7953
▁benutzen	-7954
▁represents	-7955
usions	-7956
▁Liber	-7957
▁Anwendungen	-7958
▁Luxem	-7959
▁thousands	-7960
enhagen	-7961
▁provider	-7962
▁Reformen	-7963
▁einzus	-7964
▁stated	-7965
▁facilit	-7966
▁sicherzustellen	-7967
▁Prote	-7968
▁Bew	-7969
▁Click	-7970
▁listed	-7971
äuser	-7972
▁Rese	-7973
ibilität	-7974
▁metres	-7975
▁arm	-7976
▁Av	-7977
schuld	-7978
isine	-7979
unkten	-7980
udem	-7981
▁inside	-7982
▁assessment	-7983
▁Suche	-7984
▁Griechen	-7985
▁centr	-7986
▁wants	-7987
iat	-7988
▁risks	-7989
▁coffe	-7990
▁erzielt	-7991
fiz	-7992
▁founded	-7993
▁Ausgaben	-7994
▁Schließlich	-7995
aria	-7996
▁ehr	-7997
aming	-7998
▁zug	-7999
▁Vorbereit	-8000
▁Switzerland	-8001
▁freien	-8002
▁bestehenden	-8003
fahrens	-8004
▁freuen	-8005
▁festgelegt	-8006
▁wahrscheinlich	-8007
▁ausgew	-8008
▁Motor	-8009
▁Dollar	-8010
▁opened	-8011
▁Einrichtungen	-8012
▁verz	-8013
wasser	-8014
▁sold	-8015
▁expens	-8016
▁corresp	-8017
▁Klein	-8018
▁winter	-8019
las	-8020
▁ersch	-8021
▁hoffen	-8022
agegen	-8023
▁Haltung	-8024
▁Industr	-8025
▁otherwise	-8026
▁Asia	-8027
▁medical	-8028
bü	-8029
▁shower	-8030
▁guidelines	-8031
▁geändert	-8032
imb	-8033
▁Fle	-8034
▁umgesetzt	-8035
▁introduction	-8036
▁Ky	-8037
▁Milit	-8038
▁color	-8039
▁hands	-8040
▁Po	-8041
▁Policy	-8042
▁Zudem	-8043
▁Mittelmeer	-8044
▁votes	-8045
▁Kenntnis	-8046
laus	-8047
stieg	-8048
▁format	-8049
ala	-8050
▁convin	-8051
▁notwendigen	-8052
idents	-8053
▁zuletzt	-8054
▁expected	-8055
▁scen	-8056
▁exclusive	-8057
▁Unterkategorien	-8058
▁prüfen	-8059
▁globalen	-8060
▁bequem	-8061
▁programs	-8062
▁door	-8063
wegung	-8064
▁Rooms	-8065
atively	-8066
ING	-8067
▁ISO	-8068
▁möglicherweise	-8069
▁trust	-8070
▁ST	-8071
▁Meter	-8072
▁regret	-8073
▁erfüllt	-8074
▁enterprises	-8075
uropa	-8076
see	-8077
▁actual	-8078
▁linked	-8079
▁Research	-8080
mitglie	-8081
ura	-8082
▁impress	-8083
▁closely	-8084
▁expand	-8085
preis	-8086
▁Fischere	-8087
ida	-8088
▁Middle	-8089
▁graph	-8090
schiede	-8091
werke	-8092
▁ergreifen	-8093
▁amerikanischen	-8094
▁orient	-8095
▁earlier	-8096
▁Monate	-8097
prüfung	-8098
uber	-8099
▁spread	-8100
ücke	-8101
▁dienen	-8102
▁Check	-8103
▁süd	-8104
ault	-8105
▁weap	-8106
▁ries	-8107
▁anderes	-8108
IE	-8109
▁Installation	-8110
▁Haup	-8111
IG	-8112
system	-8113
▁marketing	-8114
▁defend	-8115
▁Ausbildung	-8116
ania	-8117
üste	-8118
▁finanziellen	-8119
▁Band	-8120
▁fahren	-8121
ulieren	-8122
▁buildings	-8123
▁Währungs	-8124
▁öffentlich	-8125
amente	-8126
lebr	-8127
ungsantrag	-8128
▁03	-8129
▁beds	-8130
▁duty	-8131
▁Beschäftigungs	-8132
▁electric	-8133
▁Arten	-8134
▁operations	-8135
plant	-8136
itiveness	-8137
▁Innovation	-8138
ureau	-8139
werten	-8140
▁Fonds	-8141
SP	-8142
▁Wald	-8143
▁defined	-8144
▁empfehl	-8145
▁bott	-8146
asts	-8147
▁degree	-8148
▁comment	-8149
▁Break	-8150
ensions	-8151
achtet	-8152
azz	-8153
mas	-8154
▁save	-8155
denken	-8156
▁discrimination	-8157
▁territor	-8158
ham	-8159
jected	-8160
▁jederzeit	-8161
▁jene	-8162
▁beziehen	-8163
▁followed	-8164
▁lösen	-8165
▁likely	-8166
▁verbessert	-8167
▁kostenlos	-8168
rum	-8169
lying	-8170
▁Bec	-8171
▁lesen	-8172
▁wünschen	-8173
▁Vielfalt	-8174
▁Charakter	-8175
▁supporting	-8176
orea	-8177
▁schwierig	-8178
▁Fen	-8179
▁unters	-8180
▁Dienste	-8181
▁Rein	-8182
po	-8183
▁immigration	-8184
▁Büro	-8185
▁map	-8186
▁ausger	-8187
icts	-8188
ishes	-8189
▁Prag	-8190
gets	-8191
▁Found	-8192
▁improving	-8193
▁resist	-8194
▁Kindern	-8195
bad	-8196
▁frag	-8197
▁picture	-8198
▁Zweck	-8199
▁tempor	-8200
▁gleiche	-8201
▁accomp	-8202
freiheit	-8203
itter	-8204
▁acqu	-8205
ickt	-8206
▁compens	-8207
▁components	-8208
umm	-8209
▁einzu	-8210
▁braucht	-8211
▁networks	-8212
▁EL	-8213
▁technische	-8214
▁Sinn	-8215
▁Lehr	-8216
kap	-8217
zieren	-8218
▁multil	-8219
vements	-8220
▁Status	-8221
▁ade	-8222
▁telephone	-8223
▁effizient	-8224
▁sicherlich	-8225
▁1,	-8226
▁vermeiden	-8227
▁stattfinden	-8228
▁suppl	-8229
▁uses	-8230
lim	-8231
▁scr	-8232
▁Fore	-8233
schreit	-8234
▁tourism	-8235
icks	-8236
▁sho	-8237
▁gern	-8238
▁jeweils	-8239
brit	-8240
ometer	-8241
▁Umst	-8242
aves	-8243
▁Main	-8244
▁gemüt	-8245
▁Maschinen	-8246
▁understanding	-8247
gment	-8248
▁Grundsatz	-8249
etze	-8250
▁playing	-8251
▁considerable	-8252
▁speech	-8253
▁Bruss	-8254
▁compar	-8255
▁presence	-8256
▁Kol	-8257
▁went	-8258
rahmen	-8259
▁typical	-8260
▁explo	-8261
▁Street	-8262
▁EAD	-8263
▁cuisine	-8264
▁entweder	-8265
▁detail	-8266
▁Name	-8267
▁Moment	-8268
▁angezeigt	-8269
UN	-8270
levision	-8271
▁Bush	-8272
▁substantial	-8273
lar	-8274
▁gewün	-8275
▁photograph	-8276
▁debt	-8277
▁entit	-8278
▁animal	-8279
▁darunter	-8280
inu	-8281
atik	-8282
▁Abschließend	-8283
▁Black	-8284
iques	-8285
▁facing	-8286
bruch	-8287
wirk	-8288
kunfts	-8289
▁Wege	-8290
gencies	-8291
ktiven	-8292
▁convenient	-8293
▁Verwaltungs	-8294
▁Super	-8295
▁Greece	-8296
▁destro	-8297
▁Ul	-8298
▁Rec	-8299
▁Frem	-8300
▁brief	-8301
▁income	-8302
▁Sehens	-8303
▁Webseite	-8304
▁193	-8305
▁erzielen	-8306
onym	-8307
▁alte	-8308
britann	-8309
▁Brussels	-8310
ütze	-8311
konferenz	-8312
▁Menge	-8313
▁sand	-8314
▁fallen	-8315
▁Never	-8316
▁alloc	-8317
umin	-8318
▁purchase	-8319
▁fisheries	-8320
▁Wien	-8321
▁hosp	-8322
▁Stimme	-8323
▁experts	-8324
▁coffee	-8325
▁Guest	-8326
▁shops	-8327
aste	-8328
möglich	-8329
▁Belarus	-8330
▁Kal	-8331
▁übernachten	-8332
leitung	-8333
▁gave	-8334
▁items	-8335
▁gelangen	-8336
▁Wirk	-8337
▁Kenn	-8338
ervice	-8339
▁born	-8340
▁Economic	-8341
▁Leistungen	-8342
▁properly	-8343
olden	-8344
▁sized	-8345
▁abst	-8346
▁Roy	-8347
ulierung	-8348
▁GN	-8349
chmal	-8350
▁incor	-8351
wohner	-8352
▁Vill	-8353
roh	-8354
▁abzu	-8355
▁Lib	-8356
partner	-8357
atoren	-8358
▁delay	-8359
▁ausdrücklich	-8360
▁Februar	-8361
▁dealing	-8362
klus	-8363
gebaut	-8364
▁plants	-8365
▁coordination	-8366
▁Teile	-8367
,00	-8368
igem	-8369
▁Atlant	-8370
▁Arbeiten	-8371
▁sagt	-8372
▁dramat	-8373
▁teilweise	-8374
hop	-8375
istence	-8376
▁Berichte	-8377
▁presidency	-8378
▁Grenz	-8379
▁besuchen	-8380
▁entirely	-8381
▁Instrumente	-8382
▁Because	-8383
portion	-8384
▁Heil	-8385
▁combat	-8386
▁stimme	-8387
▁strict	-8388
▁Forderung	-8389
▁Forum	-8390
▁Mitgliedstaat	-8391
▁Regelung	-8392
▁elimin	-8393
▁ständig	-8394
ennis	-8395
inary	-8396
▁Over	-8397
▁Jetzt	-8398
itze	-8399
▁Analyse	-8400
▁district	-8401
ield	-8402
▁wollte	-8403
▁Initiativen	-8404
▁ging	-8405
▁Bereit	-8406
▁Wander	-8407
▁untern	-8408
▁Abgeordnete	-8409
▁Casino	-8410
▁percent	-8411
▁Plen	-8412
▁ergän	-8413
gemeine	-8414
▁mobil	-8415
prechen	-8416
▁welcher	-8417
▁criminal	-8418
▁Sach	-8419
▁Madrid	-8420
▁recognis	-8421
ae	-8422
▁Poland	-8423
uit	-8424
▁Völker	-8425
▁gekommen	-8426
▁kommenden	-8427
▁sauber	-8428
▁thinking	-8429
räft	-8430
▁Act	-8431
▁Sow	-8432
▁funktioniert	-8433
▁betonen	-8434
▁generally	-8435
ünen	-8436
union	-8437
ikanische	-8438
either	-8439
▁grenz	-8440
▁erstellt	-8441
▁competitiveness	-8442
▁Mir	-8443
▁tack	-8444
▁Health	-8445
▁refuge	-8446
▁peaceful	-8447
uting	-8448
ora	-8449
▁financing	-8450
üg	-8451
stelle	-8452
▁organisation	-8453
▁permanent	-8454
rägen	-8455
▁Eisen	-8456
▁paragraph	-8457
▁PHP	-8458
▁informieren	-8459
▁adjust	-8460
▁Großbritann	-8461
▁calc	-8462
▁lernen	-8463
▁Mö	-8464
▁willing	-8465
sprü	-8466
▁nieder	-8467
▁average	-8468
▁machines	-8469
▁sole	-8470
▁Klimawand	-8471
▁Unfortunately	-8472
▁Konz	-8473
scher	-8474
▁stärk	-8475
▁zuvor	-8476
▁Vereinten	-8477
▁erhöhen	-8478
vey	-8479
▁Origin	-8480
▁suc	-8481
CH	-8482
▁komplex	-8483
▁verur	-8484
▁prä	-8485
erstellen	-8486
orr	-8487
gal	-8488
maß	-8489
▁Zeiten	-8490
▁meetings	-8491
▁CH	-8492
▁moral	-8493
▁informed	-8494
▁wären	-8495
▁Non	-8496
▁Leider	-8497
▁relate	-8498
ova	-8499
ameter	-8500
▁fragen	-8501
▁difficulties	-8502
▁authority	-8503
▁applies	-8504
▁bear	-8505
▁multip	-8506
▁Veränderungen	-8507
▁vehicles	-8508
gewicht	-8509
▁consideration	-8510
▁ober	-8511
▁sle	-8512
▁trave	-8513
▁Vielen	-8514
▁Pakistan	-8515
▁Leistungs	-8516
▁lif	-8517
▁au	-8518
▁psych	-8519
▁Environment	-8520
▁Phil	-8521
▁Mechan	-8522
▁klare	-8523
füll	-8524
▁russ	-8525
▁sorg	-8526
▁Kurz	-8527
lisch	-8528
▁Unabhäng	-8529
IR	-8530
St	-8531
umn	-8532
▁Rezept	-8533
stechn	-8534
spolitik	-8535
lad	-8536
▁Once	-8537
appe	-8538
▁Mount	-8539
▁Bern	-8540
▁EADS	-8541
▁fixed	-8542
▁win	-8543
schech	-8544
▁Währung	-8545
▁handeln	-8546
▁chines	-8547
▁Begriff	-8548
uts	-8549
fachen	-8550
▁Under	-8551
iking	-8552
▁Ve	-8553
oring	-8554
overy	-8555
AG	-8556
leistungs	-8557
▁fit	-8558
▁Engagement	-8559
▁darstellen	-8560
allel	-8561
hrase	-8562
schul	-8563
▁imposs	-8564
club	-8565
▁Verständ	-8566
▁Zeitraum	-8567
mär	-8568
▁PDF	-8569
▁Vir	-8570
▁Vien	-8571
▁Angaben	-8572
▁Vo	-8573
ünden	-8574
▁Pfl	-8575
▁deep	-8576
▁Warum	-8577
▁gefordert	-8578
▁Programms	-8579
▁Note	-8580
▁erleben	-8581
▁konkrete	-8582
▁Titel	-8583
▁Hard	-8584
▁gradu	-8585
▁Hauses	-8586
▁Anteil	-8587
▁jur	-8588
▁becomes	-8589
▁ep	-8590
▁practices	-8591
jekte	-8592
▁numbers	-8593
▁MP	-8594
▁wenigen	-8595
▁database	-8596
▁PT	-8597
▁unternehmen	-8598
qualität	-8599
▁succeed	-8600
▁establishment	-8601
▁contra	-8602
▁gewährleistet	-8603
ex	-8604
▁Kil	-8605
▁Ratsvorsitz	-8606
▁Tick	-8607
▁Herstellung	-8608
▁33	-8609
▁Beitritt	-8610
set	-8611
▁Klicken	-8612
▁schem	-8613
▁48	-8614
▁2011	-8615
▁quar	-8616
▁eingesch	-8617
▁Private	-8618
▁opposition	-8619
▁Messe	-8620
▁durchaus	-8621
hnung	-8622
▁Immobilien	-8623
▁experienced	-8624
▁Übergang	-8625
▁Wass	-8626
▁parliamentary	-8627
▁volle	-8628
▁myself	-8629
▁Absatz	-8630
▁length	-8631
▁promotion	-8632
▁rent	-8633
▁Hafen	-8634
▁signed	-8635
▁flexibility	-8636
▁Mel	-8637
▁Fernse	-8638
▁told	-8639
▁superv	-8640
▁Gebieten	-8641
▁connected	-8642
▁37	-8643
▁liebe	-8644
▁Effe	-8645
▁Banken	-8646
▁Modern	-8647
▁dagegen	-8648
▁except	-8649
▁hinzuf	-8650
▁hop	-8651
▁aims	-8652
band	-8653
ißen	-8654
▁Sonnen	-8655
▁estate	-8656
embly	-8657
etic	-8658
▁Kritik	-8659
▁stärken	-8660
▁ancient	-8661
▁Inc	-8662
▁wirks	-8663
▁bodies	-8664
ranken	-8665
▁Sehenswürd	-8666
▁generation	-8667
.4	-8668
▁Brüssel	-8669
▁veröffentlicht	-8670
law	-8671
hörde	-8672
▁propose	-8673
▁Breakfast	-8674
ashion	-8675
▁absolut	-8676
ray	-8677
▁clar	-8678
▁Technik	-8679
▁AK	-8680
▁Kirche	-8681
▁benötigt	-8682
▁Risiko	-8683
▁middle	-8684
▁lokalen	-8685
cknow	-8686
tempor	-8687
▁klicken	-8688
▁freue	-8689
▁verring	-8690
▁multi	-8691
▁Association	-8692
aken	-8693
▁Rum	-8694
esterday	-8695
▁erscheint	-8696
▁verwende	-8697
▁alt	-8698
für	-8699
▁signal	-8700
▁defence	-8701
▁Mat	-8702
▁trägt	-8703
▁fle	-8704
▁erfolgen	-8705
ée	-8706
▁advanced	-8707
▁Stellungnahme	-8708
▁Hersteller	-8709
haben	-8710
wagen	-8711
▁Worte	-8712
▁easier	-8713
▁früh	-8714
60	-8715
▁Terrasse	-8716
▁Links	-8717
▁translation	-8718
iche	-8719
ny	-8720
uba	-8721
illing	-8722
bew	-8723
▁himself	-8724
▁imag	-8725
▁celebr	-8726
▁Nachfolgend	-8727
▁Freund	-8728
afe	-8729
inding	-8730
▁klass	-8731
▁zul	-8732
lungen	-8733
▁192	-8734
▁pros	-8735
▁erklären	-8736
▁hält	-8737
▁Resort	-8738
▁Versuch	-8739
▁Stein	-8740
▁houses	-8741
bericht	-8742
▁conduct	-8743
▁75	-8744
▁booking	-8745
▁Schön	-8746
▁stable	-8747
▁dimension	-8748
spunkt	-8749
▁seriously	-8750
äumen	-8751
führten	-8752
isierten	-8753
▁erstellen	-8754
▁domestic	-8755
▁Santa	-8756
▁acknow	-8757
▁Saint	-8758
▁Geist	-8759
▁differences	-8760
▁politics	-8761
▁Allgemein	-8762
▁accur	-8763
▁Aufbau	-8764
▁rech	-8765
▁Colle	-8766
▁approxim	-8767
waren	-8768
▁Achtung	-8769
▁finanzielle	-8770
▁Hall	-8771
edia	-8772
▁Digital	-8773
MU	-8774
lägen	-8775
▁Einhaltung	-8776
▁NG	-8777
▁Wi	-8778
▁Königreich	-8779
▁Kompeten	-8780
worten	-8781
▁cooper	-8782
▁Herausforderung	-8783
▁Flücht	-8784
▁gegenseit	-8785
▁konzentrieren	-8786
▁failure	-8787
▁Win	-8788
▁positions	-8789
▁promoting	-8790
▁Harmon	-8791
▁geograph	-8792
▁Trade	-8793
▁Katastrop	-8794
▁natur	-8795
▁anyone	-8796
▁nächste	-8797
▁Prioritäten	-8798
▁article	-8799
wogen	-8800
▁möglichst	-8801
▁Zugrif	-8802
issionen	-8803
▁Gewähr	-8804
▁models	-8805
▁behav	-8806
▁concrete	-8807
▁persönlich	-8808
▁Asyl	-8809
▁beaches	-8810
▁erf	-8811
▁Ban	-8812
▁withdra	-8813
▁neighbour	-8814
▁gering	-8815
▁voice	-8816
▁Dennoch	-8817
isms	-8818
▁Poker	-8819
▁Hamburg	-8820
▁combination	-8821
▁dangerous	-8822
▁Alex	-8823
▁Universität	-8824
▁spl	-8825
km	-8826
▁sn	-8827
peratur	-8828
▁dennoch	-8829
▁organiz	-8830
▁Einigung	-8831
▁happened	-8832
▁associated	-8833
▁structures	-8834
bas	-8835
▁Firstly	-8836
▁1994	-8837
haber	-8838
accept	-8839
lösung	-8840
▁täglich	-8841
▁exhibition	-8842
ibrary	-8843
erse	-8844
▁reservation	-8845
▁instance	-8846
DP	-8847
▁HT	-8848
eten	-8849
▁pet	-8850
▁Jahrhunderts	-8851
▁Syn	-8852
▁Nahrungs	-8853
▁verfolgen	-8854
etter	-8855
▁Formen	-8856
▁humanitarian	-8857
ibel	-8858
yright	-8859
▁unaccept	-8860
▁Irish	-8861
▁Aspekt	-8862
▁Zweifel	-8863
▁positiv	-8864
▁umfasst	-8865
▁carefully	-8866
▁studies	-8867
▁courses	-8868
▁vere	-8869
karten	-8870
▁manage	-8871
pendence	-8872
▁gegründet	-8873
▁shop	-8874
▁Afrika	-8875
▁Texte	-8876
strateg	-8877
▁Dorf	-8878
ua	-8879
▁arrival	-8880
▁difference	-8881
▁Anlagen	-8882
▁Due	-8883
table	-8884
ifiziert	-8885
verkehrs	-8886
▁ausges	-8887
▁immediate	-8888
▁verlassen	-8889
▁Work	-8890
▁geleistet	-8891
▁glass	-8892
preise	-8893
▁tut	-8894
▁Forderungen	-8895
▁bere	-8896
prinzip	-8897
▁safegu	-8898
▁satell	-8899
▁Defin	-8900
▁availability	-8901
IB	-8902
▁una	-8903
▁Rechnungs	-8904
▁architecture	-8905
opol	-8906
▁statements	-8907
▁names	-8908
▁owners	-8909
licherweise	-8910
▁quot	-8911
▁spielt	-8912
▁appears	-8913
▁34	-8914
▁Live	-8915
▁zerst	-8916
▁Ear	-8917
räume	-8918
▁Strom	-8919
▁Kingdom	-8920
▁Karten	-8921
▁shared	-8922
▁Sekt	-8923
▁condem	-8924
▁schönen	-8925
▁hören	-8926
▁übertragen	-8927
▁beru	-8928
▁Element	-8929
▁connect	-8930
arta	-8931
ando	-8932
▁Wün	-8933
▁Patienten	-8934
▁agencies	-8935
▁reducing	-8936
ibet	-8937
▁endgült	-8938
▁background	-8939
▁unto	-8940
▁spent	-8941
unk	-8942
▁diskutieren	-8943
▁nennen	-8944
▁implementing	-8945
leiten	-8946
▁legen	-8947
▁USB	-8948
reifen	-8949
▁betrachtet	-8950
▁Gemeinsamen	-8951
▁collabor	-8952
▁improvement	-8953
▁recognition	-8954
greif	-8955
▁Support	-8956
▁released	-8957
▁Ideen	-8958
▁impossible	-8959
▁Lam	-8960
▁Wür	-8961
▁charged	-8962
ruf	-8963
▁African	-8964
▁ahead	-8965
▁Festival	-8966
▁unge	-8967
▁verloren	-8968
icians	-8969
▁Back	-8970
▁adoption	-8971
▁producers	-8972
▁fulfil	-8973
iegel	-8974
▁attach	-8975
▁taste	-8976
▁guarantees	-8977
▁unabhängig	-8978
▁Lizenz	-8979
▁Anw	-8980
▁feststellen	-8981
▁unan	-8982
▁truly	-8983
▁trading	-8984
udes	-8985
stimmung	-8986
▁Rechnung	-8987
▁announced	-8988
arischen	-8989
▁stell	-8990
▁compla	-8991
▁television	-8992
▁erforderlichen	-8993
▁Umfang	-8994
iest	-8995
▁Wall	-8996
▁Sehr	-8997
▁denken	-8998
▁Lesung	-8999
▁Tourismus	-9000
▁arbeitet	-9001
▁cards	-9002
▁attractive	-9003
▁membership	-9004
▁Muse	-9005
▁Foto	-9006
▁Sorge	-9007
auftrag	-9008
▁forest	-9009
meld	-9010
▁Künstler	-9011
▁window	-9012
▁enth	-9013
ärm	-9014
llos	-9015
ox	-9016
ategory	-9017
▁Vielzahl	-9018
bit	-9019
▁exter	-9020
▁überprüfen	-9021
▁reasonable	-9022
can	-9023
deck	-9024
▁bemer	-9025
▁urban	-9026
▁leader	-9027
▁Polen	-9028
▁garantiert	-9029
▁Ruhe	-9030
▁Finn	-9031
▁relaxing	-9032
▁entertain	-9033
zeugung	-9034
▁abgeschlossen	-9035
öder	-9036
▁kulturellen	-9037
program	-9038
rollen	-9039
▁begrenz	-9040
yer	-9041
ologische	-9042
▁cur	-9043
▁Media	-9044
tenance	-9045
künd	-9046
liefer	-9047
▁wishes	-9048
▁learning	-9049
▁Wand	-9050
läuf	-9051
▁Großbritannien	-9052
coming	-9053
▁behaup	-9054
▁Fel	-9055
▁Polize	-9056
▁genuine	-9057
aby	-9058
▁isol	-9059
ungsverfahren	-9060
▁Os	-9061
▁Leistung	-9062
▁religious	-9063
▁possibilities	-9064
▁einiger	-9065
▁Prime	-9066
sicherheit	-9067
▁wom	-9068
regel	-9069
ointed	-9070
▁unacceptable	-9071
▁Entwicklungen	-9072
▁ausreichend	-9073
▁Custom	-9074
aw	-9075
▁komplett	-9076
äck	-9077
▁square	-9078
▁England	-9079
▁calling	-9080
▁Seine	-9081
▁Wicht	-9082
▁erleich	-9083
instr	-9084
▁Kopf	-9085
▁dispos	-9086
▁Bahnhof	-9087
▁occasion	-9088
iro	-9089
▁Mun	-9090
hindert	-9091
▁Fotos	-9092
▁described	-9093
▁Gleichzeitig	-9094
▁mist	-9095
gestimmt	-9096
do	-9097
▁evidence	-9098
▁ow	-9099
▁Michael	-9100
▁cars	-9101
mod	-9102
ista	-9103
▁Beach	-9104
▁liter	-9105
itious	-9106
▁territory	-9107
▁Teilnehmer	-9108
▁pure	-9109
▁Überwachung	-9110
plätzen	-9111
▁excess	-9112
▁miteinander	-9113
teten	-9114
üter	-9115
▁tasks	-9116
▁nearby	-9117
▁Justice	-9118
▁kept	-9119
▁indire	-9120
▁Mik	-9121
▁Heimat	-9122
▁tätig	-9123
LE	-9124
▁Rome	-9125
▁Stärkung	-9126
▁Partnerschaft	-9127
▁Turkish	-9128
▁introduce	-9129
▁richtigen	-9130
ohlen	-9131
▁sale	-9132
▁packages	-9133
▁Studio	-9134
▁completed	-9135
pon	-9136
▁Ausfl	-9137
▁Admin	-9138
▁haup	-9139
utin	-9140
▁•	-9141
ador	-9142
▁bezeichnet	-9143
äten	-9144
▁delic	-9145
▁unless	-9146
▁advance	-9147
▁store	-9148
haltet	-9149
▁unfortunately	-9150
iffer	-9151
▁hingewiesen	-9152
▁Nav	-9153
ränken	-9154
▁trag	-9155
▁skills	-9156
programme	-9157
▁19.	-9158
▁participate	-9159
▁SD	-9160
▁Europeans	-9161
no	-9162
▁Beschreibung	-9163
▁devices	-9164
▁Elemente	-9165
▁älter	-9166
▁unz	-9167
▁desire	-9168
raucher	-9169
▁Data	-9170
bieter	-9171
▁Anlage	-9172
▁Mutter	-9173
▁button	-9174
ris	-9175
▁Problemen	-9176
▁consumption	-9177
spe	-9178
▁figures	-9179
führungen	-9180
▁registered	-9181
ireless	-9182
okraten	-9183
eto	-9184
▁allowing	-9185
▁Fac	-9186
ensus	-9187
▁konstru	-9188
▁Diskrimin	-9189
▁Foundation	-9190
▁conv	-9191
▁raise	-9192
▁Rob	-9193
Script	-9194
technik	-9195
zwischen	-9196
ido	-9197
weist	-9198
▁Option	-9199
▁beauty	-9200
▁Dus	-9201
zz	-9202
▁Aussicht	-9203
▁enables	-9204
▁strongly	-9205
inc	-9206
▁Barroso	-9207
▁expend	-9208
▁vert	-9209
▁continued	-9210
▁Deutsche	-9211
▁vernünft	-9212
ugos	-9213
▁continues	-9214
▁Nutzer	-9215
▁zahlen	-9216
▁cra	-9217
▁Entwurf	-9218
▁mission	-9219
▁surface	-9220
istisch	-9221
▁command	-9222
gas	-9223
▁vul	-9224
▁core	-9225
▁combined	-9226
▁earth	-9227
▁aufmerksam	-9228
organisation	-9229
▁Very	-9230
▁Irland	-9231
▁Democrats	-9232
▁üb	-9233
▁Drogen	-9234
ilst	-9235
▁beginnt	-9236
eing	-9237
▁Dut	-9238
▁profitieren	-9239
▁surrounding	-9240
body	-9241
▁Nether	-9242
▁entitled	-9243
andidaten	-9244
▁greatest	-9245
ries	-9246
▁Rand	-9247
schung	-9248
chnet	-9249
▁monetary	-9250
▁unterstütze	-9251
▁Versch	-9252
▁Altstadt	-9253
temporary	-9254
▁adapt	-9255
▁Vienna	-9256
▁gewinnen	-9257
ía	-9258
▁burden	-9259
▁weiterer	-9260
▁Fire	-9261
▁Niederl	-9262
EO	-9263
▁dir	-9264
▁Pil	-9265
onia	-9266
▁danach	-9267
▁attractions	-9268
▁Manager	-9269
▁Zuständ	-9270
▁Bedürfnisse	-9271
▁Architektur	-9272
▁zentrale	-9273
▁sämtliche	-9274
▁Mond	-9275
box	-9276
▁load	-9277
▁eingeführt	-9278
posit	-9279
▁appeal	-9280
▁französischen	-9281
90	-9282
▁meters	-9283
▁Bewertung	-9284
itage	-9285
▁geschehen	-9286
▁Verhältnis	-9287
▁vorliegenden	-9288
krieg	-9289
▁Meiner	-9290
▁river	-9291
▁überall	-9292
▁effektiv	-9293
▁relativ	-9294
▁insurance	-9295
▁Justiz	-9296
▁norm	-9297
gegeben	-9298
▁closer	-9299
▁romant	-9300
allery	-9301
▁ök	-9302
▁White	-9303
▁story	-9304
▁Pool	-9305
öse	-9306
windigkeit	-9307
▁Control	-9308
▁kons	-9309
▁transition	-9310
▁chair	-9311
▁balanced	-9312
▁Lake	-9313
▁dedicated	-9314
▁device	-9315
▁bestätigt	-9316
▁spezielle	-9317
qual	-9318
▁Peter	-9319
▁Marketing	-9320
▁installed	-9321
wissen	-9322
▁empfehlen	-9323
▁golf	-9324
▁gegenwärtig	-9325
70	-9326
▁buffet	-9327
▁Regelungen	-9328
▁union	-9329
▁gram	-9330
▁reliable	-9331
▁keinerlei	-9332
bere	-9333
▁Day	-9334
▁Kurs	-9335
▁Hist	-9336
▁Stadtz	-9337
▁entstanden	-9338
▁luxury	-9339
anische	-9340
▁sensitive	-9341
▁besitzt	-9342
▁Jeder	-9343
▁Verletz	-9344
▁Tisch	-9345
▁exercise	-9346
▁asyl	-9347
▁Bol	-9348
tzeit	-9349
▁einsetzen	-9350
▁railway	-9351
sequent	-9352
stands	-9353
▁fruit	-9354
▁meant	-9355
▁totally	-9356
▁Austrian	-9357
▁unc	-9358
sec	-9359
▁ID	-9360
▁na	-9361
▁drop	-9362
▁perspective	-9363
▁Agentur	-9364
▁individuals	-9365
▁haupts	-9366
rüst	-9367
sektor	-9368
▁regionalen	-9369
▁seven	-9370
▁einfache	-9371
▁compared	-9372
▁court	-9373
▁großes	-9374
▁corporate	-9375
lück	-9376
▁einst	-9377
▁declar	-9378
▁Europäer	-9379
▁gestalten	-9380
hören	-9381
▁asylum	-9382
▁stands	-9383
▁vollkommen	-9384
▁Verpflichtung	-9385
ih	-9386
▁Ty	-9387
▁ru	-9388
▁enormous	-9389
▁äuß	-9390
▁Priorität	-9391
▁grenzüber	-9392
▁Fortschritt	-9393
▁politischer	-9394
stattung	-9395
▁Urs	-9396
▁38	-9397
ikal	-9398
▁extended	-9399
▁Angesichts	-9400
▁gutes	-9401
▁Van	-9402
ilder	-9403
▁notice	-9404
▁biggest	-9405
▁beteiligt	-9406
▁geschützt	-9407
▁dee	-9408
▁Nevertheless	-9409
▁verfolgt	-9410
rich	-9411
ema	-9412
▁establishing	-9413
▁drawn	-9414
▁compat	-9415
aub	-9416
▁claims	-9417
▁Mitteln	-9418
▁Eastern	-9419
istik	-9420
▁einver	-9421
▁AR	-9422
ausschusses	-9423
▁Griechenland	-9424
asil	-9425
erungs	-9426
▁earn	-9427
▁Vertrie	-9428
zep	-9429
▁advertising	-9430
HT	-9431
▁Mü	-9432
▁Latin	-9433
▁Budget	-9434
▁Gerichtshof	-9435
atever	-9436
▁sides	-9437
▁memory	-9438
aktionen	-9439
▁Meeres	-9440
attform	-9441
▁98	-9442
▁nütz	-9443
▁veget	-9444
▁election	-9445
iscal	-9446
▁holidays	-9447
▁Another	-9448
nam	-9449
▁qualit	-9450
zig	-9451
▁por	-9452
▁vision	-9453
▁storage	-9454
▁formal	-9455
▁garantieren	-9456
▁Worten	-9457
itar	-9458
bieten	-9459
afr	-9460
erma	-9461
▁liber	-9462
steht	-9463
isierte	-9464
▁Bla	-9465
▁Marken	-9466
▁reprodu	-9467
door	-9468
▁Where	-9469
lern	-9470
▁warten	-9471
▁stim	-9472
▁moving	-9473
▁highlight	-9474
▁Grunde	-9475
▁verbundenen	-9476
▁offensichtlich	-9477
▁definition	-9478
bring	-9479
▁Haut	-9480
iced	-9481
irms	-9482
leihen	-9483
▁Größe	-9484
▁geeig	-9485
▁diss	-9486
pal	-9487
linge	-9488
▁höchste	-9489
▁folgende	-9490
▁zusätzlich	-9491
▁nom	-9492
▁beige	-9493
11	-9494
▁Croat	-9495
▁sogen	-9496
▁freie	-9497
▁Globalisierung	-9498
onial	-9499
mittag	-9500
▁Zoll	-9501
▁ergeben	-9502
uchten	-9503
▁grunds	-9504
▁elected	-9505
brauch	-9506
▁Fitness	-9507
▁11.	-9508
▁guide	-9509
▁Netherlands	-9510
▁science	-9511
▁größeren	-9512
▁urgent	-9513
▁interface	-9514
▁mountains	-9515
reten	-9516
▁Bill	-9517
▁4.	-9518
▁forced	-9519
asten	-9520
▁Eindruck	-9521
▁hum	-9522
gypt	-9523
▁flight	-9524
▁Format	-9525
▁beinhaltet	-9526
enkt	-9527
▁enfor	-9528
▁refle	-9529
▁suite	-9530
zust	-9531
▁weight	-9532
▁para	-9533
▁granted	-9534
▁failed	-9535
▁Indien	-9536
▁magn	-9537
▁Presse	-9538
▁advice	-9539
▁unit	-9540
▁motiv	-9541
▁Martin	-9542
handlungs	-9543
Innen	-9544
oram	-9545
▁grant	-9546
▁Studien	-9547
heits	-9548
▁collect	-9549
▁convinced	-9550
▁Bis	-9551
▁Institute	-9552
viel	-9553
ague	-9554
▁Mindest	-9555
▁registr	-9556
omas	-9557
▁Greek	-9558
▁Federal	-9559
xts	-9560
▁internationaler	-9561
▁lä	-9562
▁sem	-9563
▁Verz	-9564
▁update	-9565
▁finance	-9566
▁Ros	-9567
▁unable	-9568
▁Company	-9569
▁colour	-9570
▁Player	-9571
▁passed	-9572
▁Sä	-9573
▁Foreign	-9574
▁fern	-9575
▁contrary	-9576
▁conclusions	-9577
▁disease	-9578
▁Erhö	-9579
▁wunderschö	-9580
chem	-9581
▁Städte	-9582
▁Gebrauch	-9583
▁250	-9584
▁umfassende	-9585
▁tried	-9586
▁pour	-9587
▁candidate	-9588
▁dig	-9589
▁ausführ	-9590
▁eingere	-9591
▁gegenwärtigen	-9592
▁Ans	-9593
▁route	-9594
▁rob	-9595
▁secret	-9596
▁perfectly	-9597
▁Unterkunft	-9598
▁BM	-9599
▁spa	-9600
▁Front	-9601
▁chosen	-9602
▁kü	-9603
▁solcher	-9604
kräfte	-9605
▁match	-9606
▁Märkte	-9607
hlt	-9608
mögen	-9609
reibt	-9610
▁dauer	-9611
▁Maße	-9612
icking	-9613
▁leb	-9614
▁wesentlichen	-9615
▁blog	-9616
▁Datenbank	-9617
▁Palace	-9618
▁42	-9619
ürk	-9620
▁Apparte	-9621
▁artists	-9622
▁expression	-9623
▁Special	-9624
iode	-9625
▁2013	-9626
▁forth	-9627
▁Gründe	-9628
▁5.	-9629
ags	-9630
▁economies	-9631
▁bound	-9632
▁kos	-9633
▁Relig	-9634
▁Experten	-9635
▁Quest	-9636
▁Feld	-9637
▁Erklärungen	-9638
▁Palestinian	-9639
▁Monat	-9640
klusive	-9641
cco	-9642
bald	-9643
▁rock	-9644
▁controls	-9645
▁outstanding	-9646
▁Aktionen	-9647
grade	-9648
▁sched	-9649
▁prison	-9650
▁Treffen	-9651
▁honourable	-9652
▁Mitglieds	-9653
▁Schm	-9654
enntnisse	-9655
▁organised	-9656
▁Constitution	-9657
▁laid	-9658
▁Kompon	-9659
ammer	-9660
setzt	-9661
straße	-9662
▁destroy	-9663
▁factors	-9664
▁ECU	-9665
▁Reich	-9666
▁Fert	-9667
▁definit	-9668
▁photos	-9669
▁Beteiligung	-9670
▁jour	-9671
▁Menü	-9672
▁korre	-9673
▁patent	-9674
▁spending	-9675
▁teilnehmen	-9676
lägt	-9677
▁Todes	-9678
▁Datenschutz	-9679
▁aufzu	-9680
igrants	-9681
▁dé	-9682
stät	-9683
▁PPE	-9684
iothe	-9685
hebung	-9686
▁commitments	-9687
▁Beim	-9688
reisen	-9689
▁balcon	-9690
▁Kohäs	-9691
▁verf	-9692
ress	-9693
uble	-9694
inent	-9695
▁changing	-9696
▁Aktion	-9697
▁intervention	-9698
▁tief	-9699
iertes	-9700
▁rightly	-9701
olge	-9702
äufer	-9703
▁condemn	-9704
▁achieving	-9705
verse	-9706
▁unf	-9707
▁Mitgliedern	-9708
SL	-9709
reu	-9710
▁Regulation	-9711
▁beglück	-9712
▁obviously	-9713
▁chemical	-9714
▁colleague	-9715
athed	-9716
▁Third	-9717
da	-9718
▁Blog	-9719
actions	-9720
äfen	-9721
▁Erde	-9722
▁Good	-9723
▁Hinweis	-9724
▁maintenance	-9725
▁erfre	-9726
▁agency	-9727
▁geöffnet	-9728
▁müs	-9729
worfen	-9730
▁Vermitt	-9731
▁vehicle	-9732
▁ambitious	-9733
isierungs	-9734
▁beglückwün	-9735
ibliothe	-9736
▁gelungen	-9737
aker	-9738
▁schöne	-9739
▁investig	-9740
vorschlag	-9741
active	-9742
▁sell	-9743
▁weapons	-9744
▁Unabhängigkeit	-9745
▁saw	-9746
▁ster	-9747
▁micro	-9748
▁Betriebs	-9749
▁MyS	-9750
person	-9751
ichtete	-9752
▁erh	-9753
▁Garden	-9754
▁Rezeption	-9755
▁Fenster	-9756
▁revolution	-9757
reck	-9758
▁Niveau	-9759
▁outcome	-9760
mon	-9761
alty	-9762
älfte	-9763
▁analy	-9764
olo	-9765
▁accessible	-9766
version	-9767
▁speziellen	-9768
▁04	-9769
ington	-9770
nehmern	-9771
▁Thus	-9772
▁vergleich	-9773
uters	-9774
▁Flexibilität	-9775
▁constantly	-9776
▁Via	-9777
▁Gut	-9778
▁Ganz	-9779
▁preserv	-9780
▁title	-9781
bett	-9782
leun	-9783
▁Alban	-9784
schrift	-9785
▁lauf	-9786
mittelt	-9787
▁payments	-9788
▁Empfehlungen	-9789
▁dient	-9790
▁intention	-9791
▁obligations	-9792
▁Nachdem	-9793
▁Gegensatz	-9794
imit	-9795
▁privile	-9796
▁erg	-9797
▁Süden	-9798
▁furnished	-9799
▁betrachten	-9800
▁surrounded	-9801
▁starke	-9802
▁Jac	-9803
▁Typ	-9804
▁800	-9805
▁informiert	-9806
wortet	-9807
▁fashion	-9808
sequently	-9809
▁Sur	-9810
▁Yet	-9811
▁Journal	-9812
▁Zahlen	-9813
▁festge	-9814
ancy	-9815
▁Beihilfen	-9816
▁Gent	-9817
▁Weitere	-9818
iov	-9819
▁mode	-9820
▁Methode	-9821
▁Slow	-9822
▁langen	-9823
endum	-9824
▁legitim	-9825
▁neither	-9826
▁race	-9827
verein	-9828
▁Kontroll	-9829
▁dur	-9830
▁Beschluss	-9831
▁someone	-9832
▁category	-9833
▁Wiederauf	-9834
▁20.	-9835
▁Farben	-9836
kor	-9837
hy	-9838
▁Erhol	-9839
▁näher	-9840
▁Class	-9841
▁Ereignisse	-9842
▁approximately	-9843
fle	-9844
▁limits	-9845
knü	-9846
▁cheap	-9847
▁sorgfält	-9848
▁enor	-9849
▁erhöht	-9850
▁organization	-9851
▁lov	-9852
idung	-9853
▁guter	-9854
▁benach	-9855
ventions	-9856
▁contents	-9857
alia	-9858
▁diplomat	-9859
▁AT	-9860
▁Kaffe	-9861
▁grie	-9862
▁write	-9863
▁Mas	-9864
▁asking	-9865
▁Wechsel	-9866
▁correspond	-9867
TA	-9868
▁tie	-9869
▁außerord	-9870
▁Fraktionen	-9871
apers	-9872
▁daraus	-9873
▁satellite	-9874
▁Verständnis	-9875
▁Summit	-9876
nach	-9877
▁lake	-9878
▁yesterday	-9879
▁OS	-9880
auso	-9881
▁distin	-9882
▁Nik	-9883
▁situations	-9884
▁umwelt	-9885
▁contained	-9886
▁1992	-9887
▁Phase	-9888
▁equality	-9889
▁THE	-9890
abilities	-9891
ifications	-9892
▁successfully	-9893
▁enhan	-9894
▁nar	-9895
versorgung	-9896
üb	-9897
▁Dimension	-9898
abl	-9899
▁Located	-9900
▁herzlich	-9901
enswert	-9902
▁blue	-9903
▁Wirkung	-9904
▁Los	-9905
▁goals	-9906
▁Inseln	-9907
▁einsch	-9908
▁Gebiete	-9909
▁manchmal	-9910
▁continuing	-9911
klang	-9912
▁fraud	-9913
▁physical	-9914
▁pill	-9915
▁Botschaft	-9916
ound	-9917
▁Militär	-9918
▁aircraft	-9919
isure	-9920
▁ideale	-9921
▁Distrib	-9922
▁überein	-9923
▁hauptsächlich	-9924
▁britischen	-9925
▁Alp	-9926
ähren	-9927
ünfte	-9928
▁id	-9929
rance	-9930
▁EP	-9931
elbe	-9932
▁RE	-9933
▁band	-9934
▁beachten	-9935
pa	-9936
▁philosoph	-9937
asen	-9938
ipe	-9939
atures	-9940
▁independence	-9941
▁Lord	-9942
▁surv	-9943
olz	-9944
▁reject	-9945
▁steigen	-9946
▁prevention	-9947
▁pred	-9948
▁Formular	-9949
II	-9950
▁Eth	-9951
▁Agency	-9952
▁sobald	-9953
▁MEP	-9954
▁Vorteil	-9955
▁Glas	-9956
▁Royal	-9957
▁expenditure	-9958
▁recommendations	-9959
fähig	-9960
▁türk	-9961
▁Verkauf	-9962
▁bars	-9963
▁cool	-9964
▁einverstanden	-9965
esty	-9966
▁Beob	-9967
reitung	-9968
▁600	-9969
▁Chem	-9970
▁species	-9971
▁fiscal	-9972
▁consists	-9973
wers	-9974
▁RO	-9975
ario	-9976
▁swe	-9977
▁acts	-9978
▁Schwar	-9979
▁Spiele	-9980
gbarkeit	-9981
so	-9982
▁Square	-9983
▁operate	-9984
▁Entsp	-9985
▁Hoffnung	-9986
▁Voraussetzungen	-9987
▁gebe	-9988
▁winn	-9989
▁rig	-9990
--	-9991
gefähr	-9992
lete	-9993
▁spricht	-9994
MS	-9995
kurr	-9996
▁Those	-9997
jet	-9998
▁niemand	-9999
▁Enjoy	-10000
▁putting	-10001
▁festgestellt	-10002
ategorie	-10003
▁waiting	-10004
▁Vom	-10005
iegen	-10006
▁overlook	-10007
iam	-10008
▁Express	-10009
▁dete	-10010
▁Fischer	-10011
▁Rem	-10012
▁mittels	-10013
▁vorgeschlagenen	-10014
▁zone	-10015
▁Teilen	-10016
▁underg	-10017
▁defic	-10018
▁persönliche	-10019
▁Old	-10020
tellect	-10021
▁convention	-10022
▁planned	-10023
▁targets	-10024
▁Hauptstadt	-10025
bal	-10026
det	-10027
▁Il	-10028
▁Realität	-10029
▁Apartment	-10030
▁registration	-10031
▁dry	-10032
▁Both	-10033
▁Pic	-10034
istry	-10035
▁Time	-10036
▁webs	-10037
▁whe	-10038
▁appar	-10039
▁communities	-10040
▁binding	-10041
▁allgemeine	-10042
▁190	-10043
▁Nu	-10044
▁gehalten	-10045
▁Graf	-10046
▁mittl	-10047
▁Karl	-10048
jährigen	-10049
▁glad	-10050
handels	-10051
kan	-10052
▁grounds	-10053
▁landscape	-10054
▁factor	-10055
▁seeking	-10056
▁smaller	-10057
orough	-10058
reitet	-10059
▁abhäng	-10060
▁Sun	-10061
ismen	-10062
▁rasch	-10063
▁assign	-10064
▁merely	-10065
▁Gegenteil	-10066
▁mechanism	-10067
▁schneller	-10068
▁Energy	-10069
ram	-10070
▁contemporary	-10071
orient	-10072
▁120	-10073
▁III	-10074
▁Ausland	-10075
▁password	-10076
produktion	-10077
▁Sprach	-10078
▁übernommen	-10079
▁Landschaft	-10080
▁capable	-10081
▁einzigen	-10082
▁unternommen	-10083
road	-10084
▁sage	-10085
▁count	-10086
vely	-10087
▁Trek	-10088
▁guaranteed	-10089
▁geschieht	-10090
ENT	-10091
iffe	-10092
▁Pop	-10093
gerung	-10094
bindung	-10095
▁Cre	-10096
▁labor	-10097
obility	-10098
▁Risiken	-10099
politischen	-10100
▁möglichen	-10101
umer	-10102
▁neighb	-10103
▁reve	-10104
▁kaufen	-10105
▁wealth	-10106
▁Teilnahme	-10107
▁Touristen	-10108
▁schn	-10109
▁steel	-10110
▁Arbeitsmarkt	-10111
▁participants	-10112
▁Thanks	-10113
▁treten	-10114
▁gewünsch	-10115
▁Grundrechte	-10116
▁examples	-10117
rochen	-10118
▁Bedarf	-10119
eting	-10120
bu	-10121
▁eye	-10122
kunden	-10123
▁Prüfung	-10124
▁smoking	-10125
▁Rund	-10126
▁User	-10127
era	-10128
▁flow	-10129
▁submit	-10130
▁compliance	-10131
▁nationaler	-10132
ktivität	-10133
▁CS	-10134
▁GM	-10135
▁Andre	-10136
▁massive	-10137
trib	-10138
▁leads	-10139
▁disposal	-10140
▁Erwart	-10141
▁Sweden	-10142
▁Ton	-10143
▁AB	-10144
▁HD	-10145
▁cook	-10146
▁JavaScript	-10147
▁Fax	-10148
unehm	-10149
▁Einkaufs	-10150
▁ung	-10151
akete	-10152
▁slight	-10153
▁Rules	-10154
▁pun	-10155
▁fuel	-10156
▁jüngsten	-10157
▁therm	-10158
▁Politiker	-10159
LAN	-10160
▁Gaz	-10161
▁weg	-10162
▁acceptable	-10163
apt	-10164
▁55	-10165
▁toler	-10166
▁Island	-10167
▁letter	-10168
▁master	-10169
▁bringing	-10170
▁rot	-10171
▁Klimaanlage	-10172
▁п	-10173
arium	-10174
▁Dach	-10175
▁Maria	-10176
otten	-10177
▁Effizienz	-10178
▁erfordert	-10179
▁Set	-10180
▁Cypr	-10181
sper	-10182
▁ausländ	-10183
▁Veranstaltungen	-10184
▁praktisch	-10185
▁Bestandteil	-10186
▁Flash	-10187
passung	-10188
▁Know	-10189
▁gewiss	-10190
▁beob	-10191
▁Zimmern	-10192
▁selten	-10193
▁optimal	-10194
▁Zuf	-10195
bürger	-10196
ausende	-10197
▁Männer	-10198
▁damals	-10199
▁Gesetzgebung	-10200
▁nav	-10201
▁regelmäßig	-10202
▁Nichtraucher	-10203
▁ton	-10204
▁medizin	-10205
öss	-10206
▁Dutch	-10207
▁nachhaltige	-10208
▁exclus	-10209
▁jungen	-10210
▁Beif	-10211
▁dynamic	-10212
▁Publik	-10213
▁pleasure	-10214
richtlinie	-10215
wegs	-10216
▁Prakt	-10217
▁Streit	-10218
▁association	-10219
▁Chamber	-10220
▁conclude	-10221
▁manufacturing	-10222
▁grammat	-10223
mine	-10224
▁Autor	-10225
▁Press	-10226
▁anbieten	-10227
▁betroffenen	-10228
▁Liebe	-10229
▁brings	-10230
erry	-10231
▁Jose	-10232
▁phase	-10233
UT	-10234
the	-10235
utr	-10236
▁sets	-10237
▁causes	-10238
▁vieler	-10239
ählten	-10240
▁Liberalisierung	-10241
▁Welche	-10242
▁resulting	-10243
▁Urspr	-10244
▁testing	-10245
▁Methoden	-10246
▁Bio	-10247
▁Komb	-10248
endung	-10249
▁Nice	-10250
ssystem	-10251
▁gemeinschaft	-10252
▁Pin	-10253
▁School	-10254
▁governance	-10255
krat	-10256
▁spaces	-10257
▁Details	-10258
▁pointed	-10259
▁sichern	-10260
▁multiple	-10261
kop	-10262
▁driving	-10263
▁Gedanken	-10264
▁versions	-10265
▁identity	-10266
▁zählen	-10267
▁ta	-10268
▁valu	-10269
▁Übern	-10270
▁retain	-10271
▁teilen	-10272
▁Tit	-10273
ipping	-10274
ränkungen	-10275
▁deutsche	-10276
▁bedroom	-10277
▁vorschlagen	-10278
▁21.	-10279
▁obst	-10280
▁Jean	-10281
▁Dort	-10282
▁traditionellen	-10283
▁nearly	-10284
▁strengthening	-10285
eind	-10286
▁authent	-10287
istenz	-10288
▁River	-10289
ifellos	-10290
▁Verbesser	-10291
▁beschäftigt	-10292
▁Fluss	-10293
äume	-10294
inations	-10295
▁Ferienwohn	-10296
▁copy	-10297
▁Angebote	-10298
vereign	-10299
▁evaluation	-10300
▁Charter	-10301
▁qualified	-10302
gesellschaften	-10303
wiesen	-10304
▁Finan	-10305
▁fif	-10306
annung	-10307
inder	-10308
▁withdraw	-10309
▁sovereign	-10310
▁acht	-10311
▁Hor	-10312
odurch	-10313
▁berecht	-10314
▁Gesam	-10315
eshalb	-10316
▁kleiner	-10317
▁Alliance	-10318
gg	-10319
▁Ca	-10320
cast	-10321
▁zunehm	-10322
▁Repr	-10323
▁prospect	-10324
ela	-10325
▁Sound	-10326
zil	-10327
▁eight	-10328
▁explain	-10329
▁zugleich	-10330
▁wichtigste	-10331
▁proportion	-10332
aschen	-10333
▁trend	-10334
▁explan	-10335
▁therap	-10336
▁Romania	-10337
▁hergestellt	-10338
▁Veröffentlich	-10339
▁attend	-10340
ermaßen	-10341
ped	-10342
ablen	-10343
▁Pflicht	-10344
▁safeguard	-10345
lichem	-10346
▁Gefühl	-10347
▁gewählt	-10348
▁Autob	-10349
▁surpr	-10350
▁truth	-10351
▁Rotary	-10352
▁Ref	-10353
▁elegan	-10354
▁addressed	-10355
▁Koordinierung	-10356
ulating	-10357
▁Master	-10358
▁primarily	-10359
▁07	-10360
▁incorpor	-10361
▁Diskriminierung	-10362
▁Direkt	-10363
organisationen	-10364
▁Absicht	-10365
▁Stadtzentrum	-10366
mlich	-10367
▁USS	-10368
▁Bosn	-10369
▁inhab	-10370
wachst	-10371
▁Führung	-10372
▁erneuer	-10373
▁adequate	-10374
cling	-10375
▁Champ	-10376
▁primary	-10377
▁Rumän	-10378
▁Ebenso	-10379
▁southern	-10380
▁bio	-10381
▁Sonn	-10382
▁Hälfte	-10383
▁willkommen	-10384
.200	-10385
▁Angriff	-10386
▁1993	-10387
▁irgende	-10388
▁patients	-10389
▁assum	-10390
▁requested	-10391
▁bon	-10392
▁argument	-10393
ques	-10394
▁divid	-10395
▁wodurch	-10396
oret	-10397
▁echte	-10398
▁Eltern	-10399
▁Morgen	-10400
▁Internationalen	-10401
▁verk	-10402
ansion	-10403
▁Überprüfung	-10404
▁audio	-10405
wechs	-10406
▁Rich	-10407
▁Cam	-10408
▁Ep	-10409
▁Angel	-10410
▁Que	-10411
▁consensus	-10412
▁Aufgrund	-10413
▁andererseits	-10414
▁39	-10415
▁wall	-10416
▁wachs	-10417
▁representative	-10418
▁Merk	-10419
abled	-10420
▁Norden	-10421
utzung	-10422
▁betrie	-10423
▁schools	-10424
▁Provin	-10425
▁vulner	-10426
▁expensive	-10427
CD	-10428
zwungen	-10429
▁Erhöhung	-10430
▁discussing	-10431
enture	-10432
▁liability	-10433
fest	-10434
▁jemand	-10435
▁Ausnahme	-10436
issens	-10437
▁recovery	-10438
▁spot	-10439
▁zunehmend	-10440
▁Two	-10441
▁lau	-10442
▁diskutiert	-10443
iene	-10444
▁previously	-10445
▁demokratische	-10446
ky	-10447
▁vielfält	-10448
selben	-10449
▁nations	-10450
▁fällt	-10451
▁remove	-10452
ktop	-10453
▁bran	-10454
▁doll	-10455
▁aktual	-10456
▁nation	-10457
ierend	-10458
▁kontext	-10459
▁reinfor	-10460
▁sieben	-10461
▁seitens	-10462
▁Subs	-10463
▁Tiere	-10464
▁Dublin	-10465
▁Serie	-10466
▁Gästen	-10467
▁determined	-10468
▁Find	-10469
▁fried	-10470
▁kürzlich	-10471
OP	-10472
▁snow	-10473
▁Laufe	-10474
▁waters	-10475
▁decades	-10476
▁amt	-10477
▁1000	-10478
▁Patent	-10479
▁grand	-10480
▁95	-10481
legte	-10482
▁talks	-10483
▁Akte	-10484
▁Mach	-10485
oster	-10486
hann	-10487
▁meist	-10488
üben	-10489
▁Zustand	-10490
iring	-10491
▁noise	-10492
▁respekt	-10493
▁reagieren	-10494
▁named	-10495
▁piece	-10496
▁akzeptiert	-10497
▁Follow	-10498
▁Report	-10499
▁journal	-10500
▁consolid	-10501
▁weiteres	-10502
lebnis	-10503
▁corner	-10504
▁hall	-10505
▁books	-10506
▁disch	-10507
▁besseren	-10508
stär	-10509
▁Radio	-10510
▁kinds	-10511
▁diversity	-10512
▁Vorbereitung	-10513
▁Turn	-10514
▁Wegen	-10515
▁prepare	-10516
▁Fähigkeit	-10517
▁anf	-10518
▁Satell	-10519
▁Freunde	-10520
▁dritten	-10521
▁Dokumente	-10522
▁08	-10523
▁anerkannt	-10524
▁capt	-10525
▁orders	-10526
▁keeping	-10527
ending	-10528
▁Show	-10529
▁begann	-10530
▁Tai	-10531
▁Lou	-10532
▁turned	-10533
▁09	-10534
▁Shop	-10535
▁finde	-10536
▁print	-10537
▁einzelne	-10538
▁opposite	-10539
▁Rock	-10540
ão	-10541
▁Prodi	-10542
▁mel	-10543
▁junge	-10544
Os	-10545
▁Willen	-10546
▁afford	-10547
▁nochmals	-10548
▁industries	-10549
iling	-10550
▁reply	-10551
▁Bewegung	-10552
▁Vision	-10553
▁griech	-10554
otenzial	-10555
▁Schloss	-10556
▁thre	-10557
▁instruct	-10558
▁delivered	-10559
▁attacks	-10560
▁MS	-10561
▁imper	-10562
▁Tim	-10563
ktions	-10564
ruction	-10565
▁Minutes	-10566
▁territorial	-10567
odes	-10568
rant	-10569
bereiche	-10570
▁default	-10571
zeß	-10572
▁Dienstleistungs	-10573
▁Lö	-10574
▁amongst	-10575
pielt	-10576
▁verteid	-10577
▁ländlichen	-10578
lesen	-10579
▁existence	-10580
alys	-10581
lege	-10582
▁diverse	-10583
▁Englisch	-10584
▁Financial	-10585
lebt	-10586
▁Berücksicht	-10587
▁Jes	-10588
▁diesbe	-10589
▁97	-10590
ahnen	-10591
▁dealt	-10592
iern	-10593
iquid	-10594
iry	-10595
ancen	-10596
▁barr	-10597
▁skin	-10598
▁Grenze	-10599
gänglich	-10600
ädt	-10601
▁Präs	-10602
▁extreme	-10603
▁Korea	-10604
▁vorbe	-10605
▁Argent	-10606
▁Delegation	-10607
▁Fälle	-10608
▁parallel	-10609
▁positiven	-10610
▁Fi	-10611
▁angeht	-10612
▁voc	-10613
▁1980	-10614
▁WC	-10615
ampagne	-10616
▁treated	-10617
▁Freizeit	-10618
▁engl	-10619
▁marked	-10620
▁feeling	-10621
▁thereby	-10622
igsten	-10623
▁betont	-10624
▁fed	-10625
▁Anliegen	-10626
▁berühmten	-10627
▁Eigenschaften	-10628
imal	-10629
nahm	-10630
entlichen	-10631
▁Verfügbarkeit	-10632
▁dro	-10633
▁Suite	-10634
▁gespe	-10635
▁David	-10636
▁Balt	-10637
▁urge	-10638
▁Stück	-10639
▁Pflanzen	-10640
▁Minderheiten	-10641
▁heavy	-10642
▁bureau	-10643
▁Church	-10644
▁blood	-10645
▁mutual	-10646
▁Revolution	-10647
▁east	-10648
▁65	-10649
management	-10650
station	-10651
▁Munich	-10652
uc	-10653
aces	-10654
▁Bek	-10655
▁Expl	-10656
▁accounts	-10657
▁systemat	-10658
▁begonnen	-10659
▁Sens	-10660
▁charming	-10661
▁behandeln	-10662
absicht	-10663
tellectual	-10664
▁manufacturers	-10665
▁umgeben	-10666
▁lock	-10667
▁43	-10668
iser	-10669
▁genü	-10670
information	-10671
▁AD	-10672
artet	-10673
▁spät	-10674
▁sinnvoll	-10675
▁Anpassung	-10676
proz	-10677
▁Sud	-10678
icon	-10679
▁Besitz	-10680
metho	-10681
▁exem	-10682
▁Betr	-10683
▁Unterschiede	-10684
▁Freude	-10685
▁Ordnung	-10686
entscheid	-10687
.-	-10688
▁PR	-10689
▁Equ	-10690
uttle	-10691
▁onto	-10692
igern	-10693
▁zunehmen	-10694
▁Nachrichten	-10695
▁Alter	-10696
▁Theater	-10697
▁Stunde	-10698
▁unanim	-10699
▁Diskussionen	-10700
▁Lag	-10701
zahlung	-10702
strategie	-10703
▁Disc	-10704
▁München	-10705
▁führenden	-10706
▁dah	-10707
▁Cook	-10708
▁Valle	-10709
▁Dra	-10710
▁Klim	-10711
▁Gesetze	-10712
▁Registr	-10713
▁sicherstellen	-10714
TP	-10715
▁Bor	-10716
unsten	-10717
▁Hilfs	-10718
▁verstärkt	-10719
▁gesellschaft	-10720
24	-10721
▁ultim	-10722
▁belong	-10723
▁technological	-10724
▁99	-10725
▁runs	-10726
▁Zahlungs	-10727
ady	-10728
fügt	-10729
verw	-10730
folio	-10731
▁Zul	-10732
▁configur	-10733
▁Umständen	-10734
▁44	-10735
▁Despite	-10736
▁fand	-10737
place	-10738
▁globale	-10739
▁AP	-10740
▁Kyoto	-10741
▁Reaktion	-10742
▁consultation	-10743
het	-10744
▁error	-10745
▁Bildungs	-10746
▁Before	-10747
▁speakers	-10748
▁competence	-10749
▁switch	-10750
grundlage	-10751
▁attitude	-10752
▁Wachstums	-10753
▁cm	-10754
pert	-10755
anger	-10756
▁Kollege	-10757
gin	-10758
▁06	-10759
zahlt	-10760
▁horiz	-10761
▁schlecht	-10762
▁cold	-10763
urm	-10764
fers	-10765
▁beruf	-10766
▁Unterschied	-10767
▁Handeln	-10768
▁Einklang	-10769
▁recommended	-10770
rupt	-10771
▁191	-10772
▁wait	-10773
▁Use	-10774
▁Pay	-10775
▁pension	-10776
▁moved	-10777
▁Jack	-10778
▁Skype	-10779
▁vielmehr	-10780
▁COM	-10781
▁Klimawandel	-10782
▁privacy	-10783
▁befassen	-10784
▁intensive	-10785
▁Brazil	-10786
▁zuverläss	-10787
▁knows	-10788
▁repeated	-10789
▁straight	-10790
▁Take	-10791
▁Essen	-10792
fertigt	-10793
▁soft	-10794
▁expertise	-10795
▁verlieren	-10796
▁adj	-10797
▁Kunde	-10798
▁shape	-10799
▁fordert	-10800
▁requests	-10801
▁mechanisms	-10802
▁represented	-10803
orgnis	-10804
▁Komment	-10805
▁vorgenommen	-10806
▁bewegen	-10807
▁Swed	-10808
▁flat	-10809
▁Johann	-10810
▁unterschiedlich	-10811
▁attemp	-10812
▁schließen	-10813
▁investments	-10814
▁Signal	-10815
bereitet	-10816
▁hair	-10817
▁Erwach	-10818
▁leadership	-10819
▁arms	-10820
▁Dadurch	-10821
▁Kombination	-10822
▁Kranken	-10823
▁Div	-10824
▁leiden	-10825
▁streets	-10826
▁höchst	-10827
▁complet	-10828
▁helping	-10829
▁Box	-10830
▁ergriffen	-10831
▁furniture	-10832
▁improvements	-10833
sprach	-10834
▁birth	-10835
▁zustimmen	-10836
öp	-10837
▁presentation	-10838
▁Strukturfonds	-10839
▁landwirtschaft	-10840
fare	-10841
▁Kreat	-10842
▁Engine	-10843
▁starken	-10844
▁experiences	-10845
▁Baum	-10846
sichts	-10847
tehen	-10848
▁basiert	-10849
▁Perspekt	-10850
▁destination	-10851
stoffen	-10852
▁derzeitigen	-10853
▁Gewinn	-10854
aks	-10855
dete	-10856
▁laut	-10857
▁inten	-10858
▁exceed	-10859
folgerungen	-10860
▁Definition	-10861
▁Kooperation	-10862
▁Rub	-10863
▁spok	-10864
griffe	-10865
▁browser	-10866
▁websites	-10867
▁wild	-10868
▁Paper	-10869
ст	-10870
▁Holl	-10871
▁gewisse	-10872
ulted	-10873
▁Syr	-10874
▁Schule	-10875
▁wiederum	-10876
▁überzeugen	-10877
kurs	-10878
▁Kong	-10879
▁mini	-10880
▁plug	-10881
▁leisure	-10882
▁significantly	-10883
▁Sein	-10884
▁läuft	-10885
▁transp	-10886
▁betreffen	-10887
▁Grundsätze	-10888
▁conditioning	-10889
UM	-10890
ispiele	-10891
mental	-10892
plik	-10893
▁obligation	-10894
▁stone	-10895
▁bildet	-10896
kehren	-10897
▁schwar	-10898
hrt	-10899
▁units	-10900
gebracht	-10901
▁Bedenken	-10902
▁subsidiar	-10903
▁bedrooms	-10904
gence	-10905
▁Update	-10906
▁Plaza	-10907
▁launched	-10908
sein	-10909
▁trees	-10910
▁Jahrzehn	-10911
jection	-10912
▁Bestell	-10913
▁Verträge	-10914
▁Leitlinien	-10915
züg	-10916
▁pil	-10917
▁sights	-10918
▁transform	-10919
▁politisch	-10920
▁Technology	-10921
▁Allgemeinen	-10922
▁engineering	-10923
▁Arm	-10924
erman	-10925
oples	-10926
plicit	-10927
iana	-10928
▁Law	-10929
▁Schwerpunkt	-10930
jo	-10931
hel	-10932
▁seien	-10933
berecht	-10934
▁Zusatz	-10935
▁recognise	-10936
heber	-10937
▁Geräte	-10938
▁umfass	-10939
▁Monte	-10940
▁drugs	-10941
akten	-10942
▁Voraussetzung	-10943
▁dog	-10944
▁vess	-10945
ès	-10946
uds	-10947
▁felt	-10948
▁Antworten	-10949
▁temperature	-10950
▁Untersuchung	-10951
▁96	-10952
▁genauso	-10953
▁welchen	-10954
▁49	-10955
▁fantastic	-10956
atlant	-10957
▁subst	-10958
▁extension	-10959
▁abgele	-10960
miss	-10961
▁compensation	-10962
▁Exec	-10963
▁dinner	-10964
▁dishes	-10965
▁Schäden	-10966
venue	-10967
▁keines	-10968
▁Zugriff	-10969
ährt	-10970
▁permit	-10971
▁Sov	-10972
▁Studie	-10973
▁ehemaligen	-10974
▁Bör	-10975
rist	-10976
▁SME	-10977
▁emphasis	-10978
▁Roh	-10979
meister	-10980
stände	-10981
▁entlang	-10982
geht	-10983
igence	-10984
igerung	-10985
▁Verteidigungs	-10986
▁NL	-10987
▁lose	-10988
iating	-10989
netz	-10990
▁comply	-10991
▁deiner	-10992
▁Premier	-10993
▁konkreten	-10994
bahnhof	-10995
pers	-10996
▁vir	-10997
▁abhängig	-10998
▁Übereinkommen	-10999
▁finding	-11000
▁18.	-11001
uries	-11002
▁engag	-11003
▁Action	-11004
▁dining	-11005
▁proud	-11006
▁emphasise	-11007
▁Fer	-11008
▁output	-11009
uver	-11010
ieties	-11011
▁Airbus	-11012
ikte	-11013
▁Küste	-11014
▁appreciate	-11015
▁nötig	-11016
▁older	-11017
kund	-11018
▁Vielleicht	-11019
theit	-11020
▁Hans	-11021
itime	-11022
▁rank	-11023
▁zeich	-11024
▁consistent	-11025
▁Genehm	-11026
essor	-11027
ameras	-11028
▁Kategorie	-11029
▁Tax	-11030
▁approval	-11031
lles	-11032
going	-11033
lechter	-11034
▁sleep	-11035
▁spezial	-11036
▁stations	-11037
▁exists	-11038
▁objects	-11039
▁Erwä	-11040
▁6.	-11041
▁MySQL	-11042
▁trial	-11043
▁Fahrzeug	-11044
▁reicht	-11045
▁helps	-11046
▁senden	-11047
▁rejected	-11048
▁Austausch	-11049
▁beiz	-11050
▁Welcome	-11051
▁articles	-11052
▁Sanktionen	-11053
obe	-11054
zza	-11055
ügel	-11056
zubauen	-11057
▁sprach	-11058
ichteten	-11059
▁sanctions	-11060
▁Tom	-11061
▁Strategien	-11062
▁Profession	-11063
geiz	-11064
▁Dafür	-11065
▁Elect	-11066
▁operators	-11067
▁Tw	-11068
▁Straf	-11069
▁alter	-11070
▁wichtiges	-11071
▁außergewöhn	-11072
▁substances	-11073
sc	-11074
▁entered	-11075
▁kompliz	-11076
▁GNU	-11077
▁expectations	-11078
▁eur	-11079
▁bezieht	-11080
▁trotzdem	-11081
iary	-11082
▁dict	-11083
schule	-11084
▁Amerika	-11085
nd	-11086
unktions	-11087
▁gestern	-11088
zed	-11089
▁Beifall	-11090
▁hoher	-11091
▁Heiz	-11092
▁Weiß	-11093
▁museum	-11094
▁Ministers	-11095
▁wenden	-11096
▁Original	-11097
▁verlangen	-11098
▁sofern	-11099
schaffen	-11100
rate	-11101
▁util	-11102
asters	-11103
▁ziemlich	-11104
▁tours	-11105
uj	-11106
ischung	-11107
▁conserv	-11108
▁Westen	-11109
▁relatively	-11110
▁italienischen	-11111
▁Zentr	-11112
HO	-11113
▁entre	-11114
▁Obama	-11115
▁resolve	-11116
▁si	-11117
▁geist	-11118
▁umfassenden	-11119
apter	-11120
▁liefern	-11121
▁favor	-11122
▁delegation	-11123
▁historische	-11124
atre	-11125
uppen	-11126
▁erhältlich	-11127
▁Az	-11128
▁rare	-11129
▁Egypt	-11130
▁wirksam	-11131
▁Tibet	-11132
▁Hong	-11133
▁Export	-11134
▁Maßnahme	-11135
▁tests	-11136
▁unmittelbar	-11137
teen	-11138
▁proof	-11139
▁texts	-11140
▁centres	-11141
▁angep	-11142
▁Robert	-11143
▁Safety	-11144
▁affairs	-11145
▁spectac	-11146
▁\	-11147
uchte	-11148
▁religi	-11149
▁gather	-11150
antly	-11151
grad	-11152
▁Farb	-11153
▁Landwirte	-11154
▁entertainment	-11155
▁maß	-11156
▁whilst	-11157
▁führte	-11158
▁personally	-11159
▁unl	-11160
▁Offen	-11161
beziehung	-11162
▁Verbrechen	-11163
▁Berufs	-11164
▁threaten	-11165
▁respective	-11166
▁ye	-11167
▁Tagung	-11168
▁Refer	-11169
▁recognised	-11170
▁Beweis	-11171
▁discharge	-11172
ikas	-11173
▁USD	-11174
▁1989	-11175
▁beträgt	-11176
▁whatever	-11177
ergie	-11178
▁künftig	-11179
neter	-11180
▁helped	-11181
▁advantages	-11182
fa	-11183
▁NI	-11184
füllung	-11185
▁exclusively	-11186
▁breat	-11187
▁Friend	-11188
▁estim	-11189
▁Amts	-11190
▁arrangements	-11191
▁SC	-11192
▁falsch	-11193
▁complic	-11194
▁sod	-11195
▁pick	-11196
▁Ambiente	-11197
▁applicable	-11198
▁Krie	-11199
▁taxes	-11200
▁Music	-11201
▁Materialien	-11202
▁SO	-11203
▁vast	-11204
▁refugees	-11205
64	-11206
▁gült	-11207
▁hostels	-11208
uste	-11209
maschinen	-11210
▁entspannen	-11211
▁zuge	-11212
▁1991	-11213
▁Termin	-11214
▁thorough	-11215
▁Studenten	-11216
▁regionale	-11217
▁erb	-11218
▁covers	-11219
ätzung	-11220
isory	-11221
▁Anfragen	-11222
▁Normen	-11223
abilität	-11224
▁automatic	-11225
▁Umweltschutz	-11226
▁900	-11227
▁Papier	-11228
▁commun	-11229
▁spring	-11230
▁Wahrheit	-11231
▁creative	-11232
▁disaster	-11233
▁Beratung	-11234
▁fill	-11235
eds	-11236
iessen	-11237
▁Strategy	-11238
▁involving	-11239
▁geprü	-11240
▁naturally	-11241
▁od	-11242
▁gepr	-11243
▁happens	-11244
▁Rule	-11245
▁intend	-11246
▁renewable	-11247
▁outdoor	-11248
▁suffering	-11249
▁Inf	-11250
▁peoples	-11251
größ	-11252
▁girl	-11253
▁discovered	-11254
prech	-11255
mechan	-11256
▁Fremden	-11257
▁Viertel	-11258
▁lag	-11259
▁Life	-11260
▁valuable	-11261
▁weather	-11262
▁foll	-11263
gelassen	-11264
▁Führungs	-11265
▁handling	-11266
ér	-11267
▁Ferner	-11268
▁AN	-11269
▁danger	-11270
▁reichen	-11271
ti	-11272
rechten	-11273
▁Aqu	-11274
pak	-11275
▁Gep	-11276
▁Malt	-11277
▁latter	-11278
▁journey	-11279
▁Speicher	-11280
▁eröffnet	-11281
▁Swedish	-11282
onte	-11283
abling	-11284
▁Empfehlung	-11285
▁bedarf	-11286
wareness	-11287
▁Eisenbahn	-11288
▁Wash	-11289
▁entdecken	-11290
▁politicians	-11291
▁Caf	-11292
▁Schweden	-11293
inos	-11294
▁kommun	-11295
▁zusätzlichen	-11296
tellte	-11297
▁kurzem	-11298
▁familiar	-11299
quellen	-11300
▁bekannten	-11301
▁beschrieben	-11302
▁intellectual	-11303
▁cloth	-11304
▁obtained	-11305
▁OF	-11306
trächt	-11307
▁Franc	-11308
▁Product	-11309
behörden	-11310
usal	-11311
▁erscheinen	-11312
▁solve	-11313
wechsel	-11314
▁Kandidaten	-11315
rot	-11316
▁volume	-11317
▁Director	-11318
fallen	-11319
▁chain	-11320
▁Konsequ	-11321
▁mobility	-11322
▁Temperatur	-11323
▁Grad	-11324
▁koordin	-11325
▁Frü	-11326
▁Kamera	-11327
▁exceptional	-11328
▁interessiert	-11329
abwe	-11330
flug	-11331
▁vous	-11332
ändige	-11333
▁confirmed	-11334
▁Ohne	-11335
uführen	-11336
▁verändert	-11337
▁Stahl	-11338
▁Gesicht	-11339
▁producing	-11340
▁figure	-11341
▁opposed	-11342
▁diseases	-11343
▁erweitert	-11344
kommt	-11345
▁Burg	-11346
ito	-11347
▁2.0	-11348
▁dans	-11349
▁Atom	-11350
▁Berichterstat	-11351
oli	-11352
▁kulturelle	-11353
plause	-11354
▁looks	-11355
▁weltweiten	-11356
▁kommer	-11357
▁lovely	-11358
▁Erinner	-11359
▁wesentliche	-11360
▁faced	-11361
▁Garantie	-11362
vec	-11363
▁Mall	-11364
amerika	-11365
▁Mittelpunkt	-11366
otte	-11367
▁Badezimmer	-11368
▁SV	-11369
andon	-11370
▁Four	-11371
▁Sund	-11372
nummer	-11373
▁laufen	-11374
idden	-11375
▁hilft	-11376
▁besitzen	-11377
25	-11378
otto	-11379
▁schönsten	-11380
hme	-11381
ère	-11382
fällen	-11383
▁constructive	-11384
▁protecting	-11385
▁president	-11386
▁öffnen	-11387
zin	-11388
▁05	-11389
▁reaching	-11390
▁repeat	-11391
▁Dauer	-11392
▁serves	-11393
wirt	-11394
▁eigenes	-11395
▁Umgang	-11396
▁Empf	-11397
▁Sauna	-11398
▁offices	-11399
▁weshalb	-11400
proble	-11401
▁bureauc	-11402
wood	-11403
▁Geschäft	-11404
▁passengers	-11405
vier	-11406
▁accom	-11407
flächen	-11408
▁enthus	-11409
▁64	-11410
▁Optim	-11411
▁voller	-11412
▁illustr	-11413
uens	-11414
▁Beispiele	-11415
▁Agrarpolitik	-11416
AV	-11417
eller	-11418
▁Ungar	-11419
▁ausgezeichnete	-11420
▁directives	-11421
▁geschrieben	-11422
icherungs	-11423
▁criticism	-11424
▁Regime	-11425
▁höhere	-11426
▁Sat	-11427
▁hit	-11428
▁Wirklichkeit	-11429
ichtbar	-11430
▁gefördert	-11431
▁contro	-11432
▁Britain	-11433
üren	-11434
▁obstac	-11435
▁Standort	-11436
▁List	-11437
▁bedeuten	-11438
▁laden	-11439
iform	-11440
▁zuerst	-11441
▁Kann	-11442
spruchs	-11443
▁direkte	-11444
▁license	-11445
▁residence	-11446
ailing	-11447
▁kombin	-11448
▁Einstellung	-11449
td	-11450
▁Reisen	-11451
▁Pia	-11452
tragung	-11453
legungen	-11454
▁removed	-11455
▁natürlichen	-11456
▁7.	-11457
▁Puert	-11458
▁hospit	-11459
▁zweifellos	-11460
▁Hindern	-11461
deten	-11462
▁fasc	-11463
onomie	-11464
rüstung	-11465
urd	-11466
plans	-11467
▁Bibliothe	-11468
▁combating	-11469
▁schwierigen	-11470
▁healthy	-11471
krit	-11472
▁Wil	-11473
▁Bauern	-11474
▁Verk	-11475
▁в	-11476
▁Massen	-11477
▁Proced	-11478
▁ausgezeichneten	-11479
▁übersch	-11480
▁hervorragende	-11481
ändler	-11482
▁Erwartungen	-11483
essene	-11484
▁stake	-11485
▁Ladies	-11486
▁Kapaz	-11487
▁stattf	-11488
▁strugg	-11489
▁maintained	-11490
gendes	-11491
▁millions	-11492
▁controlled	-11493
▁Kommunikations	-11494
▁Luxembourg	-11495
▁Verbesserungen	-11496
▁Bucht	-11497
ikes	-11498
▁Lim	-11499
▁Sad	-11500
▁Veranstaltung	-11501
uden	-11502
▁grundlegenden	-11503
▁Stift	-11504
▁fighting	-11505
▁jährlich	-11506
▁durchzuführen	-11507
▁160	-11508
liefert	-11509
▁ruhigen	-11510
weisung	-11511
▁cer	-11512
▁außen	-11513
▁niemals	-11514
▁neuesten	-11515
▁inzwischen	-11516
ati	-11517
▁Anschluss	-11518
▁determine	-11519
▁Kohäsions	-11520
bauen	-11521
inken	-11522
ource	-11523
▁zugänglich	-11524
▁Plug	-11525
reuung	-11526
▁Dusche	-11527
▁couple	-11528
▁Nap	-11529
▁Ren	-11530
▁temporary	-11531
▁läng	-11532
▁Nachfrage	-11533
▁impressive	-11534
▁kurze	-11535
ettbewerbs	-11536
acc	-11537
sprache	-11538
▁acquis	-11539
▁Anbieter	-11540
▁increases	-11541
▁Ausstattung	-11542
▁ursprünglichen	-11543
ani	-11544
▁Mut	-11545
räften	-11546
▁qualifiz	-11547
▁eyes	-11548
▁Ret	-11549
lieben	-11550
ugnisse	-11551
▁Ungleich	-11552
▁Verfahrens	-11553
▁impression	-11554
▁Klar	-11555
actory	-11556
▁Block	-11557
▁offenen	-11558
▁awareness	-11559
▁Anti	-11560
stehenden	-11561
▁Like	-11562
▁cancel	-11563
▁Kas	-11564
lined	-11565
▁Alternative	-11566
▁rapporteurs	-11567
▁depth	-11568
▁eigent	-11569
▁installiert	-11570
tedly	-11571
▁Strukturen	-11572
roc	-11573
▁ER	-11574
ints	-11575
bildungs	-11576
▁amounts	-11577
▁Ausgabe	-11578
▁communications	-11579
handelt	-11580
trieben	-11581
▁Croatia	-11582
▁reserve	-11583
▁ll	-11584
trägen	-11585
▁Tel	-11586
▁cry	-11587
▁strategies	-11588
▁leist	-11589
acher	-11590
ading	-11591
ällig	-11592
▁Frid	-11593
▁getr	-11594
▁boat	-11595
▁leaving	-11596
▁KMU	-11597
chron	-11598
▁Schulden	-11599
▁Zert	-11600
▁firstly	-11601
▁liberalisation	-11602
▁Town	-11603
▁catalog	-11604
▁consc	-11605
▁Canada	-11606
15	-11607
material	-11608
▁Award	-11609
▁reden	-11610
▁bemüht	-11611
urger	-11612
ml	-11613
▁Gener	-11614
▁Kroat	-11615
▁classic	-11616
ochen	-11617
▁iron	-11618
▁balcony	-11619
▁equally	-11620
▁preparation	-11621
▁AV	-11622
ventionen	-11623
komp	-11624
öd	-11625
azine	-11626
▁ausz	-11627
▁George	-11628
cap	-11629
▁AM	-11630
▁schreiben	-11631
▁Anwendungs	-11632
▁involvement	-11633
▁inhabit	-11634
▁Meinungs	-11635
▁restrictions	-11636
▁advoc	-11637
▁mandate	-11638
▁12.	-11639
▁WLAN	-11640
▁treaty	-11641
rep	-11642
oler	-11643
▁newly	-11644
▁Bulgaria	-11645
achte	-11646
apest	-11647
▁issued	-11648
▁17.	-11649
▁Boot	-11650
gesundheit	-11651
▁Audio	-11652
▁doesn	-11653
▁Instead	-11654
▁Hostelsclub	-11655
itäre	-11656
▁decorated	-11657
sta	-11658
▁ethnic	-11659
▁visual	-11660
▁Ausgangspunkt	-11661
▁happening	-11662
▁operational	-11663
▁essen	-11664
▁letzt	-11665
▁gene	-11666
▁remote	-11667
▁extraordin	-11668
▁surroundings	-11669
▁Child	-11670
▁Küsten	-11671
▁metal	-11672
▁fühlen	-11673
én	-11674
▁cab	-11675
▁einfachen	-11676
▁Japanese	-11677
▁präsentiert	-11678
▁stimmt	-11679
▁requirement	-11680
▁Überzeugung	-11681
▁organizations	-11682
▁fee	-11683
▁anwes	-11684
▁gelegt	-11685
▁largely	-11686
▁standing	-11687
▁remaining	-11688
▁Bestellung	-11689
stat	-11690
▁15.	-11691
örung	-11692
▁Year	-11693
▁dark	-11694
▁prohib	-11695
▁beraten	-11696
▁Websites	-11697
▁contributions	-11698
▁Gipf	-11699
▁Nein	-11700
umping	-11701
▁incent	-11702
▁Executive	-11703
▁renovated	-11704
▁spanischen	-11705
einrichtungen	-11706
▁GU	-11707
▁faith	-11708
▁interessant	-11709
▁betreffenden	-11710
▁sorgt	-11711
▁funktionieren	-11712
▁sauna	-11713
▁coher	-11714
▁debates	-11715
▁riesigen	-11716
ählte	-11717
▁dich	-11718
▁owner	-11719
▁Browser	-11720
▁Geschmack	-11721
▁beträcht	-11722
▁einerseits	-11723
uy	-11724
adow	-11725
▁gold	-11726
▁album	-11727
▁creates	-11728
gänge	-11729
ulich	-11730
▁volunt	-11731
▁grundlegende	-11732
▁Ath	-11733
▁soweit	-11734
▁detaill	-11735
▁collective	-11736
▁ausgesprochen	-11737
code	-11738
▁Wild	-11739
▁verändern	-11740
▁achten	-11741
▁musste	-11742
▁identify	-11743
▁officials	-11744
▁Through	-11745
▁universal	-11746
▁precise	-11747
▁Image	-11748
dessen	-11749
▁lobby	-11750
▁höchsten	-11751
▁sor	-11752
▁Jedes	-11753
reichung	-11754
▁UNO	-11755
▁10.	-11756
▁Their	-11757
▁menschlichen	-11758
▁Marina	-11759
▁inspir	-11760
▁Polish	-11761
▁Nahrungsmittel	-11762
▁Halb	-11763
modell	-11764
meldung	-11765
▁underm	-11766
▁mur	-11767
▁abroad	-11768
▁Einheit	-11769
▁richten	-11770
▁Abkommens	-11771
anen	-11772
▁ignor	-11773
produkte	-11774
entions	-11775
hi	-11776
steuer	-11777
iga	-11778
klärung	-11779
▁schließ	-11780
▁PRO	-11781
äll	-11782
rd	-11783
hops	-11784
▁hardware	-11785
▁opinions	-11786
▁disapp	-11787
▁trifft	-11788
▁Punkten	-11789
▁Max	-11790
▁contracts	-11791
▁NE	-11792
▁decis	-11793
▁walls	-11794
▁letzter	-11795
▁starten	-11796
▁traditions	-11797
▁organisiert	-11798
▁Steuern	-11799
▁schnelle	-11800
▁gets	-11801
▁charges	-11802
▁seat	-11803
▁gewalt	-11804
▁Word	-11805
▁pattern	-11806
▁prove	-11807
ingesch	-11808
▁Tschech	-11809
▁characteristics	-11810
verletz	-11811
▁Aktien	-11812
▁gezogen	-11813
▁nob	-11814
▁meat	-11815
▁Hohen	-11816
▁cable	-11817
▁legend	-11818
▁perfekt	-11819
▁gratulieren	-11820
▁MEPs	-11821
▁aufzunehmen	-11822
▁Secret	-11823
▁FA	-11824
EE	-11825
▁Arme	-11826
▁breite	-11827
reb	-11828
andal	-11829
▁Prüf	-11830
stood	-11831
▁Mode	-11832
▁umzusetzen	-11833
▁Ausstellung	-11834
▁geräum	-11835
▁Übersetzung	-11836
täus	-11837
▁Food	-11838
▁erlauben	-11839
▁returned	-11840
▁entscheidend	-11841
oni	-11842
▁Kommun	-11843
▁dritte	-11844
▁terrorist	-11845
grenzung	-11846
▁Regen	-11847
▁Ski	-11848
▁Brand	-11849
▁Abschnitt	-11850
▁Projekten	-11851
▁Mangel	-11852
▁seeing	-11853
▁abgelehnt	-11854
institution	-11855
ittees	-11856
▁label	-11857
▁depends	-11858
ipel	-11859
▁Eis	-11860
▁künftigen	-11861
äger	-11862
▁gewonnen	-11863
▁Lager	-11864
▁gender	-11865
iva	-11866
▁abol	-11867
ateful	-11868
schirm	-11869
▁Behinder	-11870
99	-11871
comm	-11872
▁Konsens	-11873
▁Farbe	-11874
▁Videos	-11875
▁gelöst	-11876
behörde	-11877
▁buchen	-11878
▁gebaut	-11879
▁conflicts	-11880
▁Harmonisierung	-11881
kur	-11882
▁aftern	-11883
▁artist	-11884
▁Late	-11885
märkte	-11886
▁messages	-11887
ilet	-11888
zellen	-11889
nischen	-11890
▁string	-11891
▁resolutions	-11892
▁Übereinstimmung	-11893
▁Internets	-11894
▁smo	-11895
▁verschiedener	-11896
▁Wähl	-11897
▁Vater	-11898
▁Gentoo	-11899
unicip	-11900
▁Problems	-11901
▁Rumänien	-11902
▁leistungs	-11903
pet	-11904
▁push	-11905
▁verlangt	-11906
▁Kilometer	-11907
▁verursacht	-11908
▁Himm	-11909
▁Entscheidungs	-11910
oria	-11911
orial	-11912
▁phen	-11913
▁GDP	-11914
▁Krisen	-11915
▁Earth	-11916
▁alarm	-11917
gä	-11918
▁Angst	-11919
angebot	-11920
▁fordere	-11921
▁übernimmt	-11922
▁sexual	-11923
▁tail	-11924
▁zählt	-11925
▁Vorschlägen	-11926
▁ausgeschlossen	-11927
▁Network	-11928
inational	-11929
▁einzigartige	-11930
eler	-11931
▁Vice	-11932
▁irre	-11933
▁veran	-11934
▁Brasil	-11935
▁accompan	-11936
▁Spaz	-11937
▁Verd	-11938
▁recip	-11939
aal	-11940
▁reported	-11941
▁auftreten	-11942
75	-11943
inuier	-11944
▁Armen	-11945
▁Stabilitäts	-11946
▁Washington	-11947
▁Rent	-11948
▁Ware	-11949
▁Wolf	-11950
ziplin	-11951
▁battle	-11952
▁annehmen	-11953
▁Fähigkeiten	-11954
▁Polizei	-11955
orca	-11956
▁carbon	-11957
rufen	-11958
▁Partnern	-11959
▁Klasse	-11960
izz	-11961
hard	-11962
▁Ersatz	-11963
▁appoint	-11964
▁parents	-11965
mes	-11966
▁youth	-11967
▁Agricult	-11968
▁Verbindungen	-11969
ätigung	-11970
▁regularly	-11971
▁Programmen	-11972
▁Gegend	-11973
▁transportation	-11974
▁Kreuz	-11975
▁abgesch	-11976
▁ungefähr	-11977
berge	-11978
▁thumb	-11979
▁Maastr	-11980
▁ausgewogen	-11981
rote	-11982
▁Thomas	-11983
▁Umfeld	-11984
▁enh	-11985
werb	-11986
▁gone	-11987
▁anstatt	-11988
▁drawing	-11989
zne	-11990
▁sin	-11991
▁Mold	-11992
▁zuständigen	-11993
▁Geh	-11994
▁Inner	-11995
▁beseit	-11996
▁Ausführungen	-11997
▁Zuständigkeit	-11998
▁topic	-11999
▁schafft	-12000
▁bottom	-12001
▁customs	-12002
▁holding	-12003
▁Komponenten	-12004
▁Mitgliedschaft	-12005
icip	-12006
▁organized	-12007
▁Fa	-12008
gemäß	-12009
finanz	-12010
▁vacation	-12011
▁facilitate	-12012
▁BSE	-12013
▁dates	-12014
▁verständ	-12015
▁Procedure	-12016
rohung	-12017
▁parlament	-12018
▁hervorheben	-12019
▁bekämpfen	-12020
▁¤	-12021
grenzen	-12022
▁Führer	-12023
uropäischen	-12024
▁schwed	-12025
CC	-12026
▁Gestaltung	-12027
▁DA	-12028
▁Ga	-12029
▁beabsicht	-12030
what	-12031
govern	-12032
▁Vorbe	-12033
▁involve	-12034
▁Verhandlungs	-12035
onn	-12036
freie	-12037
▁Brenn	-12038
▁connections	-12039
▁LE	-12040
▁Straß	-12041
▁career	-12042
▁Camping	-12043
▁Blut	-12044
▁suites	-12045
▁witness	-12046
▁wettbewerbs	-12047
▁Therm	-12048
▁continent	-12049
▁properties	-12050
▁Investitions	-12051
▁Jer	-12052
holders	-12053
wirkung	-12054
oßen	-12055
▁bud	-12056
ighten	-12057
▁kurzen	-12058
▁amerikanische	-12059
▁Semin	-12060
▁Buchung	-12061
▁ordnungs	-12062
▁awa	-12063
▁Access	-12064
▁lautet	-12065
lastung	-12066
uliert	-12067
decken	-12068
▁46	-12069
▁ticket	-12070
▁parliaments	-12071
▁cutting	-12072
▁mögliche	-12073
▁Indones	-12074
▁visa	-12075
▁conducted	-12076
▁uneingesch	-12077
cohol	-12078
▁Festlegung	-12079
arma	-12080
▁mitten	-12081
▁zentralen	-12082
▁Zwei	-12083
ef	-12084
iny	-12085
▁angesehen	-12086
▁aufgefordert	-12087
▁SMEs	-12088
▁quarter	-12089
▁hundreds	-12090
▁Noch	-12091
▁Geheim	-12092
▁amaz	-12093
▁bezug	-12094
▁Framework	-12095
▁rechtlichen	-12096
bek	-12097
▁präz	-12098
stellungs	-12099
▁Sonne	-12100
wachstum	-12101
▁windows	-12102
rest	-12103
bil	-12104
▁Client	-12105
vant	-12106
▁ball	-12107
▁mostly	-12108
▁Krankheiten	-12109
▁updated	-12110
macht	-12111
▁erör	-12112
▁define	-12113
▁reveal	-12114
lett	-12115
▁displayed	-12116
▁außerordentlich	-12117
irk	-12118
▁reserves	-12119
▁drug	-12120
▁cash	-12121
▁Schatten	-12122
▁contrast	-12123
ucher	-12124
▁einig	-12125
▁supposed	-12126
▁anschließen	-12127
▁aktuell	-12128
▁regulatory	-12129
▁ausgestatte	-12130
▁Ausführung	-12131
läut	-12132
▁Quark	-12133
▁Plattform	-12134
▁sehe	-12135
▁Sony	-12136
▁View	-12137
▁genet	-12138
▁recommendation	-12139
▁beglückwünschen	-12140
▁Struct	-12141
▁frequently	-12142
▁Blue	-12143
▁bekomm	-12144
▁minority	-12145
ypern	-12146
▁joined	-12147
▁Automobil	-12148
▁performed	-12149
▁father	-12150
▁channel	-12151
но	-12152
istern	-12153
essions	-12154
▁intensiv	-12155
uese	-12156
▁Cyprus	-12157
▁finished	-12158
wald	-12159
▁ought	-12160
▁zugunsten	-12161
▁Drittländern	-12162
▁Viet	-12163
beauftrag	-12164
▁vereinbar	-12165
▁IV	-12166
zeichnis	-12167
▁nachhaltigen	-12168
▁tar	-12169
▁Subsid	-12170
governmental	-12171
▁interior	-12172
erechtigkeit	-12173
mitten	-12174
▁Anton	-12175
DA	-12176
▁Arbeitsplatz	-12177
▁Kontext	-12178
▁follows	-12179
▁somewhat	-12180
▁Nahen	-12181
▁erwähn	-12182
▁hostel	-12183
▁mother	-12184
▁answers	-12185
▁Kat	-12186
▁heat	-12187
onymous	-12188
▁abandon	-12189
▁zurückge	-12190
▁settings	-12191
▁durchführen	-12192
▁geboren	-12193
▁früheren	-12194
▁Deutschen	-12195
▁kontinuier	-12196
▁Schlafzimmer	-12197
▁Roll	-12198
▁Symbol	-12199
▁stylish	-12200
▁zufolge	-12201
igend	-12202
▁anspruchs	-12203
▁österreich	-12204
32	-12205
▁avec	-12206
▁Gleichgewicht	-12207
▁planet	-12208
▁Verring	-12209
▁northern	-12210
▁depending	-12211
▁Protection	-12212
ergeb	-12213
▁Feuer	-12214
▁noted	-12215
schiedet	-12216
▁library	-12217
▁41	-12218
▁Merc	-12219
▁Trag	-12220
▁sac	-12221
forschung	-12222
führte	-12223
rating	-12224
▁unfor	-12225
▁verabschiedet	-12226
▁EM	-12227
▁TO	-12228
▁towns	-12229
▁verbringen	-12230
ete	-12231
▁Är	-12232
▁Road	-12233
▁emergency	-12234
▁personnel	-12235
aller	-12236
▁Ziffer	-12237
▁islands	-12238
▁worse	-12239
▁driver	-12240
liste	-12241
▁trib	-12242
▁trop	-12243
▁stars	-12244
▁derart	-12245
▁Werbung	-12246
▁erheblich	-12247
▁welfare	-12248
▁180	-12249
jährige	-12250
asche	-12251
holen	-12252
▁appointed	-12253
▁verstanden	-12254
▁interessante	-12255
▁notwendige	-12256
▁unent	-12257
▁faster	-12258
ifies	-12259
▁Alles	-12260
rem	-12261
bart	-12262
▁Wird	-12263
▁sodass	-12264
▁worry	-12265
▁phenomen	-12266
GB	-12267
lieb	-12268
▁Edition	-12269
far	-12270
▁bestätigen	-12271
▁wines	-12272
ausend	-12273
▁Budapest	-12274
erte	-12275
iera	-12276
uers	-12277
▁Arbeitsplätzen	-12278
▁castle	-12279
▁Planung	-12280
▁palästinens	-12281
try	-12282
▁profile	-12283
▁Geschäfte	-12284
iones	-12285
▁proc	-12286
▁Liter	-12287
▁ehrgeiz	-12288
▁Ka	-12289
▁PS	-12290
▁Hof	-12291
▁Fair	-12292
▁Mobile	-12293
▁CN	-12294
▁Fü	-12295
▁react	-12296
▁geprüft	-12297
▁demanding	-12298
▁Aktual	-12299
▁magnific	-12300
▁freiwill	-12301
▁grateful	-12302
▁techniques	-12303
▁MB	-12304
▁Gesetzes	-12305
▁Anre	-12306
▁Ferr	-12307
▁edge	-12308
▁Adobe	-12309
▁Taiwan	-12310
▁arrive	-12311
standards	-12312
▁produziert	-12313
▁Kompetenz	-12314
▁lounge	-12315
▁ausgezeichnet	-12316
▁Plenum	-12317
▁ultimately	-12318
▁shap	-12319
▁entdeck	-12320
▁focused	-12321
osis	-12322
▁invite	-12323
▁Prinzipien	-12324
▁Israeli	-12325
▁16.	-12326
▁Redner	-12327
▁Gemeinde	-12328
ci	-12329
▁UR	-12330
▁refr	-12331
▁Tarif	-12332
▁deals	-12333
▁compatible	-12334
▁electricity	-12335
▁Einstellungen	-12336
▁Games	-12337
▁channels	-12338
▁8.	-12339
▁James	-12340
▁Partners	-12341
▁zut	-12342
▁serviert	-12343
▁delighted	-12344
real	-12345
▁index	-12346
▁contacts	-12347
▁Polit	-12348
▁stored	-12349
▁individuell	-12350
▁kontakt	-12351
züge	-12352
▁sla	-12353
ivals	-12354
▁relaxation	-12355
bsp	-12356
igu	-12357
fuhr	-12358
▁valley	-12359
schäd	-12360
▁divided	-12361
▁eastern	-12362
▁Webseiten	-12363
usted	-12364
lässlich	-12365
▁Gerichte	-12366
▁exciting	-12367
▁Baltic	-12368
iour	-12369
▁geä	-12370
aine	-12371
▁Hostel	-12372
▁Prague	-12373
▁statistics	-12374
▁Wünsche	-12375
▁effectiveness	-12376
▁Vereinbarungen	-12377
▁Dev	-12378
▁catch	-12379
▁ermut	-12380
▁Werkzeug	-12381
▁afternoon	-12382
▁inhabitants	-12383
▁Author	-12384
▁Mexico	-12385
▁Whether	-12386
▁entrance	-12387
änen	-12388
lared	-12389
▁Michel	-12390
▁visible	-12391
▁hängt	-12392
orama	-12393
▁Legal	-12394
▁courage	-12395
orie	-12396
ältigen	-12397
▁Mem	-12398
schluß	-12399
▁Europol	-12400
▁Gewicht	-12401
▁Verpack	-12402
▁beschränkt	-12403
▁entschlossen	-12404
cean	-12405
▁Naz	-12406
▁47	-12407
▁Ungarn	-12408
▁bezahlen	-12409
▁frame	-12410
▁disappe	-12411
▁declaration	-12412
gut	-12413
▁vorange	-12414
▁heritage	-12415
har	-12416
kreis	-12417
▁Phot	-12418
▁Holid	-12419
▁Krimin	-12420
tendlich	-12421
▁Fleisch	-12422
на	-12423
üler	-12424
▁tickets	-12425
▁verschw	-12426
▁Optionen	-12427
▁drivers	-12428
▁locations	-12429
erten	-12430
▁protocol	-12431
▁sorgfältig	-12432
▁Abhäng	-12433
▁migration	-12434
▁Bemerkungen	-12435
▁aufnehmen	-12436
▁Friday	-12437
▁entsteht	-12438
▁Beiträge	-12439
▁Wei	-12440
▁Verteidigung	-12441
▁visited	-12442
▁Drittens	-12443
▁Ansprü	-12444
▁Kriegs	-12445
TE	-12446
▁Besonders	-12447
▁SL	-12448
▁starts	-12449
▁gewissen	-12450
otive	-12451
▁proved	-12452
▁tourists	-12453
▁Vorschlags	-12454
othe	-12455
▁Zentralbank	-12456
▁era	-12457
▁Page	-12458
▁fab	-12459
▁king	-12460
▁Congress	-12461
ESC	-12462
▁input	-12463
▁Automat	-12464
▁explore	-12465
▁Vict	-12466
▁passiert	-12467
▁passenger	-12468
▁pieces	-12469
▁Schweizer	-12470
▁jetz	-12471
▁nine	-12472
▁Nos	-12473
kohol	-12474
▁presents	-12475
▁Copenhagen	-12476
▁Monetary	-12477
▁bestimmen	-12478
▁Portuguese	-12479
▁abgestimmt	-12480
▁Yes	-12481
iffen	-12482
▁cosy	-12483
banken	-12484
▁Slovak	-12485
▁heating	-12486
▁virtual	-12487
▁Dipl	-12488
▁Freit	-12489
▁spoken	-12490
▁welchem	-12491
▁ausgesetzt	-12492
▁Stimmen	-12493
▁westlichen	-12494
▁Verringerung	-12495
örd	-12496
▁derartige	-12497
▁pollution	-12498
▁hinzufügen	-12499
entwurf	-12500
▁widely	-12501
▁Subsidiar	-12502
▁unmöglich	-12503
▁Bö	-12504
▁Franz	-12505
▁signs	-12506
▁Schuld	-12507
▁indicated	-12508
▁corresponding	-12509
äumt	-12510
werks	-12511
▁careful	-12512
▁visiting	-12513
▁1970	-12514
▁flights	-12515
▁Haftung	-12516
▁geboten	-12517
▁Konfigur	-12518
▁Krankheit	-12519
▁IB	-12520
ibar	-12521
▁GB	-12522
▁Jede	-12523
▁fitness	-12524
izer	-12525
▁Ltd	-12526
▁Situ	-12527
▁begrüßt	-12528
▁tatsäch	-12529
▁ausgeführt	-12530
▁demonstrate	-12531
▁Kra	-12532
▁gardens	-12533
▁Faktoren	-12534
▁maintaining	-12535
▁85	-12536
▁MA	-12537
▁subsidies	-12538
▁collaboration	-12539
ties	-12540
▁Moz	-12541
▁münd	-12542
▁Funds	-12543
▁preis	-12544
▁Konzer	-12545
maschine	-12546
▁Emissionen	-12547
▁Orte	-12548
▁spectacular	-12549
▁ven	-12550
▁Golden	-12551
▁Anmer	-12552
▁Mission	-12553
▁showing	-12554
▁Außenpolitik	-12555
log	-12556
▁Ext	-12557
▁Beziehung	-12558
▁geltenden	-12559
▁spezifischen	-12560
▁oral	-12561
▁Event	-12562
▁entwickelten	-12563
▁multinational	-12564
▁protest	-12565
▁Übersetz	-12566
gestellten	-12567
ahrt	-12568
▁Bars	-12569
▁newsp	-12570
▁direkten	-12571
▁erreichbar	-12572
▁cycle	-12573
▁Deswegen	-12574
▁discip	-12575
▁involves	-12576
▁functioning	-12577
▁Persön	-12578
▁definiert	-12579
▁Gesellschaften	-12580
▁config	-12581
▁Training	-12582
▁verhindert	-12583
▁wann	-12584
iented	-12585
▁Terra	-12586
▁Verbot	-12587
▁Zypern	-12588
ôtel	-12589
▁theme	-12590
▁Spazier	-12591
▁printing	-12592
▁understood	-12593
▁Sar	-12594
▁kostet	-12595
▁accompanied	-12596
▁trafficking	-12597
mung	-12598
▁verleihen	-12599
▁staatlichen	-12600
▁Int	-12601
ätigkeiten	-12602
erkennen	-12603
▁Einwohner	-12604
iox	-12605
ubs	-12606
▁Distribution	-12607
▁flag	-12608
▁interv	-12609
▁accident	-12610
▁Erholung	-12611
▁inf	-12612
immungs	-12613
▁copyright	-12614
▁Einbeziehung	-12615
▁verehrte	-12616
izza	-12617
▁echten	-12618
▁ferner	-12619
cas	-12620
▁13.	-12621
etzten	-12622
▁kämpfen	-12623
▁Milch	-12624
▁Single	-12625
▁2,	-12626
▁Sorgen	-12627
▁Project	-12628
▁Gründung	-12629
tele	-12630
▁Pot	-12631
▁privat	-12632
▁Schrift	-12633
pel	-12634
ochter	-12635
▁demonstrated	-12636
▁Charta	-12637
▁antw	-12638
▁didn	-12639
▁52	-12640
▁SE	-12641
▁Balkon	-12642
▁Newsletter	-12643
▁erleichtern	-12644
▁individuelle	-12645
holm	-12646
▁Luf	-12647
▁legt	-12648
▁wollten	-12649
▁Vermögen	-12650
car	-12651
▁Ten	-12652
ikaner	-12653
▁Individ	-12654
▁Interess	-12655
▁settlement	-12656
▁Wesent	-12657
▁Freiheiten	-12658
weile	-12659
▁termin	-12660
▁facility	-12661
▁department	-12662
mäßigen	-12663
▁investors	-12664
▁Tatsächlich	-12665
▁vollständige	-12666
icans	-12667
▁mitge	-12668
▁verwand	-12669
▁gezwungen	-12670
▁commission	-12671
▁Question	-12672
häuser	-12673
hörigen	-12674
▁Indian	-12675
▁solange	-12676
kontrolle	-12677
▁restruct	-12678
▁educational	-12679
ées	-12680
▁fertig	-12681
▁supplement	-12682
aser	-12683
▁Who	-12684
▁Beam	-12685
▁Conc	-12686
▁Dynam	-12687
ausschuß	-12688
icer	-12689
diction	-12690
▁expansion	-12691
▁Kongress	-12692
▁beeindruck	-12693
▁Gi	-12694
▁hervorge	-12695
▁Gespräche	-12696
▁Neue	-12697
▁Chair	-12698
▁Marktes	-12699
würdigkeit	-12700
aux	-12701
▁labe	-12702
inuten	-12703
▁Gerät	-12704
unning	-12705
▁smooth	-12706
▁700	-12707
lichung	-12708
▁rational	-12709
ulf	-12710
geräte	-12711
rical	-12712
▁Pact	-12713
▁confer	-12714
▁exklus	-12715
▁proven	-12716
etzte	-12717
▁Canon	-12718
▁alcohol	-12719
▁committees	-12720
▁israel	-12721
▁awarded	-12722
▁Maastricht	-12723
kter	-12724
▁sad	-12725
▁Reis	-12726
▁containing	-12727
▁resistance	-12728
▁Description	-12729
ammeln	-12730
▁certific	-12731
mens	-12732
passen	-12733
▁Kaffee	-12734
▁configuration	-12735
isses	-12736
▁Bedien	-12737
▁heutige	-12738
▁bilateral	-12739
▁rub	-12740
▁raw	-12741
▁2012	-12742
▁Infl	-12743
imedia	-12744
▁lebens	-12745
▁concluded	-12746
▁gespeichert	-12747
AB	-12748
▁Vize	-12749
▁Works	-12750
▁Mobilität	-12751
▁Genau	-12752
▁dream	-12753
iforn	-12754
▁Sche	-12755
▁Kräfte	-12756
▁Amendments	-12757
center	-12758
▁bemühen	-12759
▁vorlegen	-12760
▁autonom	-12761
▁Provinz	-12762
▁Frühstücksb	-12763
ни	-12764
ación	-12765
▁Asien	-12766
▁minorities	-12767
▁constitution	-12768
▁documentation	-12769
okument	-12770
▁plenty	-12771
▁definitely	-12772
▁Dass	-12773
▁respected	-12774
86	-12775
▁Made	-12776
▁Email	-12777
▁imposed	-12778
▁corruption	-12779
usse	-12780
attung	-12781
ayer	-12782
▁nahezu	-12783
▁occasions	-12784
▁forg	-12785
örderung	-12786
▁Politiken	-12787
▁beschleun	-12788
▁ice	-12789
einen	-12790
▁Gepäck	-12791
▁western	-12792
günst	-12793
arische	-12794
▁angemessene	-12795
▁überras	-12796
▁kurzfrist	-12797
nitten	-12798
▁Alexander	-12799
fragt	-12800
vertre	-12801
▁Autobahn	-12802
▁replaced	-12803
scheidet	-12804
▁weekend	-12805
cepts	-12806
region	-12807
▁milk	-12808
▁plen	-12809
▁höheren	-12810
▁behalten	-12811
ulpt	-12812
▁Bett	-12813
▁Kabel	-12814
▁Vietnam	-12815
▁Curr	-12816
usehen	-12817
▁Northern	-12818
▁streng	-12819
▁gallery	-12820
ulin	-12821
▁Perhaps	-12822
▁citizen	-12823
▁chinesischen	-12824
▁erinnert	-12825
▁HTML	-12826
▁recorded	-12827
estr	-12828
▁Quad	-12829
▁incomp	-12830
teilungen	-12831
▁prosper	-12832
▁gegebenen	-12833
▁Ib	-12834
▁Ku	-12835
agers	-12836
▁manager	-12837
▁replace	-12838
▁distingu	-12839
▁jegliche	-12840
▁sugar	-12841
ameters	-12842
▁Identität	-12843
▁foundation	-12844
sparte	-12845
▁forum	-12846
▁functional	-12847
▁Palästinens	-12848
▁manufacturer	-12849
undert	-12850
▁Versand	-12851
▁ongoing	-12852
▁firms	-12853
▁usual	-12854
▁nights	-12855
▁phrase	-12856
▁Sollten	-12857
mäßige	-12858
▁Applause	-12859
▁flu	-12860
▁seas	-12861
langen	-12862
ye	-12863
ography	-12864
▁Legisl	-12865
▁Zielen	-12866
▁judicial	-12867
▁DS	-12868
▁Niger	-12869
verhält	-12870
ammt	-12871
▁Ker	-12872
ignet	-12873
▁Versionen	-12874
ask	-12875
hone	-12876
▁Ill	-12877
▁übrigens	-12878
▁Wart	-12879
▁pursu	-12880
▁grundsätzlich	-12881
ror	-12882
schm	-12883
wege	-12884
▁verbind	-12885
ifizieren	-12886
gemeinschaft	-12887
▁Untersuchungen	-12888
▁Hardware	-12889
▁explicit	-12890
▁BIP	-12891
▁Werke	-12892
▁einfacher	-12893
▁traditionelle	-12894
▁SAP	-12895
▁Host	-12896
▁behaviour	-12897
▁9.	-12898
▁ped	-12899
▁Hungary	-12900
▁routes	-12901
▁tackle	-12902
▁breit	-12903
▁exit	-12904
pap	-12905
ughter	-12906
▁bright	-12907
ruh	-12908
▁Mikro	-12909
▁competent	-12910
▁sen	-12911
▁nunmehr	-12912
▁possibly	-12913
▁Objekt	-12914
▁luxurious	-12915
▁verbinden	-12916
▁Dal	-12917
▁immigrants	-12918
▁sah	-12919
▁neun	-12920
▁Fernseh	-12921
▁Mitarbeitern	-12922
▁thr	-12923
▁Balkan	-12924
▁renown	-12925
▁verringern	-12926
weite	-12927
▁Soviet	-12928
▁0,	-12929
▁Begr	-12930
▁bestehende	-12931
OW	-12932
öße	-12933
itra	-12934
▁mittler	-12935
▁fem	-12936
▁Laut	-12937
▁nutz	-12938
▁Belgium	-12939
ás	-12940
▁EZ	-12941
▁Vorgehen	-12942
▁assume	-12943
▁gewährt	-12944
▁Bord	-12945
▁Var	-12946
▁Preisen	-12947
▁desired	-12948
▁Chancen	-12949
▁konkret	-12950
▁rapidly	-12951
▁speaker	-12952
▁inflation	-12953
▁subsidiarity	-12954
iences	-12955
▁Respekt	-12956
▁Einwanderung	-12957
▁BMW	-12958
▁Besorgnis	-12959
bach	-12960
▁Educ	-12961
urlaub	-12962
▁crimes	-12963
▁professionals	-12964
EF	-12965
klass	-12966
▁Sollte	-12967
▁Zwecke	-12968
▁sharing	-12969
▁oriented	-12970
▁globalisation	-12971
▁Alpen	-12972
▁enjoyed	-12973
▁verdient	-12974
▁installieren	-12975
▁Zür	-12976
▁yes	-12977
▁Urheber	-12978
▁beliebt	-12979
▁Vel	-12980
▁Leon	-12981
▁Medik	-12982
▁licens	-12983
▁nachzu	-12984
▁Kapitel	-12985
▁satisfied	-12986
▁ruhig	-12987
▁CF	-12988
beziehungen	-12989
gerufen	-12990
▁ersetzt	-12991
prozesses	-12992
▁Look	-12993
▁Tochter	-12994
▁vorstellen	-12995
▁Following	-12996
▁facts	-12997
▁Salzburg	-12998
▁Bemerkung	-12999
▁Insbesondere	-13000
▁beschäftigen	-13001
üne	-13002
hängen	-13003
▁Konto	-13004
▁vorzu	-13005
▁Within	-13006
▁§	-13007
▁lit	-13008
▁woman	-13009
▁bilater	-13010
▁verurteilt	-13011
▁Mrd	-13012
▁Ech	-13013
▁sit	-13014
emble	-13015
light	-13016
▁Apple	-13017
▁oblige	-13018
▁Verbreitung	-13019
▁Nob	-13020
▁bla	-13021
▁Kais	-13022
▁prest	-13023
▁Donner	-13024
▁einheitlichen	-13025
▁Women	-13026
▁Konstru	-13027
▁individuellen	-13028
ulen	-13029
▁Job	-13030
▁films	-13031
▁distributed	-13032
▁Thurs	-13033
▁Energien	-13034
▁letztlich	-13035
▁Hen	-13036
liegt	-13037
▁Detail	-13038
▁Gang	-13039
▁organisieren	-13040
▁14.	-13041
▁Oder	-13042
▁horizont	-13043
▁flood	-13044
viertel	-13045
▁rental	-13046
▁destruction	-13047
▁surf	-13048
▁sending	-13049
▁Vorstellung	-13050
▁arrived	-13051
▁inklusive	-13052
▁entscheidende	-13053
herr	-13054
▁AKP	-13055
▁Argument	-13056
▁transactions	-13057
▁unverzüglich	-13058
▁determination	-13059
▁maritime	-13060
▁Bug	-13061
örter	-13062
▁scheme	-13063
▁magnificent	-13064
▁Tsch	-13065
▁fuer	-13066
▁popul	-13067
▁aussprechen	-13068
demark	-13069
▁component	-13070
▁luxuri	-13071
▁Dolom	-13072
▁Gefahren	-13073
erts	-13074
▁Cup	-13075
▁lots	-13076
ede	-13077
sieht	-13078
bekämpfung	-13079
▁suppliers	-13080
anke	-13081
▁berechtigt	-13082
▁tea	-13083
gor	-13084
▁sud	-13085
uminium	-13086
▁gespielt	-13087
UNG	-13088
problem	-13089
▁vorhandenen	-13090
mpath	-13091
partment	-13092
▁diagn	-13093
▁partly	-13094
TER	-13095
▁bekräft	-13096
▁overcome	-13097
▁stronger	-13098
▁1⁄	-13099
ained	-13100
▁Spaß	-13101
▁correctly	-13102
tung	-13103
▁root	-13104
▁minister	-13105
yside	-13106
▁Satz	-13107
▁adults	-13108
stoß	-13109
reffen	-13110
▁Content	-13111
▁Atlantic	-13112
▁credibility	-13113
▁Mini	-13114
▁Hungarian	-13115
▁Erzeugnisse	-13116
▁mac	-13117
rates	-13118
▁Puerto	-13119
▁Reduz	-13120
▁Staff	-13121
vertrag	-13122
▁marquis	-13123
▁vari	-13124
periode	-13125
betrieb	-13126
▁Wetter	-13127
35	-13128
▁addresses	-13129
▁centuries	-13130
▁gestaltet	-13131
uster	-13132
▁Kirk	-13133
▁Auge	-13134
▁Wohnung	-13135
▁Freunden	-13136
▁roll	-13137
▁Philosoph	-13138
zneimit	-13139
▁Charles	-13140
▁erfolgreiche	-13141
erin	-13142
▁beruht	-13143
▁transatlant	-13144
▁extraordinary	-13145
gess	-13146
▁Frie	-13147
wertet	-13148
▁Satur	-13149
▁wechs	-13150
kommunik	-13151
▁taxation	-13152
aun	-13153
▁rul	-13154
▁formed	-13155
▁ökonom	-13156
▁coal	-13157
▁updates	-13158
▁ursprünglich	-13159
▁VAT	-13160
▁deutsch	-13161
schaffung	-13162
▁intelligent	-13163
ockt	-13164
entwick	-13165
▁unfair	-13166
▁Konsult	-13167
▁constitutional	-13168
▁plenary	-13169
sse	-13170
otic	-13171
▁ing	-13172
▁Zone	-13173
▁Meister	-13174
▁uncertain	-13175
▁Rechnungshof	-13176
IX	-13177
▁Prom	-13178
▁Malta	-13179
▁fehlt	-13180
agg	-13181
▁Sn	-13182
▁semin	-13183
▁Kopenhagen	-13184
▁miles	-13185
▁domain	-13186
▁declared	-13187
▁Vern	-13188
▁großzüg	-13189
▁Att	-13190
▁Tip	-13191
hrten	-13192
▁courts	-13193
▁Perform	-13194
▁verwirk	-13195
zneimittel	-13196
▁Structural	-13197
oden	-13198
tein	-13199
dauer	-13200
▁Kab	-13201
▁Bang	-13202
anspr	-13203
▁erläut	-13204
▁stehenden	-13205
▁Schulen	-13206
▁angegebenen	-13207
▁generated	-13208
▁54	-13209
▁theoret	-13210
▁Parkplatz	-13211
oub	-13212
▁dürfte	-13213
▁shares	-13214
▁division	-13215
▁Nachricht	-13216
▁Vene	-13217
gelöst	-13218
lehnung	-13219
erce	-13220
▁jenen	-13221
▁identified	-13222
ju	-13223
▁deposit	-13224
▁Desk	-13225
▁Betrag	-13226
▁authentic	-13227
▁niedrig	-13228
▁Lok	-13229
▁inj	-13230
▁suspend	-13231
▁rechtzeit	-13232
Ro	-13233
▁dign	-13234
▁owned	-13235
etheless	-13236
▁Verlust	-13237
programms	-13238
▁britische	-13239
▁wiederholen	-13240
lic	-13241
▁russischen	-13242
▁substance	-13243
▁Water	-13244
▁Sunday	-13245
▁Schönheit	-13246
▁died	-13247
▁roads	-13248
▁McC	-13249
athol	-13250
▁Schle	-13251
▁Städten	-13252
▁inclusion	-13253
xy	-13254
▁Resolution	-13255
▁Ara	-13256
ographic	-13257
uben	-13258
▁Nic	-13259
▁Betracht	-13260
▁providers	-13261
▁Empfang	-13262
▁thousand	-13263
▁verkaufen	-13264
▁toba	-13265
ativer	-13266
icing	-13267
▁proposes	-13268
▁preparing	-13269
IDS	-13270
ündete	-13271
▁Verlauf	-13272
rown	-13273
▁lists	-13274
▁Festpl	-13275
▁·	-13276
wirkt	-13277
▁saving	-13278
▁Investment	-13279
▁verbesser	-13280
▁reduzieren	-13281
▁Marke	-13282
▁Nummer	-13283
▁encoun	-13284
▁considering	-13285
▁emotion	-13286
DR	-13287
idem	-13288
▁jung	-13289
▁brut	-13290
▁everyday	-13291
▁Übergangs	-13292
▁Klaus	-13293
teils	-13294
▁euros	-13295
▁schlägt	-13296
▁angewand	-13297
▁Balkans	-13298
▁TR	-13299
▁Ausmaß	-13300
▁resolved	-13301
ivalent	-13302
llo	-13303
▁Hamas	-13304
ardo	-13305
▁unn	-13306
▁arab	-13307
▁Zusch	-13308
▁Ernähr	-13309
▁Valley	-13310
▁Sektoren	-13311
▁concepts	-13312
▁eingereicht	-13313
wählen	-13314
▁artistic	-13315
ieb	-13316
▁Treat	-13317
▁assure	-13318
behandlung	-13319
▁Kontrollen	-13320
▁Sav	-13321
zonen	-13322
▁suit	-13323
▁eröff	-13324
BS	-13325
chnung	-13326
▁äußern	-13327
▁ensures	-13328
▁с	-13329
jan	-13330
ührt	-13331
▁Ram	-13332
paket	-13333
▁Lounge	-13334
▁Bereitstellung	-13335
MA	-13336
ziele	-13337
opt	-13338
▁Nam	-13339
▁Por	-13340
▁consent	-13341
▁Genehmigung	-13342
dienste	-13343
▁Systemen	-13344
oration	-13345
▁assets	-13346
▁Without	-13347
▁Gegenstand	-13348
▁afr	-13349
▁Traum	-13350
▁Orient	-13351
▁stil	-13352
bereiten	-13353
▁adopting	-13354
▁sensible	-13355
unications	-13356
▁slightly	-13357
▁Defiz	-13358
▁Given	-13359
▁Männern	-13360
▁actively	-13361
nex	-13362
▁spoke	-13363
▁finish	-13364
▁ACP	-13365
aling	-13366
▁nahm	-13367
▁partial	-13368
care	-13369
idet	-13370
stud	-13371
agent	-13372
▁Poly	-13373
▁enhance	-13374
▁erhielt	-13375
▁plays	-13376
▁drinks	-13377
▁bestimmter	-13378
gested	-13379
quar	-13380
▁Riv	-13381
fined	-13382
▁amen	-13383
▁Lobby	-13384
▁klaren	-13385
▁Exchange	-13386
▁Erstellung	-13387
LAF	-13388
▁Cho	-13389
▁ang	-13390
athem	-13391
informationen	-13392
▁burn	-13393
regeln	-13394
▁Gericht	-13395
▁university	-13396
▁kamen	-13397
▁verstärken	-13398
rt	-13399
▁EF	-13400
cont	-13401
werken	-13402
▁Beweg	-13403
▁Lieferung	-13404
useums	-13405
▁wrote	-13406
systeme	-13407
▁topics	-13408
▁director	-13409
▁departure	-13410
▁empfangen	-13411
▁elektronischen	-13412
▁Fundamental	-13413
ра	-13414
▁Putin	-13415
EA	-13416
▁Plus	-13417
▁jener	-13418
hips	-13419
▁Geschwindigkeit	-13420
▁Präsent	-13421
▁strategischen	-13422
▁musical	-13423
▁anwesend	-13424
▁französische	-13425
▁wunderschönen	-13426
▁Mur	-13427
zentren	-13428
▁Belast	-13429
▁tobacco	-13430
▁erfolgreichen	-13431
▁Aben	-13432
waffen	-13433
▁Thirdly	-13434
aya	-13435
▁Pakete	-13436
▁Fußball	-13437
▁packaging	-13438
▁eingehalten	-13439
▁encouraging	-13440
rob	-13441
▁beigetragen	-13442
▁Wal	-13443
▁gekenn	-13444
▁dependent	-13445
19	-13446
▁vieles	-13447
▁Assembly	-13448
▁vermitteln	-13449
▁kleines	-13450
▁Thursday	-13451
ila	-13452
▁Rena	-13453
ueller	-13454
▁Stutt	-13455
▁auseinander	-13456
▁vorbereitet	-13457
▁zurückzu	-13458
▁Sozialdem	-13459
▁Vide	-13460
plications	-13461
▁Wohlstand	-13462
▁Travel	-13463
▁fourth	-13464
amo	-13465
auten	-13466
▁poten	-13467
prene	-13468
▁komme	-13469
▁Gaza	-13470
▁Kreis	-13471
▁Rechtsgrundlage	-13472
stes	-13473
▁examine	-13474
▁verantwortungs	-13475
UL	-13476
▁song	-13477
▁voluntary	-13478
ín	-13479
▁CR	-13480
freien	-13481
▁deleg	-13482
▁Train	-13483
▁integriert	-13484
▁desk	-13485
schefs	-13486
▁Freitag	-13487
▁countryside	-13488
▁info	-13489
▁digit	-13490
▁upper	-13491
▁Zusätzlich	-13492
▁army	-13493
oles	-13494
▁Cla	-13495
▁Flugzeug	-13496
▁duties	-13497
well	-13498
strafe	-13499
▁liked	-13500
▁vorrang	-13501
▁applying	-13502
▁Rechtsstaat	-13503
▁großem	-13504
endo	-13505
▁Schluß	-13506
▁theory	-13507
▁emerging	-13508
▁renowned	-13509
▁aktivieren	-13510
▁decisive	-13511
▁ou	-13512
▁handle	-13513
▁winning	-13514
▁Bulgarien	-13515
kehrt	-13516
dis	-13517
▁vary	-13518
▁hyd	-13519
ässig	-13520
▁liefert	-13521
▁shipping	-13522
▁supplies	-13523
▁stolz	-13524
▁Filter	-13525
ausschau	-13526
▁eventually	-13527
▁Überlegungen	-13528
▁XP	-13529
▁Stras	-13530
▁Rab	-13531
▁susp	-13532
▁Beschlüsse	-13533
▁erhebliche	-13534
▁description	-13535
▁lift	-13536
▁proposing	-13537
acks	-13538
uggage	-13539
lösungen	-13540
▁uniform	-13541
menade	-13542
ziellen	-13543
▁Geträn	-13544
▁carrying	-13545
etto	-13546
ademy	-13547
ingly	-13548
ilding	-13549
▁lokale	-13550
▁unvergess	-13551
▁beobachten	-13552
▁einzigartigen	-13553
▁Castle	-13554
anw	-13555
▁Sudan	-13556
▁disabled	-13557
▁Positionen	-13558
iets	-13559
▁specified	-13560
prä	-13561
▁squ	-13562
gänger	-13563
▁della	-13564
▁insist	-13565
▁gearbeitet	-13566
SA	-13567
WF	-13568
▁lessons	-13569
politische	-13570
▁OR	-13571
▁Thail	-13572
▁Quality	-13573
▁beteiligen	-13574
▁nevertheless	-13575
läuft	-13576
▁Erlebnis	-13577
▁subjects	-13578
aue	-13579
▁verboten	-13580
▁verbindet	-13581
▁Full	-13582
▁Sohn	-13583
▁batter	-13584
▁iPhone	-13585
▁employed	-13586
▁ausgerichtet	-13587
▁Allian	-13588
▁Game	-13589
räumen	-13590
▁entscheidender	-13591
▁Hot	-13592
▁Rio	-13593
▁Next	-13594
▁Monday	-13595
▁Budgets	-13596
▁erzeugt	-13597
▁legitimate	-13598
▁Amt	-13599
▁Mov	-13600
▁Nachhalt	-13601
▁Federation	-13602
ood	-13603
vol	-13604
iegelt	-13605
steigen	-13606
dorf	-13607
▁abuse	-13608
▁Consult	-13609
▁Kroatien	-13610
▁suggestions	-13611
▁decre	-13612
▁villages	-13613
..	-13614
uchs	-13615
▁Metro	-13616
▁Sonntag	-13617
▁bedauer	-13618
▁Kulturen	-13619
▁Sicherung	-13620
idad	-13621
▁defect	-13622
▁Schüler	-13623
iki	-13624
▁Schon	-13625
▁preced	-13626
▁betreffend	-13627
▁vulnerable	-13628
iefer	-13629
onien	-13630
service	-13631
▁solches	-13632
▁Pen	-13633
▁supplier	-13634
▁kilomet	-13635
orer	-13636
▁Budd	-13637
▁schicken	-13638
▁reservations	-13639
igert	-13640
▁tast	-13641
▁Holiday	-13642
oom	-13643
▁warn	-13644
▁teams	-13645
▁solely	-13646
▁Modelle	-13647
▁bislang	-13648
▁philosophy	-13649
rel	-13650
▁Jung	-13651
▁relie	-13652
▁module	-13653
▁langsam	-13654
▁impose	-13655
▁Besides	-13656
▁Institut	-13657
▁genannte	-13658
▁wireless	-13659
▁Suiten	-13660
▁Passwort	-13661
▁elsewhere	-13662
▁Tennis	-13663
▁absence	-13664
▁Professor	-13665
▁satisfaction	-13666
deckt	-13667
ented	-13668
äusern	-13669
▁receiving	-13670
▁Konkurr	-13671
▁Addition	-13672
▁Ansichten	-13673
PC	-13674
▁realistic	-13675
gebiete	-13676
▁Ankunft	-13677
▁Einkommen	-13678
▁anbel	-13679
▁bridge	-13680
▁Eingang	-13681
▁sozialer	-13682
▁narrow	-13683
TS	-13684
gehens	-13685
▁panoram	-13686
▁unforget	-13687
▁Agriculture	-13688
ville	-13689
while	-13690
▁Darum	-13691
▁filled	-13692
▁gained	-13693
▁greatly	-13694
▁Domin	-13695
▁shock	-13696
▁ships	-13697
▁interpretation	-13698
▁revision	-13699
▁Glaubwürdigkeit	-13700
▁tables	-13701
▁Katastrophe	-13702
▁Luxus	-13703
▁doors	-13704
▁deficit	-13705
▁appeared	-13706
▁comparison	-13707
edy	-13708
down	-13709
▁Cir	-13710
▁stren	-13711
▁Having	-13712
▁sounds	-13713
▁patient	-13714
leiter	-13715
▁Among	-13716
▁regarded	-13717
▁Bedrohung	-13718
NA	-13719
▁delicious	-13720
▁abziel	-13721
▁excessive	-13722
▁Strasbourg	-13723
▁ju	-13724
derung	-13725
▁Common	-13726
ieden	-13727
▁poly	-13728
▁roof	-13729
▁verkauft	-13730
endar	-13731
▁Pfer	-13732
▁voranz	-13733
▁personen	-13734
▁Pfe	-13735
▁Bege	-13736
▁Wissens	-13737
▁anbelangt	-13738
▁Ec	-13739
▁Herbst	-13740
pft	-13741
▁Beste	-13742
▁scene	-13743
▁leichter	-13744
▁Gewährleistung	-13745
▁Guests	-13746
▁exports	-13747
▁Vorhaben	-13748
▁einzigart	-13749
14	-13750
▁hyp	-13751
▁Space	-13752
▁Prozesse	-13753
gart	-13754
▁Porto	-13755
▁Captain	-13756
▁Quellen	-13757
▁colours	-13758
▁Eigentum	-13759
▁zuständig	-13760
▁tennis	-13761
▁boost	-13762
▁kreat	-13763
▁Anlass	-13764
athedral	-13765
▁acting	-13766
▁Sind	-13767
▁überprüft	-13768
▁Wäl	-13769
▁Tools	-13770
▁stammen	-13771
▁bereitgestellt	-13772
▁konfront	-13773
▁Saison	-13774
▁Erfüllung	-13775
itim	-13776
▁Übrigen	-13777
▁welcoming	-13778
▁Wählen	-13779
▁simult	-13780
▁Reduzierung	-13781
▁representation	-13782
rog	-13783
▁ports	-13784
▁forests	-13785
▁Donnerstag	-13786
▁Konsequenzen	-13787
▁confirmation	-13788
▁adm	-13789
▁Based	-13790
chst	-13791
▁nörd	-13792
▁enabled	-13793
anne	-13794
▁ausgeb	-13795
sph	-13796
▁Ly	-13797
▁fu	-13798
▁189	-13799
▁fan	-13800
▁Kühl	-13801
▁manual	-13802
▁Pac	-13803
afrika	-13804
▁Entfern	-13805
glichkeit	-13806
▁letztendlich	-13807
▁Sz	-13808
▁Zuge	-13809
▁Place	-13810
▁Treib	-13811
▁aktive	-13812
▁Güter	-13813
rechter	-13814
▁Hat	-13815
ofern	-13816
▁geziel	-13817
bereichen	-13818
urteilung	-13819
▁beantworten	-13820
▁Gehm	-13821
▁Staates	-13822
▁Mountain	-13823
▁Mak	-13824
▁horse	-13825
▁spons	-13826
▁farming	-13827
▁housing	-13828
▁Kontakte	-13829
tty	-13830
▁Verzö	-13831
▁weist	-13832
▁wohnen	-13833
▁Kollegin	-13834
▁reaction	-13835
▁gehe	-13836
werben	-13837
▁invited	-13838
▁directory	-13839
▁difficulty	-13840
▁weitgehend	-13841
▁acknowledge	-13842
▁refers	-13843
▁verwe	-13844
▁skiing	-13845
▁offiziellen	-13846
▁glück	-13847
▁verteidigen	-13848
hört	-13849
lings	-13850
▁Verg	-13851
▁hart	-13852
▁Finanzierungs	-13853
▁IF	-13854
▁AIDS	-13855
▁hinweg	-13856
▁warrant	-13857
▁Cub	-13858
liehen	-13859
wahlen	-13860
▁Vizepräsident	-13861
▁boot	-13862
▁permitted	-13863
.20	-13864
town	-13865
▁passion	-13866
oured	-13867
▁scre	-13868
▁erlebt	-13869
▁periods	-13870
äßt	-13871
▁erz	-13872
alerie	-13873
▁cul	-13874
mbuds	-13875
▁savings	-13876
▁attempts	-13877
▁Funktions	-13878
▁wiederholt	-13879
▁Arzneimittel	-13880
▁blind	-13881
▁Mittag	-13882
▁banking	-13883
▁Situated	-13884
▁publication	-13885
▁genügend	-13886
▁murder	-13887
enia	-13888
▁Stoffe	-13889
▁constitute	-13890
▁Key	-13891
▁Konzern	-13892
▁Verarbeitung	-13893
▁53	-13894
weilen	-13895
▁ähnlich	-13896
▁trademark	-13897
▁1.5	-13898
achts	-13899
▁Schiffe	-13900
▁Beschwer	-13901
▁football	-13902
▁Stockholm	-13903
orse	-13904
▁hill	-13905
▁Still	-13906
▁Anstieg	-13907
▁Line	-13908
▁kern	-13909
▁pursue	-13910
▁religion	-13911
▁spezifische	-13912
▁allzu	-13913
▁Anwender	-13914
▁innen	-13915
▁mussten	-13916
▁mittleren	-13917
▁herrscht	-13918
▁freundlich	-13919
zenten	-13920
▁Praktiken	-13921
▁Sem	-13922
▁infr	-13923
▁filter	-13924
▁suggested	-13925
▁einbezogen	-13926
iensten	-13927
▁Hom	-13928
li	-13929
▁170	-13930
▁entwickelte	-13931
chester	-13932
▁cleaning	-13933
▁Unternehmer	-13934
▁paint	-13935
▁resource	-13936
technologie	-13937
▁Haushaltsplan	-13938
16	-13939
leute	-13940
▁Leiden	-13941
▁breiten	-13942
▁federal	-13943
pol	-13944
▁Schwimm	-13945
▁Urlaubs	-13946
▁Augenblick	-13947
führungs	-13948
▁Potenzial	-13949
▁arguments	-13950
▁continuous	-13951
mpt	-13952
▁pas	-13953
▁Textil	-13954
effizienz	-13955
▁Latein	-13956
▁Schnitts	-13957
iza	-13958
zepte	-13959
recher	-13960
ordnungen	-13961
▁erstmals	-13962
▁complement	-13963
▁Ce	-13964
▁Playa	-13965
▁paying	-13966
▁56	-13967
▁Grünen	-13968
▁Verletzung	-13969
GE	-13970
▁tree	-13971
▁layer	-13972
▁angepasst	-13973
pläne	-13974
▁inmitten	-13975
▁festival	-13976
▁Gerechtigkeit	-13977
▁machte	-13978
▁Finland	-13979
udi	-13980
iess	-13981
ügigkeit	-13982
▁ernsthaft	-13983
agements	-13984
▁hierbei	-13985
▁municip	-13986
▁Vort	-13987
▁betreiben	-13988
▁vorzulegen	-13989
▁Li	-13990
ixel	-13991
▁Family	-13992
▁Islands	-13993
▁breach	-13994
▁leaves	-13995
▁Gehminuten	-13996
▁Rap	-13997
niveau	-13998
▁optimale	-13999
▁japan	-14000
▁Metall	-14001
▁destroyed	-14002
rome	-14003
▁Dres	-14004
▁tend	-14005
▁mi	-14006
Rooms	-14007
folgung	-14008
aßt	-14009
▁Gerade	-14010
organ	-14011
▁Millenn	-14012
CP	-14013
west	-14014
lager	-14015
▁overview	-14016
ärkt	-14017
▁stellte	-14018
vi	-14019
ping	-14020
▁Rout	-14021
▁beendet	-14022
▁evident	-14023
weisungen	-14024
▁Sammlung	-14025
▁welcomed	-14026
▁reduziert	-14027
▁Dokumenten	-14028
▁Entlastung	-14029
▁investieren	-14030
▁trips	-14031
▁Umsatz	-14032
▁Belgien	-14033
▁empfohlen	-14034
▁justified	-14035
andt	-14036
▁Fahrt	-14037
fangen	-14038
▁schwe	-14039
▁Ebenen	-14040
▁gründ	-14041
geschichte	-14042
aders	-14043
▁gefallen	-14044
▁Tätigkeiten	-14045
▁politically	-14046
▁AS	-14047
riebe	-14048
▁lived	-14049
▁unforgettable	-14050
ESCO	-14051
▁Album	-14052
▁twenty	-14053
▁bekommt	-14054
▁68	-14055
▁SS	-14056
▁tritt	-14057
▁enterprise	-14058
▁Wär	-14059
▁deswegen	-14060
▁größeres	-14061
▁Au	-14062
ounted	-14063
▁LT	-14064
▁fans	-14065
▁Sachen	-14066
usstsein	-14067
▁führende	-14068
oche	-14069
estra	-14070
▁carr	-14071
▁elector	-14072
▁Source	-14073
▁welcomes	-14074
▁cooperate	-14075
▁referendum	-14076
▁CAP	-14077
▁harmonisation	-14078
▁teile	-14079
ро	-14080
aga	-14081
▁obliged	-14082
▁erwähnen	-14083
▁Brasilien	-14084
▁Fahrzeuge	-14085
▁lunch	-14086
▁reput	-14087
▁Pension	-14088
ianischen	-14089
▁umfassend	-14090
▁Äg	-14091
▁eat	-14092
asion	-14093
advant	-14094
▁diesel	-14095
▁Account	-14096
▁anschließend	-14097
▁Emb	-14098
▁videos	-14099
▁Tourism	-14100
▁Prozesses	-14101
gner	-14102
water	-14103
kultur	-14104
▁Venice	-14105
▁vollen	-14106
▁legally	-14107
▁versichern	-14108
▁significance	-14109
▁©	-14110
annter	-14111
▁studio	-14112
ierender	-14113
▁kontaktieren	-14114
▁manche	-14115
▁radical	-14116
schriften	-14117
▁Corporate	-14118
laut	-14119
▁obser	-14120
▁deserv	-14121
garten	-14122
▁directed	-14123
▁hospitality	-14124
▁Jos	-14125
▁ersetzen	-14126
werts	-14127
▁Alltag	-14128
▁experim	-14129
▁none	-14130
▁Trotzdem	-14131
▁instructions	-14132
▁selling	-14133
▁unterstreichen	-14134
ulous	-14135
▁excurs	-14136
▁enabling	-14137
▁ordinary	-14138
▁einzusetzen	-14139
▁sought	-14140
arbeitungs	-14141
▁Facilities	-14142
▁Wed	-14143
stall	-14144
lichten	-14145
▁gelingt	-14146
▁Korre	-14147
▁looked	-14148
▁tranqu	-14149
▁Korruption	-14150
▁Catal	-14151
▁surve	-14152
▁tested	-14153
▁Ausflüge	-14154
▁bedeutende	-14155
▁characters	-14156
▁vorgesehenen	-14157
▁ré	-14158
rock	-14159
▁Alger	-14160
▁Gefäng	-14161
ami	-14162
▁attrib	-14163
▁zukünftigen	-14164
▁BE	-14165
▁ED	-14166
▁herum	-14167
▁prosperity	-14168
▁Weiteren	-14169
▁suffered	-14170
▁LateRooms	-14171
▁Freizügigkeit	-14172
▁ende	-14173
▁behaupten	-14174
▁unterzeichnet	-14175
▁asp	-14176
▁hilf	-14177
▁getragen	-14178
ktors	-14179
▁Abfall	-14180
▁Gottes	-14181
▁Medizin	-14182
ко	-14183
▁EX	-14184
▁Betten	-14185
probleme	-14186
▁imports	-14187
▁disadvant	-14188
▁ansprechen	-14189
▁unterscheiden	-14190
ricted	-14191
▁UNESCO	-14192
oubtedly	-14193
ieß	-14194
▁retail	-14195
▁Genießen	-14196
▁verfügbaren	-14197
oz	-14198
pot	-14199
▁clubs	-14200
▁surely	-14201
utet	-14202
cribe	-14203
▁Tests	-14204
fernen	-14205
▁Valen	-14206
▁Mallorca	-14207
▁gestattet	-14208
▁absor	-14209
▁negotiating	-14210
▁boy	-14211
▁könnt	-14212
▁internen	-14213
ulse	-14214
▁Fein	-14215
▁grav	-14216
▁supervision	-14217
point	-14218
▁Organe	-14219
aret	-14220
▁homes	-14221
▁Berliner	-14222
▁Education	-14223
cal	-14224
▁Ergän	-14225
▁cater	-14226
▁illegalen	-14227
▁beings	-14228
▁Customer	-14229
▁Transfer	-14230
▁künftige	-14231
▁Übernachtung	-14232
gro	-14233
▁fas	-14234
▁vit	-14235
ammelt	-14236
▁Spitzen	-14237
▁compact	-14238
▁complicated	-14239
▁freedoms	-14240
▁appearance	-14241
▁Zürich	-14242
▁barriers	-14243
▁abstimmen	-14244
▁allocated	-14245
▁parameters	-14246
übt	-14247
▁Vorder	-14248
▁modules	-14249
anning	-14250
200	-14251
▁Ball	-14252
▁NGOs	-14253
▁Auditors	-14254
▁everybody	-14255
▁Zy	-14256
▁ride	-14257
▁labelling	-14258
▁entreprene	-14259
drich	-14260
▁lasting	-14261
▁begrenzt	-14262
▁Aufsichts	-14263
enter	-14264
▁Dikt	-14265
▁pharm	-14266
auschen	-14267
ränkung	-14268
▁realise	-14269
▁Thailand	-14270
▁romantic	-14271
▁Situationen	-14272
▁hast	-14273
▁Import	-14274
ungssystem	-14275
▁konfrontiert	-14276
▁rück	-14277
▁verteilt	-14278
▁mitteilen	-14279
pfl	-14280
rim	-14281
▁durchschnitt	-14282
▁empt	-14283
▁Artik	-14284
▁cells	-14285
▁prime	-14286
▁Francis	-14287
▁specialist	-14288
▁programming	-14289
▁Bevölkerungs	-14290
▁Vul	-14291
▁kne	-14292
ureich	-14293
▁rising	-14294
poration	-14295
▁gebrauch	-14296
▁superior	-14297
▁beeinträcht	-14298
merz	-14299
▁voran	-14300
cles	-14301
▁Ruf	-14302
▁Secretary	-14303
▁Stoff	-14304
▁forthcoming	-14305
▁proceedings	-14306
▁ere	-14307
▁Attra	-14308
▁Geburt	-14309
▁Existenz	-14310
▁Christmas	-14311
▁Vereinfach	-14312
aton	-14313
ieller	-14314
▁acknowled	-14315
riere	-14316
▁erstre	-14317
▁killed	-14318
oft	-14319
▁wellness	-14320
▁unterliegen	-14321
ötz	-14322
▁defe	-14323
▁museums	-14324
▁islam	-14325
▁Direct	-14326
▁societies	-14327
▁SA	-14328
▁Hit	-14329
▁movie	-14330
▁offene	-14331
▁Saturday	-14332
▁Socialist	-14333
rifft	-14334
uverän	-14335
▁Vorgehens	-14336
▁herunterladen	-14337
ijk	-14338
▁Armee	-14339
▁Pläne	-14340
▁ergänzen	-14341
▁amenities	-14342
▁originally	-14343
IK	-14344
betten	-14345
▁Ablehnung	-14346
▁Australia	-14347
▁Dor	-14348
BC	-14349
ärten	-14350
▁manip	-14351
▁indirect	-14352
▁preventing	-14353
▁contributed	-14354
utral	-14355
iversary	-14356
▁cancell	-14357
▁hervorgehoben	-14358
baus	-14359
ökonom	-14360
▁Spann	-14361
▁begeg	-14362
▁Ticket	-14363
▁Islamic	-14364
▁Willkommen	-14365
bestimmungen	-14366
▁Hauptbahnhof	-14367
▁konzentriert	-14368
▁PSE	-14369
▁whereas	-14370
▁Sky	-14371
seite	-14372
▁Beaut	-14373
▁compe	-14374
▁hardly	-14375
▁Stuttgart	-14376
OC	-14377
illed	-14378
▁juris	-14379
▁bisherigen	-14380
enth	-14381
▁EZB	-14382
▁Joseph	-14383
▁Branche	-14384
▁Louis	-14385
▁Stiftung	-14386
▁relative	-14387
iale	-14388
▁Planeten	-14389
▁Perspektive	-14390
▁Fünf	-14391
▁sequ	-14392
▁portug	-14393
▁Leitung	-14394
▁indicate	-14395
lers	-14396
▁crop	-14397
▁fees	-14398
ployed	-14399
▁Moroc	-14400
▁remained	-14401
▁langfristige	-14402
▁58	-14403
▁Runde	-14404
▁anzuzeigen	-14405
irs	-14406
immers	-14407
▁menschliche	-14408
▁personenbezogen	-14409
öffnung	-14410
▁Rückkehr	-14411
▁functionality	-14412
▁vorgeschlagene	-14413
▁51	-14414
▁bike	-14415
▁remarks	-14416
▁Abendessen	-14417
▁Hann	-14418
▁Bonus	-14419
▁Spekt	-14420
▁Lernen	-14421
▁angenehm	-14422
▁geraten	-14423
▁imagine	-14424
instrument	-14425
▁introducing	-14426
▁Does	-14427
▁Head	-14428
eschäd	-14429
▁Asian	-14430
▁vessels	-14431
▁sections	-14432
▁behoben	-14433
▁Americans	-14434
▁präsentieren	-14435
ACH	-14436
weich	-14437
▁ranging	-14438
▁sam	-14439
▁recy	-14440
▁thir	-14441
▁Montag	-14442
▁Should	-14443
▁genere	-14444
zuschließen	-14445
ji	-14446
▁Light	-14447
▁Serbia	-14448
▁Alb	-14449
▁Opposition	-14450
▁recognized	-14451
ätzt	-14452
▁hes	-14453
▁Wähler	-14454
▁Emissions	-14455
burgh	-14456
▁Allianz	-14457
▁Oste	-14458
cession	-14459
▁Piazza	-14460
iese	-14461
▁Widerspruch	-14462
opes	-14463
▁1960	-14464
istischer	-14465
▁errors	-14466
▁Komplex	-14467
▁Aktionsplan	-14468
▁nord	-14469
▁anhand	-14470
▁lieber	-14471
▁stocks	-14472
▁amazing	-14473
beschreibung	-14474
▁SK	-14475
▁cuts	-14476
▁judge	-14477
▁Betreiber	-14478
▁umfangreiche	-14479
laim	-14480
▁hearing	-14481
▁sustainability	-14482
▁Coll	-14483
▁covering	-14484
▁Chinas	-14485
▁firmly	-14486
▁simultane	-14487
▁praktische	-14488
▁transmission	-14489
ipher	-14490
▁Vorlage	-14491
emark	-14492
kapaz	-14493
▁ergibt	-14494
▁classes	-14495
▁gebeten	-14496
▁Gleichstellung	-14497
▁Geneva	-14498
▁angest	-14499
▁concert	-14500
▁enhanced	-14501
▁Stability	-14502
▁explained	-14503
▁unzureich	-14504
▁Satelliten	-14505
abet	-14506
▁30.	-14507
order	-14508
opolit	-14509
▁manif	-14510
▁missing	-14511
▁schlagen	-14512
▁CHF	-14513
▁Level	-14514
▁endorse	-14515
▁finanziert	-14516
▁eingegangen	-14517
▁sichere	-14518
▁exclusion	-14519
▁aufs	-14520
▁Frist	-14521
▁MO	-14522
▁Miß	-14523
▁arran	-14524
▁grosse	-14525
▁organic	-14526
▁rechten	-14527
verwaltung	-14528
▁Widerstand	-14529
▁enthaltenen	-14530
pfen	-14531
▁Lith	-14532
▁Ägyp	-14533
▁metro	-14534
ologien	-14535
eitigung	-14536
▁hochwertige	-14537
ugt	-14538
▁calm	-14539
▁Autos	-14540
▁songs	-14541
▁Luxemburg	-14542
▁Wochenende	-14543
▁conce	-14544
▁Monitor	-14545
▁exploitation	-14546
projekt	-14547
▁Häuser	-14548
▁aufgebaut	-14549
▁vereinbart	-14550
▁shar	-14551
▁saved	-14552
▁Zeitung	-14553
rik	-14554
▁Lear	-14555
▁Volkes	-14556
▁accurate	-14557
▁encounter	-14558
llers	-14559
grenze	-14560
▁habit	-14561
wendungen	-14562
▁и	-14563
nor	-14564
▁erfreut	-14565
isa	-14566
ußt	-14567
▁DC	-14568
structed	-14569
▁Consumer	-14570
▁è	-14571
▁Tabak	-14572
▁Vorausschau	-14573
▁Katastrophen	-14574
▁Fal	-14575
▁Veränderung	-14576
▁Abhängigkeit	-14577
▁militärischen	-14578
65	-14579
▁Schwarz	-14580
▁movements	-14581
▁consulting	-14582
▁sogenannten	-14583
ni	-14584
▁zivil	-14585
ophistic	-14586
▁Kirchen	-14587
▁Vista	-14588
▁Culture	-14589
▁Herstell	-14590
▁Nachhaltigkeit	-14591
▁kg	-14592
auspiel	-14593
▁Märkten	-14594
▁obstacles	-14595
oul	-14596
rein	-14597
drückt	-14598
▁Applik	-14599
▁Steuerung	-14600
▁besonderer	-14601
▁CP	-14602
▁Big	-14603
▁Kontinent	-14604
▁lö	-14605
stal	-14606
▁incred	-14607
▁adapted	-14608
▁geprägt	-14609
▁zukünftige	-14610
▁Kanada	-14611
▁fascin	-14612
iliation	-14613
▁Meeting	-14614
mitglieder	-14615
▁Binnenmarktes	-14616
greg	-14617
▁läßt	-14618
▁Gespräch	-14619
▁vorliegende	-14620
▁Internationale	-14621
▁AU	-14622
zell	-14623
▁korr	-14624
▁Nachbarn	-14625
▁perfekte	-14626
▁pretty	-14627
▁massage	-14628
▁Erinnerung	-14629
▁hervorragenden	-14630
nimmt	-14631
▁Regierungschefs	-14632
▁synth	-14633
▁democrat	-14634
▁investigation	-14635
herstellung	-14636
▁langfristig	-14637
ords	-14638
▁Civil	-14639
▁anzub	-14640
▁combine	-14641
▁Mah	-14642
▁Euch	-14643
▁angekünd	-14644
▁ähnliche	-14645
▁behinder	-14646
▁militärische	-14647
ICHT	-14648
▁checks	-14649
▁stret	-14650
ugoslaw	-14651
▁splend	-14652
▁student	-14653
▁natürliche	-14654
▁Reservierung	-14655
▁nachdrücklich	-14656
▁Hon	-14657
▁Börse	-14658
ifferenz	-14659
▁penalty	-14660
▁female	-14661
▁dargestellt	-14662
▁nbsp	-14663
▁tank	-14664
grunde	-14665
▁dankbar	-14666
▁generate	-14667
pfung	-14668
ranche	-14669
▁travelling	-14670
▁BA	-14671
sson	-14672
zahlen	-14673
▁Meines	-14674
▁edition	-14675
▁Abschaffung	-14676
▁Ast	-14677
▁liquid	-14678
▁showed	-14679
▁bedeutend	-14680
▁computers	-14681
▁universities	-14682
▁Hels	-14683
▁gewünschten	-14684
unruh	-14685
▁ended	-14686
▁Rod	-14687
▁vorbei	-14688
▁turning	-14689
▁ausgehen	-14690
▁festzulegen	-14691
▁unabhängigen	-14692
▁bez	-14693
▁till	-14694
▁sight	-14695
▁zit	-14696
The	-14697
▁ingred	-14698
uum	-14699
▁AND	-14700
▁Bab	-14701
▁Parameter	-14702
▁Beteiligten	-14703
▁aer	-14704
▁notes	-14705
▁Unions	-14706
▁column	-14707
▁gap	-14708
▁Small	-14709
▁jetzigen	-14710
▁Berichten	-14711
▁gerichtet	-14712
▁generations	-14713
▁productivity	-14714
tere	-14715
reche	-14716
▁hingegen	-14717
▁normalen	-14718
▁underground	-14719
[...]
